<unk>	0
<s>	0
</s>	0
<pad>	0
.	-3.02447
,	-3.15816
▁the	-3.28148
s	-3.8149
▁of	-3.89194
'	-3.94839
▁to	-3.98124
▁and	-4.08963
▁a	-4.14299
▁in	-4.23497
▁I	-4.41097
▁you	-4.64596
▁is	-4.76161
▁that	-4.89399
▁was	-5.0353
t	-5.12819
▁for	-5.13612
▁it	-5.15166
?	-5.17804
-	-5.21408
▁The	-5.27195
▁on	-5.30884
▁	-5.35965
▁with	-5.36304
▁as	-5.53108
▁be	-5.62931
▁this	-5.63545
▁are	-5.67427
▁have	-5.67762
▁by	-5.69261
▁(	-5.73032
▁we	-5.74726
▁from	-5.76662
▁at	-5.83413
▁"	-5.86841
re	-5.89137
▁not	-5.9107
▁You	-5.95992
▁-	-5.96146
▁he	-5.96578
▁me	-5.96623
▁can	-5.99602
)	-6.02545
m	-6.02629
▁It	-6.03068
▁an	-6.05789
▁his	-6.17599
▁your	-6.19013
▁And	-6.19194
▁one	-6.20636
▁or	-6.21567
▁my	-6.21576
▁were	-6.21787
...	-6.22761
▁In	-6.23072
▁they	-6.25339
▁all	-6.26304
▁but	-6.27788
▁know	-6.29363
▁what	-6.29473
▁about	-6.30355
▁do	-6.31452
ing	-6.32224
▁her	-6.33665
d	-6.38332
▁has	-6.42652
▁had	-6.44587
▁He	-6.4733
:	-6.48024
▁which	-6.4856
▁out	-6.49694
▁like	-6.50778
▁just	-6.52748
▁We	-6.53389
▁there	-6.53705
▁she	-6.55811
!	-6.57718
▁been	-6.60099
▁don	-6.6204
▁who	-6.6245
▁up	-6.63356
▁A	-6.64645
▁time	-6.65254
▁so	-6.66682
▁their	-6.66964
"	-6.67229
▁first	-6.67276
ll	-6.67472
▁will	-6.68437
▁him	-6.70496
▁here	-6.70898
▁also	-6.71328
▁more	-6.72191
ve	-6.73436
▁if	-6.74512
▁would	-6.74622
ed	-6.75825
▁So	-6.76248
▁when	-6.7771
▁get	-6.7813
▁This	-6.80064
▁think	-6.83212
▁other	-6.8371
▁people	-6.83743
▁But	-6.84813
▁them	-6.87964
▁two	-6.88567
▁right	-6.92784
▁no	-6.93123
▁want	-6.94652
▁into	-6.95137
▁now	-6.96482
▁some	-6.97024
▁She	-6.97595
▁only	-6.9889
▁over	-7.02511
▁our	-7.03071
▁us	-7.03533
▁than	-7.0397
▁They	-7.048
▁see	-7.05802
▁could	-7.09773
▁after	-7.1229
e	-7.12372
▁go	-7.12679
▁its	-7.12963
▁where	-7.13004
▁then	-7.13307
▁going	-7.13653
▁That	-7.14053
▁years	-7.14222
▁these	-7.14307
▁got	-7.14562
a	-7.16517
;	-7.17223
▁how	-7.18295
▁What	-7.18456
▁most	-7.25364
th	-7.25396
▁way	-7.26272
▁need	-7.27064
y	-7.27604
ly	-7.28355
▁very	-7.29116
▁make	-7.29222
▁because	-7.32171
▁take	-7.34215
▁used	-7.34322
▁did	-7.3516
▁new	-7.35174
▁world	-7.36773
▁There	-7.38047
▁said	-7.38187
▁If	-7.38706
er	-7.39421
in	-7.41039
▁really	-7.41656
▁No	-7.43476
▁many	-7.43909
▁Well	-7.44727
▁something	-7.44731
▁any	-7.45662
▁work	-7.45802
▁such	-7.46263
."	-7.46556
▁well	-7.47424
▁good	-7.47923
▁before	-7.48669
▁made	-7.49398
▁between	-7.4958
▁gonna	-7.50483
▁down	-7.50647
▁life	-7.51036
▁much	-7.51166
▁three	-7.5213
▁say	-7.53087
).	-7.53724
),	-7.54583
▁man	-7.55043
▁being	-7.56034
▁through	-7.567
n	-7.57693
▁even	-7.5775
▁part	-7.59558
▁come	-7.59774
▁never	-7.59812
▁little	-7.60047
▁may	-7.60057
i	-7.61224
▁should	-7.61568
▁same	-7.61721
▁tell	-7.62199
▁day	-7.62711
▁--	-7.6398
▁around	-7.65228
o	-7.65556
▁those	-7.65679
▁On	-7.66138
▁thing	-7.66263
▁name	-7.66722
▁still	-7.67726
▁use	-7.6817
S	-7.68689
▁known	-7.68805
▁off	-7.69353
▁found	-7.71199
▁during	-7.71292
▁called	-7.71999
▁year	-7.72241
▁didn	-7.73111
▁under	-7.73457
▁Now	-7.73903
▁too	-7.74999
▁find	-7.77088
▁last	-7.77361
▁place	-7.77759
▁long	-7.78034
▁United	-7.78042
▁number	-7.79825
▁things	-7.8051
▁look	-7.82222
▁later	-7.83834
▁own	-7.84932
▁while	-7.85055
▁until	-7.85513
▁both	-7.86074
al	-7.86156
▁let	-7.86493
▁city	-7.8714
▁As	-7.87163
".	-7.87631
I	-7.8789
▁why	-7.89044
▁1	-7.89169
▁thought	-7.89557
▁won	-7.90216
▁became	-7.90217
▁When	-7.90256
▁How	-7.90442
▁2	-7.90859
▁again	-7.9159
▁second	-7.9176
▁family	-7.9258
▁give	-7.92713
▁help	-7.93117
▁S	-7.94415
▁mean	-7.9472
▁New	-7.94821
es	-7.95143
▁home	-7.95532
▁de	-7.97053
▁end	-7.9749
▁system	-7.97649
▁different	-7.97827
▁Do	-7.98087
▁All	-7.98187
▁since	-7.98189
▁another	-7.99628
▁My	-7.99736
▁3	-7.99796
▁must	-8.0073
▁each	-8.01175
▁put	-8.02026
▁After	-8.021
▁against	-8.02304
r	-8.02386
▁every	-8.02628
▁–	-8.02906
▁left	-8.02965
▁father	-8.03416
▁love	-8.05156
▁For	-8.06379
▁U	-8.06444
▁government	-8.08162
▁Oh	-8.08955
▁million	-8.09091
▁took	-8.09288
▁Why	-8.09463
▁including	-8.10495
▁away	-8.10663
▁ever	-8.11187
▁States	-8.11301
▁water	-8.11509
▁doing	-8.11679
▁four	-8.11771
▁Yeah	-8.12797
▁better	-8.12852
▁actually	-8.12906
▁high	-8.12924
▁always	-8.13442
▁lot	-8.13588
▁kind	-8.14459
▁country	-8.15002
▁anything	-8.15085
▁show	-8.15361
▁At	-8.1539
▁talk	-8.1553
▁came	-8.1616
▁call	-8.16441
▁told	-8.16687
▁World	-8.1743
▁next	-8.17769
▁May	-8.178
▁best	-8.18492
▁area	-8.18867
▁might	-8.18886
▁great	-8.20149
▁10	-8.20349
▁old	-8.20681
▁American	-8.21311
A	-8.21648
▁South	-8.21949
▁few	-8.22067
▁night	-8.22217
▁does	-8.22405
▁film	-8.22627
▁B	-8.2292
▁early	-8.22963
▁War	-8.22988
or	-8.23953
▁important	-8.24039
▁school	-8.24605
▁group	-8.24809
▁state	-8.25191
▁together	-8.25875
▁To	-8.26221
▁15	-8.26298
▁without	-8.26309
▁am	-8.26588
▁game	-8.26589
2	-8.26651
▁power	-8.27133
▁C	-8.27895
▁several	-8.28186
▁20	-8.28275
▁days	-8.28278
▁war	-8.2853
▁men	-8.28676
▁live	-8.29511
▁money	-8.29536
C	-8.29553
▁One	-8.29833
▁began	-8.2995
▁death	-8.30606
▁released	-8.30652
▁wanted	-8.30736
▁team	-8.30978
▁went	-8.31571
▁today	-8.32356
▁small	-8.32457
to	-8.33516
▁Don	-8.34085
▁century	-8.34308
▁often	-8.34465
▁set	-8.34471
g	-8.34597
▁These	-8.34681
▁five	-8.35005
▁4	-8.35609
▁human	-8.35843
l	-8.36171
▁species	-8.36562
an	-8.36586
▁October	-8.36823
▁mother	-8.36889
▁re	-8.36989
on	-8.3702
▁believe	-8.37261
c	-8.37266
▁done	-8.37403
▁doesn	-8.37501
▁become	-8.37709
▁June	-8.37729
▁keep	-8.38017
▁everything	-8.38097
▁July	-8.38306
▁started	-8.3842
▁change	-8.39137
▁Mr	-8.39319
▁March	-8.39618
▁head	-8.39774
▁January	-8.39937
▁nothing	-8.39955
▁However	-8.40243
▁point	-8.40254
▁5	-8.40257
▁sure	-8.40321
▁real	-8.40367
▁population	-8.40583
▁E	-8.40658
▁'	-8.41064
▁University	-8.4114
▁August	-8.41755
▁single	-8.41802
▁April	-8.41814
▁Your	-8.41889
▁enough	-8.41925
▁son	-8.41962
▁September	-8.42024
D	-8.42106
▁Because	-8.42167
▁guy	-8.42503
▁large	-8.42636
▁seen	-8.42857
b	-8.42966
▁start	-8.43283
▁within	-8.43324
▁Let	-8.43538
the	-8.44293
▁children	-8.44412
▁D	-8.44449
k	-8.4454
▁side	-8.44714
▁series	-8.45405
man	-8.45523
▁house	-8.45606
▁French	-8.45897
▁company	-8.45999
▁Japanese	-8.46028
▁feel	-8.46033
▁Just	-8.46291
▁women	-8.47577
▁leave	-8.48045
▁big	-8.48081
▁T	-8.48179
▁play	-8.48224
▁person	-8.48567
▁16	-8.48575
▁P	-8.48749
▁December	-8.49838
▁saw	-8.5043
▁form	-8.50632
▁along	-8.50703
▁control	-8.50969
▁His	-8.51098
▁November	-8.51127
▁order	-8.51525
▁kill	-8.51737
▁Then	-8.51864
▁body	-8.52054
▁North	-8.52111
▁case	-8.52237
▁China	-8.52241
▁care	-8.52283
▁born	-8.52467
▁M	-8.52505
▁idea	-8.5275
▁having	-8.53092
▁God	-8.53113
▁already	-8.53119
▁whole	-8.53406
▁able	-8.53446
▁times	-8.53472
▁once	-8.53503
▁story	-8.53904
▁trying	-8.5393
’	-8.5406
▁music	-8.54285
▁following	-8.54338
▁F	-8.5437
",	-8.54462
▁killed	-8.54764
▁named	-8.55085
▁looking	-8.55189
▁ago	-8.55584
▁K	-8.55592
▁example	-8.55823
▁means	-8.55986
▁An	-8.56004
▁course	-8.56155
▁using	-8.56862
▁6	-8.57139
▁Hey	-8.57503
▁someone	-8.577
▁making	-8.57838
▁O	-8.5813
▁late	-8.58388
▁major	-8.58432
▁business	-8.58567
▁working	-8.58591
▁based	-8.58729
en	-8.58964
▁12	-8.59205
▁understand	-8.59427
▁countries	-8.59621
▁light	-8.5992
▁stop	-8.60027
us	-8.60034
▁woman	-8.60337
▁half	-8.60597
▁G	-8.60619
B	-8.60655
▁girl	-8.60672
▁17	-8.60692
▁February	-8.60993
▁National	-8.61183
▁Can	-8.61513
▁Japan	-8.61556
▁coming	-8.61574
▁far	-8.61691
ers	-8.61823
▁lost	-8.6191
▁due	-8.62209
Laughter	-8.62589
▁age	-8.62806
▁least	-8.62908
▁problem	-8.63268
▁friend	-8.63347
▁Dur	-8.63719
▁car	-8.63973
▁album	-8.64057
▁public	-8.64103
▁German	-8.64144
▁season	-8.64169
▁months	-8.64264
▁died	-8.64273
▁line	-8.64465
▁7	-8.64507
▁town	-8.64684
▁song	-8.65036
▁less	-8.65184
▁British	-8.65238
▁ask	-8.65405
▁hard	-8.65879
F	-8.65954
▁dead	-8.65999
▁hand	-8.66108
▁else	-8.66479
▁top	-8.66604
▁Some	-8.66732
▁wife	-8.66856
▁support	-8.66874
1	-8.67069
▁Look	-8.6713
▁military	-8.67355
▁By	-8.67617
▁include	-8.67658
▁period	-8.67685
▁run	-8.67963
▁happened	-8.6797
3	-8.681
▁brother	-8.68191
▁local	-8.68319
▁given	-8.68398
▁Not	-8.68526
▁national	-8.68543
▁six	-8.68716
z	-8.68796
ic	-8.68868
▁II	-8.68956
▁though	-8.69101
▁room	-8.69116
▁open	-8.69363
–	-8.69679
▁guys	-8.69977
▁built	-8.70251
▁fact	-8.70305
T	-8.70376
▁history	-8.70553
▁14	-8.70634
▁near	-8.70736
▁held	-8.7079
▁located	-8.70834
▁getting	-8.70873
▁English	-8.71054
▁stay	-8.7112
▁main	-8.71135
▁hear	-8.71453
u	-8.71639
▁third	-8.7171
▁book	-8.71848
▁face	-8.72227
▁job	-8.72702
▁8	-8.72729
h	-8.73055
▁language	-8.73082
▁try	-8.73182
▁gave	-8.73326
▁Her	-8.73624
▁move	-8.73752
▁isn	-8.74002
▁bad	-8.74037
▁young	-8.74119
▁City	-8.74197
▁food	-8.746
▁close	-8.74716
▁air	-8.75059
▁un	-8.75497
▁common	-8.75511
▁club	-8.75849
▁R	-8.7612
▁...	-8.76366
▁bit	-8.76426
▁30	-8.76716
ta	-8.76789
▁Okay	-8.76895
▁mind	-8.77028
▁information	-8.77155
▁remember	-8.77333
▁President	-8.77687
▁America	-8.77908
▁13	-8.77946
--	-8.78026
▁wrong	-8.78154
▁King	-8.78514
▁With	-8.78648
▁Chinese	-8.79025
▁political	-8.79144
able	-8.79362
▁led	-8.79449
▁John	-8.79783
▁word	-8.79886
x	-8.79995
▁H	-8.80412
▁region	-8.80423
▁Are	-8.80433
▁yet	-8.80589
▁Earth	-8.80655
▁blood	-8.80694
▁heard	-8.80767
▁free	-8.80952
▁video	-8.80987
▁talking	-8.81425
▁land	-8.81441
▁hours	-8.81471
▁developed	-8.81631
▁daughter	-8.81759
▁knew	-8.81959
▁okay	-8.81995
▁almost	-8.82088
▁maybe	-8.82222
▁York	-8.82463
▁France	-8.82487
▁probably	-8.82647
O	-8.82694
▁wasn	-8.82695
▁full	-8.82907
▁matter	-8.82935
▁building	-8.83165
▁Europe	-8.83511
▁process	-8.83689
G	-8.83739
▁yourself	-8.83921
▁across	-8.84079
▁either	-8.84159
▁Africa	-8.84197
▁development	-8.84237
▁San	-8.84303
▁received	-8.84351
▁future	-8.84508
▁sorry	-8.84527
▁role	-8.84528
—	-8.84529
▁played	-8.84549
▁9	-8.84605
▁Al	-8.84687
▁From	-8.84734
▁11	-8.84935
▁please	-8.8495
▁among	-8.85022
▁V	-8.85064
▁data	-8.85236
▁Yes	-8.85266
▁heart	-8.85304
na	-8.85378
▁US	-8.85526
▁south	-8.85552
▁possible	-8.85589
p	-8.8569
▁north	-8.85794
▁created	-8.85872
▁Maybe	-8.85997
▁production	-8.8613
▁considered	-8.86198
ra	-8.8624
▁N	-8.8676
N	-8.86856
▁saying	-8.86936
▁moved	-8.86969
▁total	-8.87013
▁service	-8.87099
▁original	-8.87142
▁law	-8.87163
▁friends	-8.87226
▁rest	-8.87373
▁party	-8.87853
▁Or	-8.88045
▁non	-8.88092
▁18	-8.88292
▁taken	-8.88433
▁L	-8.88505
▁short	-8.88517
▁soon	-8.88924
▁living	-8.88952
▁19	-8.88952
The	-8.89094
▁level	-8.89128
le	-8.89214
▁turn	-8.89229
▁largest	-8.89788
▁taking	-8.89973
▁per	-8.89987
▁wouldn	-8.90376
▁members	-8.90405
▁fire	-8.90544
M	-8.9064
▁percent	-8.9067
▁fight	-8.90758
▁member	-8.90905
▁asked	-8.9094
▁minutes	-8.91038
▁outside	-8.9116
▁international	-8.91226
▁League	-8.91226
P	-8.91539
▁space	-8.91598
▁final	-8.91635
H	-8.91723
▁India	-8.92188
▁J	-8.92221
▁Come	-8.92263
▁social	-8.92493
▁co	-8.92583
ation	-8.92885
▁usually	-8.92914
▁child	-8.93009
▁Soviet	-8.93056
▁worked	-8.93093
▁energy	-8.93493
E	-8.93552
▁European	-8.93695
▁sent	-8.94197
▁reason	-8.94234
▁myself	-8.94341
▁version	-8.94529
▁inside	-8.94877
▁past	-8.94954
no	-8.95062
▁result	-8.95245
▁sometimes	-8.95256
▁bring	-8.95352
▁meet	-8.95482
▁similar	-8.95506
▁Go	-8.95576
▁research	-8.95671
born	-8.95701
▁published	-8.95768
▁island	-8.95784
▁question	-8.95862
▁married	-8.96198
▁others	-8.96235
▁pretty	-8.96623
▁forces	-8.96674
▁study	-8.96681
▁former	-8.96743
4	-8.96866
▁Did	-8.96912
▁thinking	-8.9717
▁morning	-8.97216
▁established	-8.97297
▁present	-8.97321
de	-8.97472
▁himself	-8.97483
▁position	-8.97532
▁2011	-8.97664
▁makes	-8.97672
▁office	-8.97773
▁general	-8.98072
ia	-8.98089
▁areas	-8.9826
▁true	-8.98459
▁First	-8.98585
▁km	-8.98732
▁boy	-8.98865
▁low	-8.99097
▁week	-8.9928
▁says	-8.99318
▁Who	-8.99358
▁brought	-8.9938
▁deal	-8.99558
▁capital	-8.99657
ity	-8.99779
▁lives	-8.99794
▁hope	-8.99807
▁various	-8.99816
▁East	-8.9988
▁returned	-8.99998
▁return	-9.00266
▁served	-9.00317
▁m	-9.00435
▁special	-9.00513
K	-9.01172
▁hit	-9.01518
▁modern	-9.01653
▁La	-9.0172
▁further	-9.0206
?"	-9.02073
▁anyone	-9.0215
▁force	-9.02283
▁design	-9.02289
▁behind	-9.02314
▁rather	-9.02581
▁International	-9.02654
▁pay	-9.03131
▁announced	-9.03163
▁however	-9.03389
▁term	-9.03846
▁happen	-9.03963
▁alone	-9.04285
▁king	-9.04509
ist	-9.04557
▁Man	-9.0462
▁read	-9.0465
▁100	-9.04676
▁aircraft	-9.04774
▁die	-9.04805
and	-9.05146
▁ship	-9.05158
▁career	-9.05193
year	-9.05301
▁type	-9.05502
▁front	-9.05579
▁works	-9.05586
▁brain	-9.05832
ka	-9.06193
5	-9.06339
▁Where	-9.06394
▁2013	-9.0643
▁Army	-9.06458
▁comes	-9.06478
▁longer	-9.06692
▁2012	-9.06791
f	-9.06874
ism	-9.06879
▁moment	-9.07058
▁model	-9.07305
▁West	-9.07343
▁produced	-9.0756
▁lead	-9.07707
ton	-9.07905
▁written	-9.07945
ma	-9.08091
▁Since	-9.08132
▁official	-9.09003
el	-9.09228
▁police	-9.09229
▁joined	-9.09476
▁Russian	-9.0955
▁Germany	-9.09608
▁release	-9.10023
▁exactly	-9.10126
▁popular	-9.10166
▁River	-9.10374
ne	-9.10383
▁St	-9.10511
▁field	-9.10727
▁Union	-9.10826
▁chance	-9.10857
▁army	-9.1089
da	-9.10938
▁25	-9.10987
▁couldn	-9.1104
▁included	-9.11321
▁record	-9.11335
▁phone	-9.11355
▁People	-9.11543
▁Minister	-9.11554
▁technology	-9.11959
▁parents	-9.12005
te	-9.12292
▁uh	-9.12387
▁project	-9.12417
▁hold	-9.12589
is	-9.12625
▁met	-9.12626
▁stuff	-9.12682
up	-9.12929
▁shot	-9.13284
▁plan	-9.13312
it	-9.13484
▁program	-9.13518
▁&	-9.13561
▁although	-9.13703
▁village	-9.1382
▁available	-9.13907
▁Re	-9.13915
▁mi	-9.14192
▁cannot	-9.14195
▁wrote	-9.14248
▁sea	-9.14369
▁health	-9.14428
▁everyone	-9.14464
▁title	-9.14489
▁changed	-9.14871
▁decided	-9.14952
▁hands	-9.1503
▁According	-9.15063
▁sir	-9.15109
▁Korea	-9.15129
▁Republic	-9.15374
▁Me	-9.1538
(	-9.15495
▁husband	-9.15498
▁sister	-9.15601
▁wanna	-9.15665
▁sense	-9.15801
la	-9.15803
ar	-9.15903
▁market	-9.15955
▁create	-9.15987
▁quite	-9.1599
▁art	-9.15992
▁strong	-9.16087
▁instead	-9.16137
▁Cup	-9.16333
▁Although	-9.1644
▁Vietnam	-9.16447
▁Dr	-9.16515
L	-9.16749
▁Miss	-9.17086
▁continued	-9.17249
▁While	-9.17278
▁systems	-9.17291
▁ready	-9.17389
▁range	-9.1779
▁games	-9.17827
▁General	-9.17931
co	-9.18114
ian	-9.18181
ine	-9.18213
▁eyes	-9.1846
▁president	-9.18607
▁gone	-9.18641
do	-9.18708
▁wait	-9.1888
▁white	-9.18921
▁described	-9.18943
▁natural	-9.19041
em	-9.19506
▁School	-9.19526
▁21	-9.19532
▁economic	-9.1959
▁De	-9.19601
▁television	-9.19847
▁win	-9.19858
▁itself	-9.19982
▁haven	-9.20206
▁tried	-9.20277
▁player	-9.20339
▁cut	-9.20397
▁especially	-9.2052
▁nice	-9.20528
▁list	-9.20607
▁parts	-9.20646
▁words	-9.20715
▁save	-9.2073
▁certain	-9.20901
▁speak	-9.20912
▁cause	-9.21127
▁couple	-9.21341
▁W	-9.21378
▁kids	-9.21514
▁seven	-9.21524
▁computer	-9.21539
▁London	-9.21801
▁upon	-9.2184
▁learn	-9.22033
▁Roman	-9.22313
▁weeks	-9.22512
▁Park	-9.22518
▁happy	-9.22627
▁baby	-9.22904
▁eight	-9.2297
▁community	-9.22979
▁entire	-9.23013
▁education	-9.23052
▁X	-9.23087
▁Most	-9.23098
▁beginning	-9.23258
▁northern	-9.23369
▁sort	-9.23525
▁guess	-9.23716
▁battle	-9.23863
▁east	-9.23917
▁problems	-9.2396
ry	-9.24054
▁wants	-9.24146
▁playing	-9.24167
▁Here	-9.2434
▁goes	-9.24398
▁fine	-9.24481
ness	-9.2454
▁Two	-9.24716
ni	-9.24727
▁clear	-9.24915
▁football	-9.24985
6	-9.25072
ion	-9.25328
ro	-9.25425
▁ground	-9.25462
▁break	-9.25545
▁training	-9.25581
▁states	-9.25632
▁Kingdom	-9.25734
▁formed	-9.25788
▁science	-9.25806
▁24	-9.25807
▁above	-9.25846
▁sound	-9.25865
▁test	-9.25876
▁50	-9.26234
▁eat	-9.26455
▁Like	-9.26521
▁Of	-9.26651
ce	-9.26718
land	-9.268
▁sold	-9.26956
▁southern	-9.26997
R	-9.27069
▁red	-9.27185
▁groups	-9.27338
▁stand	-9.27466
▁size	-9.27507
▁State	-9.27521
▁African	-9.27609
▁answer	-9.27773
▁Please	-9.27823
▁action	-9.28048
ri	-9.28238
▁throughout	-9.28385
▁Air	-9.2859
▁ten	-9.28679
▁self	-9.28725
▁figure	-9.28756
▁current	-9.28833
ie	-9.28852
▁reported	-9.2888
▁Australia	-9.28948
▁Retrieved	-9.28971
▁west	-9.29043
▁supposed	-9.29255
▁beautiful	-9.29706
▁Korean	-9.29802
▁House	-9.29864
▁month	-9.29899
▁finally	-9.30018
▁discovered	-9.30057
▁(19	-9.30095
▁tonight	-9.30515
▁experience	-9.30591
▁cases	-9.3081
▁central	-9.30876
▁running	-9.31226
▁gun	-9.31264
↑	-9.31322
▁addition	-9.31395
▁spent	-9.31414
▁theory	-9.318
▁followed	-9.31931
▁Tell	-9.31961
▁involved	-9.32014
▁billion	-9.32017
▁needed	-9.32095
▁surface	-9.32236
▁site	-9.32279
ko	-9.32327
▁river	-9.32394
▁Party	-9.32401
▁cells	-9.32515
▁value	-9.32767
▁rate	-9.32775
ca	-9.33054
▁star	-9.3308
▁0	-9.33089
▁needs	-9.33123
one	-9.33181
▁trade	-9.33268
▁cost	-9.33382
▁truth	-9.33483
▁reached	-9.33513
▁themselves	-9.33945
V	-9.33959
▁whether	-9.34011
style	-9.3403
▁character	-9.34042
▁build	-9.34211
W	-9.34225
▁protect	-9.34245
▁cell	-9.34451
▁cities	-9.346
▁gotta	-9.34722
▁animals	-9.35042
▁signed	-9.35044
ary	-9.35133
▁Many	-9.3526
▁share	-9.35316
▁Poland	-9.35383
▁numbers	-9.35555
▁relationship	-9.35585
as	-9.35603
▁Sea	-9.35728
▁England	-9.35786
▁Island	-9.35811
▁Get	-9.35829
▁higher	-9.35837
▁Spanish	-9.35848
am	-9.3595
▁personal	-9.3621
▁turned	-9.36253
▁evidence	-9.36291
▁safe	-9.36376
▁{\	-9.36391
▁Central	-9.36647
son	-9.36716
▁founded	-9.36877
▁allowed	-9.36903
go	-9.36915
▁oil	-9.3699
▁♪	-9.37159
w	-9.37342
▁e	-9.37385
▁Even	-9.37462
▁al	-9.37746
old	-9.37849
▁culture	-9.38084
ty	-9.38121
▁band	-9.38249
▁i	-9.38304
▁easy	-9.38304
▁Asia	-9.38327
il	-9.3855
▁effect	-9.38691
▁remained	-9.38899
▁Great	-9.38982
▁simple	-9.3907
▁planet	-9.39395
▁related	-9.39551
▁Russia	-9.39592
▁terms	-9.39592
▁22	-9.39621
um	-9.39652
▁key	-9.39654
▁tomorrow	-9.39675
▁designed	-9.39718
▁walk	-9.39825
me	-9.39966
▁Our	-9.40013
at	-9.40023
▁students	-9.40092
▁anti	-9.40181
▁interest	-9.40185
▁Empire	-9.40425
▁Have	-9.40518
▁looks	-9.40577
▁c	-9.40589
▁mid	-9.40612
▁news	-9.4067
▁happens	-9.40835
▁Western	-9.40841
▁Ha	-9.4087
time	-9.40992
▁lived	-9.41058
▁trust	-9.4109
▁media	-9.41174
▁completely	-9.41211
▁kid	-9.41351
▁difficult	-9.41376
▁mine	-9.41431
▁meeting	-9.4152
▁particular	-9.41589
▁California	-9.41626
▁disease	-9.41642
▁marriage	-9.41696
▁Be	-9.4179
,"	-9.41818
▁recorded	-9.41855
▁highest	-9.41932
▁success	-9.41989
▁security	-9.42006
▁changes	-9.42025
▁eventually	-9.42228
▁center	-9.42375
▁structure	-9.42551
▁act	-9.42751
nd	-9.42882
▁District	-9.42896
less	-9.42959
▁23	-9.43044
▁Italian	-9.43085
▁appeared	-9.43142
▁generally	-9.43239
▁average	-9.43244
▁takes	-9.43282
▁lower	-9.43307
▁wish	-9.43347
un	-9.43372
▁fall	-9.43478
ment	-9.43609
▁seems	-9.43837
▁moving	-9.44038
▁El	-9.4417
▁coast	-9.44206
▁caused	-9.44333
▁stage	-9.44557
▁source	-9.44612
▁private	-9.44643
▁rule	-9.44644
▁40	-9.44664
▁nature	-9.44704
▁buy	-9.44829
▁companies	-9.44944
▁events	-9.45012
▁station	-9.45046
▁industry	-9.45082
▁Paris	-9.45179
▁pre	-9.45193
ur	-9.45237
▁date	-9.45383
▁pressure	-9.45454
▁significant	-9.45623
▁sex	-9.45845
▁risk	-9.45875
▁girls	-9.45914
▁Red	-9.45937
▁Polish	-9.46094
▁court	-9.46096
▁border	-9.46194
▁summer	-9.46198
▁Ma	-9.46264
▁treatment	-9.46375
▁choice	-9.46404
▁anymore	-9.46418
ling	-9.46444
▁write	-9.46445
▁George	-9.46466
▁sleep	-9.46513
▁x	-9.46553
▁2004	-9.4667
▁situation	-9.46755
▁alive	-9.4677
▁provide	-9.46831
▁road	-9.4687
U	-9.46896
▁product	-9.46997
▁currently	-9.4713
▁access	-9.47305
▁miles	-9.47601
▁door	-9.47669
▁services	-9.47704
▁foreign	-9.47848
▁felt	-9.47886
▁medical	-9.47975
▁leaving	-9.48063
▁fast	-9.48123
▁telling	-9.48294
▁trouble	-9.48321
▁picture	-9.48386
li	-9.48443
▁troops	-9.48472
▁post	-9.48502
▁whatever	-9.4855
▁amount	-9.48633
▁female	-9.48724
ba	-9.48959
▁performed	-9.49008
▁Sir	-9.49075
se	-9.49122
▁cover	-9.49372
▁follow	-9.49616
▁TV	-9.49677
line	-9.49697
▁2010	-9.49816
▁gold	-9.49916
▁introduced	-9.50023
▁f	-9.50077
▁towards	-9.50333
men	-9.5035
▁movement	-9.50427
▁opened	-9.50517
▁radio	-9.50745
▁Battle	-9.50773
▁professional	-9.50896
▁powerful	-9.50996
▁hospital	-9.51072
▁material	-9.51142
▁performance	-9.51174
di	-9.51232
▁Canada	-9.51252
▁event	-9.51258
▁complex	-9.51344
▁machine	-9.51383
▁hurt	-9.51438
▁2001	-9.51477
be	-9.51536
▁successful	-9.51661
▁increase	-9.51738
▁middle	-9.51801
▁features	-9.51806
▁sub	-9.51839
▁Co	-9.51865
ter	-9.51873
▁peace	-9.51958
▁Thank	-9.52131
▁base	-9.52301
▁director	-9.52502
▁Lord	-9.52615
▁traditional	-9.52874
ch	-9.52977
ge	-9.52998
▁Na	-9.52999
▁Council	-9.53025
▁decision	-9.53164
ga	-9.53262
▁whose	-9.53283
▁round	-9.5334
▁Italy	-9.53374
▁leading	-9.53381
▁growth	-9.53519
▁function	-9.53532
▁poor	-9.53538
▁believed	-9.53562
▁lose	-9.53618
▁fish	-9.53678
▁campaign	-9.53754
▁secret	-9.53847
▁1980	-9.53857
▁increased	-9.53986
▁attention	-9.54091
▁ships	-9.54097
▁send	-9.54097
▁larger	-9.54253
▁Other	-9.5426
▁ancient	-9.54343
▁global	-9.54351
▁eye	-9.54425
▁writing	-9.54444
per	-9.54458
▁arrived	-9.54575
7	-9.54607
▁James	-9.54698
▁district	-9.55091
▁giving	-9.55247
▁code	-9.55281
▁Royal	-9.55321
▁26	-9.55442
▁Navy	-9.55528
▁feet	-9.5571
▁piece	-9.55747
▁famous	-9.55775
▁individual	-9.55967
▁gas	-9.56022
ya	-9.5603
▁reach	-9.56089
▁Take	-9.5611
v	-9.56118
▁listen	-9.56154
display	-9.5621
▁Right	-9.56221
▁produce	-9.56333
▁Bo	-9.56335
▁28	-9.56405
▁waiting	-9.56469
▁books	-9.56581
▁view	-9.56587
▁debut	-9.56658
▁looked	-9.56717
▁report	-9.56737
▁Bay	-9.5679
▁27	-9.56812
▁allow	-9.56839
▁according	-9.56873
▁BC	-9.56907
▁mission	-9.56963
8	-9.57015
ive	-9.5702
▁d	-9.57043
ti	-9.57105
ate	-9.57217
▁meaning	-9.57283
▁See	-9.57351
▁particularly	-9.57404
ul	-9.57415
▁cancer	-9.57455
▁normal	-9.57504
▁drug	-9.57551
ally	-9.57574
▁pain	-9.5758
▁Le	-9.57599
▁Force	-9.57672
▁products	-9.57698
▁Division	-9.57733
▁construction	-9.57782
▁somebody	-9.57784
▁approximately	-9.57797
▁2008	-9.57843
▁standard	-9.57854
▁fighting	-9.57864
ir	-9.57886
ized	-9.57926
▁likely	-9.57945
▁Indian	-9.58066
▁thank	-9.58293
▁operations	-9.5836
-19	-9.58416
▁complete	-9.58424
▁hour	-9.58461
▁2006	-9.58774
▁worry	-9.58779
▁shows	-9.58789
ies	-9.58803
▁languages	-9.58832
▁earlier	-9.58879
▁1990	-9.58924
▁active	-9.58983
▁sign	-9.59021
▁Good	-9.59059
▁seem	-9.59067
▁added	-9.59074
▁shall	-9.5921
▁hot	-9.59297
rs	-9.59391
▁afraid	-9.59395
▁leader	-9.59397
ous	-9.59536
▁environment	-9.59573
▁society	-9.59635
▁Uh	-9.59756
▁competition	-9.59819
▁ability	-9.59821
▁studies	-9.59875
▁Greek	-9.59929
▁Islands	-9.59933
▁Only	-9.59964
▁questions	-9.6001
▁conditions	-9.60187
▁ways	-9.60195
▁Prince	-9.60325
▁2014	-9.60346
j	-9.6035
mo	-9.60376
▁physical	-9.60392
▁Z	-9.60395
▁rights	-9.606
▁completed	-9.60609
▁western	-9.60776
▁network	-9.60786
▁effects	-9.60859
▁influence	-9.6109
▁stories	-9.61205
▁Group	-9.61503
▁Paul	-9.61629
▁Sun	-9.61776
Y	-9.61796
▁contact	-9.61825
▁specific	-9.61903
▁simply	-9.62021
▁gets	-9.62026
▁thus	-9.62095
▁1,	-9.62236
▁plant	-9.62282
ng	-9.62311
▁hair	-9.62369
▁join	-9.624
age	-9.62554
▁replaced	-9.62587
▁Su	-9.62599
▁includes	-9.62759
▁nearly	-9.62849
▁Ka	-9.62856
▁deep	-9.62863
▁p	-9.6287
▁Windows	-9.62915
▁Queen	-9.62921
▁Mexico	-9.63016
▁aren	-9.63017
▁units	-9.6307
▁cold	-9.63099
▁paper	-9.63122
▁everybody	-9.63136
day	-9.63173
▁directly	-9.63279
▁Li	-9.63286
▁kept	-9.63298
▁ice	-9.63356
▁Spain	-9.63388
▁step	-9.63401
▁policy	-9.63463
ha	-9.63497
▁fun	-9.63531
▁heavy	-9.63561
}	-9.63604
▁continue	-9.63611
based	-9.63681
▁acid	-9.63715
▁difference	-9.64163
▁nine	-9.64165
▁equal	-9.64176
▁becoming	-9.64202
lo	-9.64214
ki	-9.64248
▁legal	-9.64291
▁names	-9.64298
▁Emperor	-9.64643
▁High	-9.64755
▁placed	-9.64789
▁ended	-9.64794
▁2009	-9.64871
▁degree	-9.64872
J	-9.64895
▁previous	-9.64901
▁originally	-9.65052
▁2015	-9.65125
▁command	-9.65224
▁2007	-9.65232
▁smaller	-9.6541
▁forms	-9.65467
▁offer	-9.65489
▁asking	-9.65692
é	-9.65758
▁feeling	-9.65871
▁voice	-9.65883
▁results	-9.65986
▁park	-9.66031
▁Ho	-9.66068
▁minute	-9.66182
▁Pacific	-9.66193
▁learned	-9.66207
▁blue	-9.66307
▁David	-9.66588
▁types	-9.66595
▁goal	-9.66657
▁crazy	-9.66713
▁fear	-9.66769
▁price	-9.66869
▁spend	-9.66922
▁separate	-9.66991
▁appointed	-9.67046
▁street	-9.67055
▁starting	-9.67079
▁commercial	-9.67126
▁Mi	-9.6716
▁drink	-9.672
id	-9.6724
▁practice	-9.67473
▁dark	-9.67498
mi	-9.67504
▁drive	-9.67509
by	-9.67529
▁location	-9.67665
▁remains	-9.67681
▁unit	-9.67711
▁1970	-9.67839
▁management	-9.67853
▁fourth	-9.67955
▁Charles	-9.68005
▁animal	-9.68082
ler	-9.68097
ization	-9.68161
ji	-9.68231
▁forced	-9.68338
▁finished	-9.68352
▁worth	-9.68401
▁serious	-9.68419
▁Another	-9.68489
▁software	-9.68531
ke	-9.68608
▁issue	-9.68672
▁Sa	-9.68751
▁contract	-9.68781
▁—	-9.68833
▁grow	-9.68863
▁interesting	-9.69075
▁direct	-9.69226
▁shoot	-9.69411
▁required	-9.69455
▁Will	-9.69459
ting	-9.69546
est	-9.69588
▁Chi	-9.6962
▁flight	-9.6973
▁dad	-9.69783
com	-9.69913
▁via	-9.69954
▁territory	-9.7016
▁Second	-9.70413
rd	-9.70543
▁subject	-9.70584
za	-9.70642
▁entered	-9.70653
▁independent	-9.70845
▁activity	-9.70854
▁levels	-9.70857
▁Y	-9.70869
▁doctor	-9.70903
▁supply	-9.70924
▁birth	-9.71089
▁mostly	-9.71195
▁eastern	-9.71357
▁William	-9.71402
▁humans	-9.71505
▁speed	-9.71518
▁immediately	-9.71523
▁economy	-9.71545
▁damage	-9.71559
▁primary	-9.71591
▁mom	-9.71745
▁meant	-9.71803
▁spread	-9.71829
▁plays	-9.71841
&	-9.71843
▁huh	-9.71852
▁showed	-9.71868
tic	-9.71873
▁Their	-9.7188
wa	-9.71934
▁image	-9.71948
▁la	-9.71955
▁square	-9.71986
▁stars	-9.72012
▁helped	-9.7214
▁“	-9.72241
▁players	-9.7229
der	-9.72415
▁shown	-9.72468
▁bank	-9.72523
▁responsible	-9.72541
▁places	-9.72636
▁limited	-9.72698
▁referred	-9.72823
▁loss	-9.72992
▁songs	-9.73074
▁29	-9.73119
▁forward	-9.73166
den	-9.7317
▁Those	-9.73181
▁dance	-9.7324
▁patients	-9.73262
▁killing	-9.73277
▁provided	-9.73353
ner	-9.73426
▁destroyed	-9.73446
▁potential	-9.73478
▁whom	-9.73497
▁movie	-9.73547
▁enemy	-9.73684
▁stated	-9.73703
▁launched	-9.7372
▁visit	-9.73866
▁points	-9.73866
▁temperature	-9.73867
▁sit	-9.73871
▁=	-9.7389
▁color	-9.74036
▁Latin	-9.74149
▁length	-9.7422
▁memory	-9.74237
▁contains	-9.74255
▁church	-9.74293
▁Prime	-9.74305
▁table	-9.74337
▁2016	-9.7437
▁studied	-9.74431
▁style	-9.74511
▁board	-9.74512
▁bed	-9.74548
▁election	-9.74609
▁dog	-9.74616
▁charge	-9.74712
▁Captain	-9.74713
▁elected	-9.74908
▁°	-9.74998
he	-9.75016
▁issues	-9.75026
▁III	-9.75041
▁positive	-9.75086
▁greater	-9.75174
▁below	-9.75218
ol	-9.75221
▁teams	-9.75276
▁tree	-9.75278
▁Ko	-9.75351
▁dream	-9.75405
ley	-9.75463
▁response	-9.75521
▁province	-9.75661
▁Michael	-9.75687
▁imagine	-9.75747
▁ft	-9.75756
▁organization	-9.75907
▁travel	-9.76076
os	-9.76083
▁plants	-9.76095
▁1960	-9.76301
we	-9.76313
▁forget	-9.76313
▁message	-9.76335
▁focus	-9.76402
pa	-9.76616
▁Kim	-9.76627
▁majority	-9.76711
▁Before	-9.76776
▁nuclear	-9.76788
▁Mary	-9.76804
X	-9.76841
▁grew	-9.76909
▁estimated	-9.76959
▁novel	-9.77045
▁touch	-9.77134
▁County	-9.77165
▁distance	-9.77204
▁weight	-9.7726
▁religious	-9.77261
ah	-9.773
▁prison	-9.77306
▁pro	-9.77341
▁Hong	-9.77371
▁Ra	-9.774
▁horse	-9.7742
▁recent	-9.77469
▁Every	-9.77472
▁failed	-9.77473
▁Robert	-9.77473
▁train	-9.77488
▁raised	-9.77646
▁di	-9.77696
▁Internet	-9.7772
▁growing	-9.77763
▁sales	-9.77788
▁explain	-9.77835
▁Am	-9.7787
")	-9.77984
▁soldiers	-9.78061
▁Egypt	-9.78079
▁yes	-9.78088
▁seeing	-9.78223
▁ran	-9.78244
ja	-9.78313
▁remain	-9.78652
▁UK	-9.78726
▁Rome	-9.78742
▁mainly	-9.78852
bo	-9.78876
▁civil	-9.78911
▁rules	-9.78931
▁ain	-9.78985
▁beyond	-9.79069
▁Award	-9.79075
▁families	-9.79132
▁begin	-9.79156
▁ex	-9.79227
▁highly	-9.79282
▁clean	-9.79316
▁boys	-9.79395
–19	-9.79411
▁search	-9.79439
▁older	-9.79464
▁student	-9.7947
▁thousands	-9.79484
▁financial	-9.79487
▁perfect	-9.79492
▁Music	-9.79548
▁except	-9.79637
of	-9.79736
▁perhaps	-9.79816
▁account	-9.7988
▁object	-9.79912
▁breed	-9.79928
ak	-9.79941
▁knows	-9.79952
▁Kong	-9.79973
pe	-9.80097
▁sun	-9.80126
▁wind	-9.80261
▁cross	-9.80298
▁happening	-9.80328
▁choose	-9.80487
▁Which	-9.80548
▁status	-9.80636
Applause	-9.80683
▁mouth	-9.80747
ru	-9.80757
▁)	-9.80805
▁fell	-9.80868
▁2000	-9.80967
▁Lee	-9.80971
▁plane	-9.81337
▁OK	-9.81371
▁paid	-9.81417
0	-9.81554
▁exist	-9.81611
va	-9.81615
▁ideas	-9.81616
▁commonly	-9.81623
▁dollars	-9.8169
▁More	-9.8171
▁artist	-9.81864
▁Ta	-9.81986
▁skin	-9.82157
▁appear	-9.82216
▁elements	-9.82238
▁regions	-9.82452
▁Court	-9.82539
ber	-9.82544
▁Ar	-9.82555
▁becomes	-9.82602
▁wide	-9.82622
▁lies	-9.82668
▁nation	-9.82686
ina	-9.82733
et	-9.82766
▁method	-9.82804
▁box	-9.82848
▁opening	-9.82929
▁Washington	-9.82933
▁ordered	-9.83103
▁missing	-9.83122
▁Brazil	-9.83131
▁Over	-9.83143
ant	-9.83181
ek	-9.83235
▁Three	-9.83302
▁officially	-9.83323
▁studio	-9.8334
9	-9.83372
▁ahead	-9.83492
▁native	-9.83589
▁weapons	-9.83705
▁variety	-9.83789
▁Pro	-9.83857
▁green	-9.83934
▁operation	-9.83986
You	-9.8405
▁islands	-9.8407
▁Britain	-9.84095
▁n	-9.84099
▁climate	-9.84155
▁White	-9.84177
▁patient	-9.84184
▁wall	-9.84244
▁universe	-9.84248
▁serve	-9.84321
▁race	-9.84432
lin	-9.8444
▁respect	-9.84448
▁divided	-9.84515
▁Would	-9.84626
▁lines	-9.8464
▁Sam	-9.8467
▁online	-9.84694
▁Day	-9.84885
▁200	-9.84933
▁Best	-9.84934
▁letter	-9.84965
ov	-9.84997
▁("	-9.85061
▁hate	-9.85061
▁recently	-9.85091
▁Following	-9.85091
gi	-9.8515
▁Frank	-9.85168
▁knowledge	-9.85231
▁expected	-9.85232
▁concept	-9.85356
▁promise	-9.85415
▁straight	-9.85512
▁cool	-9.85513
▁widely	-9.85553
▁Saint	-9.85657
▁plans	-9.85728
▁purpose	-9.8573
out	-9.85846
▁hundred	-9.85851
▁attempt	-9.85862
▁singer	-9.85892
▁officer	-9.85973
▁Congress	-9.85979
▁previously	-9.86103
▁Middle	-9.86159
▁l	-9.86192
▁Center	-9.86219
▁huge	-9.86225
▁appears	-9.86243
▁yeah	-9.86262
sh	-9.8629
▁store	-9.86307
▁Both	-9.86442
▁31	-9.86548
▁typically	-9.86635
▁feed	-9.86654
▁broke	-9.86728
▁activities	-9.86732
▁films	-9.8674
▁y	-9.86777
▁interested	-9.86915
-1	-9.86966
po	-9.86982
▁university	-9.87047
ted	-9.87094
▁Ben	-9.87132
▁dangerous	-9.87156
▁Academy	-9.87205
▁Institute	-9.87379
▁gives	-9.87551
▁murder	-9.87623
▁Eastern	-9.87707
ite	-9.87717
▁Church	-9.87733
▁shouldn	-9.87799
▁winter	-9.87825
▁con	-9.87929
▁Street	-9.87944
▁prevent	-9.88014
▁cultural	-9.88078
▁Listen	-9.88091
▁expect	-9.88113
chi	-9.88203
▁Once	-9.88304
▁additional	-9.88374
▁opportunity	-9.88476
ad	-9.88554
▁Department	-9.88637
▁Se	-9.88737
▁scientific	-9.88805
▁engine	-9.88901
▁scale	-9.88964
▁honor	-9.8912
▁press	-9.89186
▁Los	-9.89206
▁target	-9.89235
▁male	-9.89261
▁caught	-9.89279
ship	-9.89304
▁1950	-9.89397
▁master	-9.89414
▁solution	-9.89415
▁multiple	-9.8943
▁division	-9.89552
▁Con	-9.89586
▁Women	-9.89616
▁DNA	-9.89628
▁Today	-9.89636
▁calling	-9.89641
▁floor	-9.89669
▁crew	-9.89703
ung	-9.89768
▁Da	-9.89807
▁closed	-9.89865
▁Tom	-9.89898
▁quality	-9.89941
▁Northern	-9.89942
ten	-9.8995
ent	-9.90069
▁greatest	-9.90069
▁+	-9.9007
▁realize	-9.90104
▁Ni	-9.90169
▁60	-9.90183
▁approach	-9.90192
▁Henry	-9.90252
ated	-9.90267
ang	-9.90312
▁worse	-9.90356
▁therefore	-9.90369
▁List	-9.90416
▁impact	-9.90416
▁Christian	-9.90565
▁rich	-9.90619
ating	-9.90668
▁operating	-9.9069
▁(18	-9.90716
▁uses	-9.90773
▁Car	-9.90842
▁league	-9.90894
gu	-9.909
▁invasion	-9.90913
que	-9.91024
▁Later	-9.91065
▁necessary	-9.91124
▁earth	-9.91132
▁Peter	-9.91148
▁numerous	-9.91178
io	-9.91352
▁resources	-9.91433
▁College	-9.91453
▁Mar	-9.91543
▁website	-9.91643
▁bar	-9.91705
▁heat	-9.91722
▁chemical	-9.91725
▁confirmed	-9.91891
▁learning	-9.91921
▁Lake	-9.91977
▁seat	-9.92006
▁reality	-9.92064
▁Hi	-9.92136
ium	-9.92182
▁fly	-9.92211
▁partner	-9.92228
▁college	-9.92264
▁carried	-9.92446
▁♫	-9.92447
▁anybody	-9.92455
▁somewhere	-9.92466
▁En	-9.92492
▁2005	-9.92499
▁Committee	-9.92502
▁Star	-9.92517
▁Games	-9.92556
▁twice	-9.92557
▁standing	-9.92636
▁b	-9.92653
▁supported	-9.92702
▁taught	-9.92734
▁content	-9.93103
▁mountain	-9.93165
▁directed	-9.93172
▁strength	-9.93264
▁Asian	-9.93275
▁direction	-9.93332
▁2010,	-9.93428
▁presence	-9.9345
▁camp	-9.93546
▁buildings	-9.93642
▁schools	-9.93718
▁sell	-9.93842
▁bodies	-9.9386
▁condition	-9.93926
▁remaining	-9.93938
▁guns	-9.93941
▁2015,	-9.93947
▁awarded	-9.93992
▁Province	-9.94125
▁basic	-9.94237
ong	-9.94259
▁dinner	-9.94294
▁Lu	-9.94481
▁Mo	-9.94585
▁thousand	-9.94673
10	-9.94679
▁acting	-9.94687
▁lie	-9.94814
▁primarily	-9.94816
▁scene	-9.94827
ize	-9.94832
▁reign	-9.94908
▁develop	-9.9492
▁agreed	-9.94935
▁amazing	-9.94975
▁occur	-9.95002
▁victory	-9.95035
▁stopped	-9.95039
for	-9.95085
▁accept	-9.95183
▁escape	-9.9532
▁Israel	-9.95364
▁port	-9.95476
▁anyway	-9.95481
shi	-9.95502
▁drop	-9.95509
▁feature	-9.95537
▁bridge	-9.95552
▁carry	-9.95689
▁ring	-9.95782
▁sources	-9.95807
▁rise	-9.9589
sen	-9.95956
▁Under	-9.96027
▁conflict	-9.96066
▁independence	-9.96111
▁fully	-9.96175
▁2,	-9.96334
▁1999	-9.96382
▁2006,	-9.96543
▁pull	-9.96653
▁wear	-9.96776
▁teacher	-9.96829
▁characters	-9.96844
▁Sorry	-9.96886
▁possibly	-9.97012
▁claimed	-9.97025
▁chief	-9.97102
▁defeated	-9.97204
▁Each	-9.97231
▁Edward	-9.97394
like	-9.97514
ish	-9.97578
▁proposed	-9.97606
▁Pa	-9.97641
▁appearance	-9.97669
▁relatively	-9.97787
▁Museum	-9.97803
▁Old	-9.97838
▁kilometres	-9.9792
▁Tokyo	-9.98
▁carbon	-9.98118
▁map	-9.98133
▁magazine	-9.98206
▁Government	-9.98221
▁en	-9.98262
▁behavior	-9.98348
▁ourselves	-9.98389
▁2017	-9.984
▁crime	-9.98505
▁host	-9.9857
▁file	-9.98713
á	-9.98792
▁declared	-9.98792
▁herself	-9.99019
▁lady	-9.9902
▁individuals	-9.99022
▁planned	-9.99103
▁wedding	-9.99149
ance	-9.99172
▁treat	-9.99173
▁models	-9.99227
▁worldwide	-9.99288
con	-9.99328
▁tour	-9.99401
ron	-9.99561
▁compared	-9.99592
▁super	-9.9961
ho	-9.99634
▁survive	-9.99763
mer	-9.99765
▁2009,	-9.99818
▁Also	-9.99835
▁captured	-9.99939
We	-9.99971
▁task	-10.0009
▁loved	-10.001
▁Despite	-10.0011
▁Year	-10.0011
ster	-10.0014
▁Give	-10.0016
▁beat	-10.0019
▁Love	-10.0021
▁2014,	-10.0028
▁negative	-10.0033
▁attended	-10.0035
▁sounds	-10.0035
▁objects	-10.0045
▁allows	-10.0049
▁finish	-10.005
▁airport	-10.0059
▁reaction	-10.0064
ana	-10.0066
▁Lo	-10.007
▁centuries	-10.0077
▁tax	-10.0081
▁covered	-10.0082
ful	-10.0086
▁agent	-10.0088
▁Company	-10.0089
▁despite	-10.0108
▁staff	-10.011
▁shape	-10.0112
▁boat	-10.0112
▁fleet	-10.0114
▁2008,	-10.0116
▁Jo	-10.0118
▁forest	-10.0124
ex	-10.0125
▁waste	-10.0131
▁Grand	-10.0133
▁leaders	-10.0135
▁centre	-10.0144
▁route	-10.0146
▁draw	-10.0164
▁property	-10.0175
▁adopted	-10.0177
▁2007,	-10.0179
▁reasons	-10.018
▁Super	-10.0183
▁developing	-10.0193
▁coffee	-10.0199
▁occurred	-10.0199
▁slow	-10.0212
ze	-10.022
▁Nations	-10.0226
▁consider	-10.0236
▁Act	-10.0238
▁recognized	-10.0239
▁initial	-10.0241
▁chain	-10.0257
▁Richard	-10.0259
▁weren	-10.0269
▁stupid	-10.0278
ger	-10.0283
▁handle	-10.0283
▁drugs	-10.0291
ku	-10.0307
▁regular	-10.031
▁medicine	-10.031
▁basis	-10.0315
▁cast	-10.0321
▁offered	-10.0332
▁exchange	-10.034
▁connected	-10.0348
▁Bank	-10.0352
off	-10.0355
▁Australian	-10.0366
▁address	-10.0375
▁unique	-10.0377
▁Time	-10.0378
▁Arab	-10.0379
▁double	-10.038
▁initially	-10.039
▁sitting	-10.0391
▁Master	-10.0394
▁sexual	-10.0412
▁Any	-10.0418
▁defined	-10.042
▁holding	-10.0463
▁managed	-10.0469
▁teach	-10.0473
▁Louis	-10.0478
▁vote	-10.0483
▁workers	-10.0485
▁bottom	-10.0485
▁Jewish	-10.0486
▁trip	-10.0491
▁collection	-10.0492
▁analysis	-10.0505
▁citizens	-10.0508
▁destroy	-10.0523
▁camera	-10.053
▁Long	-10.0555
▁effective	-10.0556
▁ocean	-10.0556
▁storm	-10.0572
▁Dad	-10.0577
▁capacity	-10.0579
▁Ah	-10.0581
ac	-10.0588
▁generation	-10.0592
▁1940	-10.0598
▁duty	-10.0604
▁Airport	-10.0604
▁Mark	-10.0607
▁miss	-10.0608
▁Ne	-10.0609
▁historical	-10.0613
lan	-10.0619
led	-10.062
▁wonder	-10.0622
▁creating	-10.0622
▁arms	-10.0641
▁extra	-10.0651
▁section	-10.0653
▁1945	-10.0653
▁department	-10.0654
▁freedom	-10.0661
▁transport	-10.0663
Z	-10.0664
▁Art	-10.0682
▁protection	-10.0708
▁Does	-10.0709
▁Bar	-10.071
▁accepted	-10.0712
▁1998	-10.0717
▁winning	-10.0744
lt	-10.0756
▁rare	-10.0769
▁Un	-10.0772
▁Wait	-10.078
▁Nothing	-10.0785
▁Ba	-10.0796
▁device	-10.0798
”	-10.0801
▁biggest	-10.0802
▁fuel	-10.0803
▁scientists	-10.0808
▁Di	-10.0809
▁path	-10.081
▁shut	-10.0812
▁Tu	-10.0813
▁domestic	-10.0815
▁bought	-10.0815
side	-10.0817
▁FC	-10.0827
▁Zealand	-10.0828
▁distribution	-10.0835
▁planning	-10.0842
yl	-10.0844
▁trees	-10.086
▁Hall	-10.0866
▁Vi	-10.0867
kin	-10.0877
▁till	-10.0877
▁combat	-10.0879
ise	-10.0881
▁Christmas	-10.0882
▁agreement	-10.0885
▁tournament	-10.0898
ci	-10.0902
▁defeat	-10.0916
▁g	-10.0924
▁Law	-10.0925
▁throw	-10.093
▁broken	-10.0933
▁enter	-10.0935
▁Vietnamese	-10.0942
▁represented	-10.0945
▁turns	-10.0946
▁laws	-10.0951
▁screen	-10.0952
▁fought	-10.0959
▁industrial	-10.096
▁avoid	-10.0962
▁2016,	-10.0965
way	-10.0979
▁royal	-10.0984
ran	-10.0988
▁Singapore	-10.0996
]	-10.0998
▁(1	-10.1003
cha	-10.101
▁formation	-10.1015
▁brand	-10.1017
▁Ki	-10.1021
▁urban	-10.1022
▁castle	-10.1022
▁transfer	-10.1026
▁About	-10.1027
▁musical	-10.1035
▁arm	-10.1036
che	-10.1038
▁authorities	-10.1045
▁manager	-10.1049
▁nobody	-10.106
▁transferred	-10.1065
▁count	-10.1077
▁Something	-10.108
Arabic	-10.1085
▁split	-10.1098
▁Mu	-10.1103
▁2018	-10.1103
▁Club	-10.1108
▁Catholic	-10.1108
▁relations	-10.1109
What	-10.1112
▁easily	-10.1118
▁Philippines	-10.1119
▁featured	-10.1125
jo	-10.1126
▁genus	-10.1132
▁Awards	-10.1132
▁digital	-10.1133
▁demand	-10.1135
▁powers	-10.1136
▁Syria	-10.1144
▁saved	-10.1147
vi	-10.1147
▁materials	-10.1149
▁Google	-10.1153
▁receive	-10.1153
▁writer	-10.1154
▁Pan	-10.116
▁Everything	-10.1161
▁inter	-10.1163
▁Chief	-10.1163
▁methods	-10.1175
▁participated	-10.1176
▁extremely	-10.119
▁orders	-10.1191
dy	-10.1191
▁anywhere	-10.1201
▁effort	-10.121
▁bomb	-10.1216
▁era	-10.1219
▁card	-10.1222
▁reading	-10.1251
▁talked	-10.1261
ists	-10.1269
▁weather	-10.1269
▁boss	-10.1272
▁metal	-10.1275
im	-10.1279
▁ma	-10.1282
▁prepared	-10.1291
▁promoted	-10.1292
▁zero	-10.1293
▁Thailand	-10.1295
▁removed	-10.1299
▁episode	-10.1304
▁calls	-10.1305
ier	-10.1306
▁Town	-10.1315
▁wild	-10.1317
▁occurs	-10.1317
▁goals	-10.1318
▁foot	-10.1323
▁records	-10.1324
▁actress	-10.1324
▁1997	-10.1333
▁intended	-10.1339
▁causes	-10.1344
▁regional	-10.1351
▁Martin	-10.1354
▁spoken	-10.1363
▁raise	-10.1373
▁Could	-10.1382
▁programs	-10.1387
▁annual	-10.1397
▁Ocean	-10.1404
▁Microsoft	-10.1405
▁marry	-10.1407
▁claim	-10.1407
▁horses	-10.1409
ping	-10.1411
▁equipment	-10.1417
▁Football	-10.142
au	-10.1427
ray	-10.1428
▁ride	-10.143
so	-10.1433
▁Atlantic	-10.144
▁mentioned	-10.1441
▁Communist	-10.1447
▁spring	-10.1447
!"	-10.1454
▁challenge	-10.1456
bi	-10.1458
▁artists	-10.1458
▁Han	-10.1468
▁aid	-10.1477
▁Southern	-10.1482
▁reduced	-10.1489
▁flying	-10.1495
▁understanding	-10.1502
▁metres	-10.1505
▁favor	-10.1507
▁1930	-10.1508
▁dry	-10.1511
▁Thomas	-10.1514
▁trial	-10.1517
▁spot	-10.1518
mp	-10.1521
▁largely	-10.1532
▁500	-10.1533
ny	-10.1535
▁flow	-10.1535
▁parties	-10.1544
▁r	-10.1547
▁Open	-10.1549
▁accident	-10.155
▁birthday	-10.1557
▁window	-10.1557
▁sky	-10.1565
▁applied	-10.1584
▁painting	-10.1587
▁kingdom	-10.1591
▁commander	-10.1598
▁federal	-10.1598
▁sweet	-10.1599
▁consists	-10.16
▁Show	-10.1603
▁text	-10.1604
▁Mrs	-10.1604
ph	-10.1607
▁signal	-10.1609
▁administration	-10.1613
▁income	-10.1614
▁cat	-10.1625
▁clothes	-10.1627
▁actual	-10.1629
▁conducted	-10.1632
▁interview	-10.1633
+	-10.1641
▁favorite	-10.1642
▁Moon	-10.1646
▁brothers	-10.1648
▁efforts	-10.165
▁issued	-10.1654
▁Prize	-10.1655
▁projects	-10.1658
▁Film	-10.166
▁Yu	-10.1668
▁Fleet	-10.1669
▁census	-10.1669
▁Si	-10.1672
▁meat	-10.1674
▁showing	-10.1682
▁award	-10.1685
▁fit	-10.1685
▁funny	-10.1691
▁2015.	-10.1694
▁Ministry	-10.1697
▁Big	-10.171
▁apartment	-10.1713
▁prior	-10.1717
▁users	-10.1719
▁Per	-10.1721
▁suggested	-10.1721
▁composed	-10.1734
▁[	-10.1735
▁realized	-10.1737
▁images	-10.1749
▁chosen	-10.1751
▁origin	-10.1761
izing	-10.1766
▁fault	-10.1768
▁measure	-10.1771
▁strange	-10.1771
▁senior	-10.1775
▁journey	-10.1782
▁wearing	-10.1797
▁Lady	-10.1798
▁visited	-10.1801
▁extended	-10.1803
ard	-10.1804
▁oxygen	-10.1807
▁younger	-10.1808
ff	-10.181
▁politics	-10.1811
▁communities	-10.1811
▁gained	-10.1814
▁losing	-10.182
▁2014.	-10.1821
▁hide	-10.1826
▁Men	-10.1827
▁revealed	-10.1829
▁Po	-10.1833
▁wonderful	-10.1842
▁contain	-10.1842
▁fifth	-10.1843
▁branch	-10.186
▁virus	-10.1867
▁none	-10.1874
▁Parliament	-10.1876
▁add	-10.1878
▁dis	-10.1885
40	-10.189
▁mm	-10.1897
▁crisis	-10.1897
▁safety	-10.1899
▁operated	-10.1916
▁Festival	-10.1919
▁speech	-10.1923
▁Ireland	-10.1927
ut	-10.1928
▁strategy	-10.1934
▁flag	-10.1938
▁author	-10.1939
▁connection	-10.1941
▁capable	-10.1944
▁1991	-10.1952
▁80	-10.1953
▁reduce	-10.1954
▁multi	-10.1957
▁fellow	-10.1963
▁Revolution	-10.1969
▁creation	-10.1971
20	-10.1971
▁increasing	-10.1972
▁wave	-10.1975
▁plus	-10.1978
▁Was	-10.1979
▁agree	-10.1981
▁1996	-10.1981
▁establish	-10.1987
▁audience	-10.1993
▁unknown	-10.1993
ised	-10.1998
▁smart	-10.2
▁noted	-10.2008
▁shared	-10.2017
▁threat	-10.2018
▁represent	-10.202
rin	-10.2022
ence	-10.2023
▁identified	-10.2031
fa	-10.2032
ura	-10.2049
▁failure	-10.2053
▁prove	-10.2056
▁costs	-10.2058
lu	-10.206
▁closer	-10.2065
pro	-10.2068
▁critical	-10.2078
▁totally	-10.2079
▁web	-10.2081
▁Pe	-10.2081
▁Put	-10.2082
▁oldest	-10.2085
▁changing	-10.2085
▁2005,	-10.2086
▁walls	-10.209
▁toward	-10.2091
▁identity	-10.2095
cy	-10.2098
ius	-10.2102
▁notice	-10.2107
▁recognize	-10.2107
▁advanced	-10.2107
▁warm	-10.2113
▁minister	-10.2113
▁page	-10.2114
▁channel	-10.2115
▁violence	-10.2119
▁forever	-10.2119
▁subsequently	-10.2122
▁leaves	-10.2126
▁footballer	-10.2134
▁Texas	-10.2139
▁provides	-10.214
▁user	-10.2148
▁evening	-10.2151
▁bus	-10.2157
ey	-10.2162
▁faster	-10.2167
▁phase	-10.2179
▁Francisco	-10.2184
▁prime	-10.2189
▁internal	-10.2192
▁weapon	-10.2197
▁launch	-10.2203
▁Actually	-10.2206
▁nations	-10.221
▁Secretary	-10.2214
▁um	-10.2224
▁presented	-10.2224
si	-10.2227
▁finding	-10.2228
▁hero	-10.223
▁environmental	-10.2236
▁unless	-10.2239
▁scared	-10.2248
▁combination	-10.2258
▁coach	-10.2263
▁worst	-10.2266
▁fix	-10.2268
ham	-10.2269
▁entirely	-10.2269
▁core	-10.2273
▁dropped	-10.2274
▁authority	-10.2275
▁hotel	-10.2275
▁Bill	-10.2276
▁conversation	-10.2281
▁ball	-10.2281
▁Princess	-10.2282
▁1995	-10.2293
▁Um	-10.2293
▁Angeles	-10.2297
▁sight	-10.2297
▁impossible	-10.2303
▁throne	-10.2303
ology	-10.2304
▁motion	-10.2315
▁Imperial	-10.232
▁decide	-10.2325
▁Sometimes	-10.2326
all	-10.233
▁leg	-10.2331
▁grown	-10.2332
▁latter	-10.2334
▁improve	-10.2346
-2	-10.2347
▁minor	-10.2356
fi	-10.2363
▁copies	-10.2364
▁resulting	-10.2368
▁2016.	-10.2369
▁article	-10.2389
▁selling	-10.2391
▁begins	-10.2394
bu	-10.2396
▁god	-10.2396
▁seconds	-10.2406
▁putting	-10.2409
▁applications	-10.241
▁Life	-10.2415
▁beauty	-10.2425
▁blow	-10.2444
▁k	-10.2446
▁Pre	-10.2447
▁Moscow	-10.2448
▁Society	-10.2448
▁hundreds	-10.2448
▁useful	-10.2457
▁soul	-10.246
▁visual	-10.2463
It	-10.2465
▁Line	-10.2468
ju	-10.2473
▁photo	-10.2477
▁2017.	-10.2478
▁Father	-10.2489
▁combined	-10.249
ring	-10.2496
▁bigger	-10.2496
▁Last	-10.2499
▁wake	-10.2502
▁drama	-10.2504
▁observed	-10.2507
▁Perhaps	-10.2509
▁weird	-10.251
▁organizations	-10.2528
vo	-10.2532
▁stone	-10.2532
ial	-10.2534
▁worried	-10.254
▁Ku	-10.2541
▁Cape	-10.2543
▁actions	-10.2549
▁reports	-10.2549
▁existence	-10.255
les	-10.255
cause	-10.255
▁2003	-10.2555
▁rain	-10.2557
▁Office	-10.2559
▁Portuguese	-10.2561
▁surrounding	-10.2567
▁tropical	-10.2575
op	-10.2576
▁hang	-10.2579
▁respectively	-10.258
▁solar	-10.2583
▁suffered	-10.2593
▁returning	-10.2595
▁faith	-10.2602
▁birds	-10.2606
▁Gulf	-10.261
▁cash	-10.2611
▁investment	-10.2617
▁properties	-10.2617
▁Serie	-10.2618
▁runs	-10.262
mar	-10.2623
▁2002	-10.2626
▁mountains	-10.2634
▁officers	-10.2636
▁intelligence	-10.2642
▁sports	-10.2647
▁Te	-10.2652
▁application	-10.2656
▁tea	-10.2666
▁wine	-10.267
▁nearby	-10.2675
▁Van	-10.2676
▁Du	-10.2677
▁bear	-10.2685
▁onto	-10.2686
▁municipality	-10.2688
▁1920	-10.2694
▁Song	-10.2694
▁apart	-10.2695
▁revolution	-10.2702
▁mobile	-10.2723
▁decades	-10.2734
▁professor	-10.2735
▁certainly	-10.2738
▁Times	-10.2739
▁arrest	-10.2739
▁fair	-10.2739
▁Far	-10.2742
▁daily	-10.2743
▁advantage	-10.2744
▁Science	-10.2746
▁ha	-10.2748
ea	-10.2752
▁temple	-10.2753
▁solve	-10.2755
▁organized	-10.2758
▁slightly	-10.276
▁2017,	-10.2761
50	-10.2768
ren	-10.2779
No	-10.279
▁buried	-10.2798
min	-10.28
▁arrested	-10.2801
▁Florida	-10.2806
▁tells	-10.2813
▁Port	-10.2817
▁degrees	-10.282
▁Alexander	-10.2822
▁devices	-10.2827
▁evil	-10.2834
▁Mars	-10.2836
▁politician	-10.2841
▁armed	-10.2847
▁Berlin	-10.2858
▁capture	-10.286
▁ruled	-10.2865
▁refer	-10.2866
▁pure	-10.2882
ville	-10.2897
▁pictures	-10.2902
▁Research	-10.2907
▁Ya	-10.2915
gen	-10.2919
▁owned	-10.2919
▁giant	-10.2925
▁Health	-10.2941
▁pop	-10.2942
ase	-10.2945
▁opposite	-10.2957
▁doubt	-10.2961
▁70	-10.2963
▁literature	-10.2965
▁Canadian	-10.2967
▁alongside	-10.2967
▁leadership	-10.2974
▁Civil	-10.2982
▁dear	-10.2985
▁Maria	-10.299
▁gift	-10.2994
▁selected	-10.2995
▁ending	-10.2995
▁atmosphere	-10.2997
▁serving	-10.3004
▁surprise	-10.3005
▁Between	-10.3005
▁terrible	-10.3005
▁1988	-10.3009
▁helping	-10.301
zo	-10.3011
▁1993	-10.3013
▁Sha	-10.3019
bar	-10.3021
▁invited	-10.3021
▁35	-10.3025
▁Ten	-10.3028
▁magic	-10.3028
▁300	-10.3034
▁Boy	-10.3048
90	-10.3049
▁Human	-10.3059
▁obtained	-10.3061
▁silver	-10.307
▁proud	-10.3071
mon	-10.3074
▁engineering	-10.3076
▁refused	-10.3085
▁speaking	-10.3086
▁fields	-10.3095
▁require	-10.3095
▁affected	-10.3104
▁dying	-10.3111
▁tools	-10.3112
▁zone	-10.3116
▁architecture	-10.3119
▁Valley	-10.3129
▁90	-10.3131
▁contrast	-10.3136
▁Young	-10.3136
▁matters	-10.3137
▁closely	-10.3152
▁script	-10.3152
▁enjoy	-10.3153
▁Bi	-10.3159
▁processes	-10.316
▁Make	-10.3163
▁gain	-10.3164
▁Mom	-10.3166
▁captain	-10.3168
▁fashion	-10.3169
▁physics	-10.3172
▁Ri	-10.3178
▁driving	-10.3178
▁2013.	-10.318
▁lay	-10.3184
▁perform	-10.3185
gar	-10.3188
▁lab	-10.319
▁credit	-10.319
▁pair	-10.319
ik	-10.3192
▁Olympic	-10.3198
ab	-10.3199
▁Fu	-10.3199
▁chart	-10.3199
▁pieces	-10.32
▁1989	-10.3201
▁religion	-10.3206
▁del	-10.3207
▁Entertainment	-10.321
▁executive	-10.321
▁actor	-10.3212
▁fresh	-10.3218
▁refers	-10.3221
▁tradition	-10.3226
▁Sweden	-10.3226
ver	-10.3229
▁Ga	-10.3233
▁treated	-10.3234
▁functions	-10.3259
▁danger	-10.3259
zi	-10.3265
▁System	-10.3266
sex	-10.3278
▁resulted	-10.3288
▁carrier	-10.329
▁shooting	-10.3293
sk	-10.3295
▁recording	-10.33
▁1943	-10.3305
▁edition	-10.3308
▁determined	-10.3318
▁Everyone	-10.3319
▁Tri	-10.3319
▁1986	-10.332
▁protein	-10.332
▁Green	-10.3323
▁consist	-10.3331
▁achieved	-10.3333
▁lake	-10.3339
▁walking	-10.3354
▁lawyer	-10.3359
▁responsibility	-10.3359
▁2012.	-10.336
▁mistake	-10.336
▁allowing	-10.3364
ow	-10.3365
▁statement	-10.3382
▁derived	-10.3383
▁discovery	-10.3388
term	-10.3389
qui	-10.3392
▁nor	-10.3393
ble	-10.3397
▁marked	-10.3402
du	-10.3402
▁volume	-10.3406
▁basically	-10.3419
▁iron	-10.3425
▁elections	-10.3427
ino	-10.3429
▁yellow	-10.3429
▁headed	-10.3433
▁Syrian	-10.3437
▁moon	-10.3439
ita	-10.3441
▁Joseph	-10.3444
▁producer	-10.3445
▁upper	-10.3448
▁versions	-10.3448
▁$1	-10.3449
▁sword	-10.3455
▁requires	-10.3458
Q	-10.3461
▁thanks	-10.3464
▁officials	-10.3465
▁Shi	-10.3469
▁Championship	-10.347
▁emperor	-10.3474
▁focused	-10.3475
▁structures	-10.3475
▁victims	-10.3485
▁naval	-10.3486
▁Think	-10.3487
▁concerned	-10.3487
▁smell	-10.349
▁granted	-10.3492
▁soil	-10.3492
can	-10.3493
▁approved	-10.35
▁progress	-10.3502
▁meters	-10.3505
▁firm	-10.351
▁maintain	-10.3511
berg	-10.3513
▁chose	-10.3515
▁Someone	-10.3516
▁desert	-10.3517
▁Americans	-10.3518
▁experiment	-10.3519
▁Mount	-10.3519
je	-10.352
▁resistance	-10.3521
▁Four	-10.3529
▁tend	-10.353
▁promised	-10.353
▁cycle	-10.3531
▁newspaper	-10.354
▁2011.	-10.3546
▁frequently	-10.3548
▁abandoned	-10.355
▁scored	-10.3551
▁suggest	-10.3553
▁Call	-10.3556
▁Hu	-10.358
▁alternative	-10.3582
▁solid	-10.3586
▁Argentina	-10.3589
▁Land	-10.3589
zu	-10.359
▁bag	-10.3592
▁Got	-10.3593
ities	-10.3593
▁clubs	-10.3595
▁Premier	-10.3596
▁spoke	-10.36
▁communication	-10.3601
▁2010.	-10.3608
▁proper	-10.3609
▁Mac	-10.3609
▁damaged	-10.3611
war	-10.3612
▁queen	-10.3613
▁compound	-10.3618
▁importance	-10.3622
▁eating	-10.3624
▁houses	-10.3624
▁graduated	-10.3624
▁bringing	-10.3626
▁gods	-10.3632
▁clearly	-10.3634
▁adult	-10.3637
▁micro	-10.364
▁conference	-10.3654
▁corner	-10.3666
▁sites	-10.3671
▁inspired	-10.3671
▁Q	-10.3677
tion	-10.3679
▁museum	-10.368
▁values	-10.3686
tro	-10.3689
▁hearing	-10.3689
60	-10.37
▁titled	-10.3703
▁3,	-10.3704
▁keeping	-10.3708
▁expansion	-10.3708
▁palace	-10.3708
▁Harry	-10.3709
▁letters	-10.3723
▁renamed	-10.3726
▁height	-10.3727
ile	-10.3733
▁seemed	-10.3738
▁describe	-10.3743
▁IV	-10.3743
▁2009.	-10.3748
▁exact	-10.3751
▁achieve	-10.3751
▁yesterday	-10.3752
▁escort	-10.3757
house	-10.376
▁suppose	-10.3761
field	-10.3762
▁willing	-10.3776
▁distinct	-10.3778
▁Indonesia	-10.3781
▁Little	-10.3783
▁controlled	-10.3784
▁dress	-10.3795
▁Netherlands	-10.3795
▁justice	-10.3797
▁Until	-10.3804
▁spirit	-10.3808
▁fixed	-10.3809
▁Santa	-10.381
▁mixed	-10.381
▁Warsaw	-10.3813
▁Ge	-10.3815
▁causing	-10.3822
▁Taiwan	-10.3824
▁Born	-10.3831
▁criminal	-10.3835
▁symptoms	-10.3836
▁Turkey	-10.3839
▁trained	-10.384
▁bacteria	-10.3841
▁expanded	-10.3846
her	-10.385
▁Iran	-10.3854
▁definitely	-10.3858
▁sequence	-10.3862
▁Fa	-10.3862
▁weak	-10.3866
▁overall	-10.3868
▁Ro	-10.3868
▁bill	-10.3869
▁guard	-10.3872
▁truly	-10.3874
▁ethnic	-10.3876
▁lying	-10.3877
▁semi	-10.3879
▁traffic	-10.3892
▁institutions	-10.3894
▁Ca	-10.39
▁Mediterranean	-10.3901
▁Director	-10.3903
▁easier	-10.391
▁sides	-10.391
▁bird	-10.3911
▁testing	-10.3912
▁Major	-10.3912
▁Free	-10.3919
▁Top	-10.3926
▁formal	-10.3929
▁joint	-10.393
▁1939	-10.393
▁2008.	-10.3932
▁correct	-10.3932
▁Ti	-10.3934
▁Remember	-10.3937
▁welcome	-10.3937
pi	-10.3948
▁earned	-10.3961
▁provinces	-10.3968
▁protected	-10.3969
uk	-10.3973
▁cars	-10.3974
▁Dan	-10.3976
▁fan	-10.3979
▁Jews	-10.3983
▁Pope	-10.3991
▁1982	-10.3999
▁display	-10.4
▁skills	-10.4002
▁Due	-10.4004
▁Whatever	-10.4005
▁unable	-10.4006
▁sing	-10.4007
▁hasn	-10.4011
▁factor	-10.4011
▁factors	-10.4012
tra	-10.4017
▁snow	-10.4017
▁reference	-10.4018
▁Though	-10.402
▁instance	-10.4022
▁Egyptian	-10.4024
▁streets	-10.4028
▁computers	-10.4034
▁1985	-10.4036
▁peak	-10.4048
▁jump	-10.405
▁stable	-10.4055
▁Thanks	-10.406
▁dynasty	-10.4061
▁starts	-10.4074
▁details	-10.4079
don	-10.4079
▁opposition	-10.4079
▁governor	-10.408
han	-10.4081
▁Should	-10.4081
25	-10.4082
▁Station	-10.4086
▁suicide	-10.4088
▁kinds	-10.409
▁Up	-10.4093
▁element	-10.4094
▁rapidly	-10.4094
▁cup	-10.4096
q	-10.4096
▁fat	-10.4103
▁Service	-10.4105
▁farm	-10.4105
▁youth	-10.4106
▁broadcast	-10.4109
▁o	-10.4121
sha	-10.4125
▁Summer	-10.4125
▁Bu	-10.4126
ok	-10.4133
▁absolutely	-10.4137
▁Thus	-10.4138
▁feelings	-10.4139
▁Head	-10.4141
▁Duke	-10.4143
ide	-10.4144
ative	-10.4147
▁territories	-10.4152
▁45	-10.4154
▁cm	-10.4156
also	-10.4157
▁severe	-10.4161
▁st	-10.4161
▁definition	-10.4163
▁symbol	-10.4164
▁promotion	-10.4172
▁arts	-10.4175
ola	-10.4178
oc	-10.4179
▁everywhere	-10.418
▁Thai	-10.4181
▁administrative	-10.4193
▁settlement	-10.4197
▁Shin	-10.4199
▁Commission	-10.4201
▁winner	-10.4202
▁honey	-10.4204
▁busy	-10.4205
wi	-10.421
▁positions	-10.421
▁Scotland	-10.4215
▁emergency	-10.4216
▁Mother	-10.4219
my	-10.4222
▁1972	-10.4243
▁setting	-10.4244
ep	-10.4246
ene	-10.4246
▁Wales	-10.4253
▁(2	-10.4256
ara	-10.4262
▁Ja	-10.4265
▁maximum	-10.427
▁familiar	-10.4272
ib	-10.4274
ft	-10.4276
▁Democratic	-10.4279
▁Chile	-10.428
▁Ex	-10.4295
▁Seoul	-10.4298
▁Instead	-10.4302
▁successor	-10.4305
▁dedicated	-10.4309
▁milk	-10.431
if	-10.431
▁sector	-10.431
▁4,	-10.4311
▁relative	-10.4313
▁claims	-10.4322
▁complicated	-10.4325
▁vision	-10.4327
▁blind	-10.4327
ure	-10.4332
head	-10.4334
15	-10.4335
hu	-10.4336
▁separated	-10.4343
▁context	-10.4349
▁seriously	-10.4349
▁expensive	-10.4353
▁Sal	-10.4358
▁wing	-10.4363
▁literally	-10.4367
▁infection	-10.4368
gan	-10.4369
▁fired	-10.437
▁roof	-10.4371
▁AD	-10.4375
▁suddenly	-10.4385
▁Jean	-10.4392
▁Development	-10.4399
gt	-10.4413
▁sailed	-10.4413
▁Malaysia	-10.4415
▁occupied	-10.4415
▁Cha	-10.4416
▁existing	-10.4418
▁recognition	-10.4419
▁residents	-10.4423
ability	-10.4424
▁Yo	-10.4428
▁investigation	-10.4433
▁1974	-10.4437
▁fruit	-10.4444
▁Chicago	-10.4446
fer	-10.4447
▁killer	-10.4451
▁Iraq	-10.4452
▁ceremony	-10.4455
▁Wi	-10.4458
▁Va	-10.446
▁cop	-10.4462
▁containing	-10.4464
▁Treaty	-10.4465
▁Social	-10.4465
▁engaged	-10.4467
▁stress	-10.4468
▁Nobody	-10.4475
▁bright	-10.4476
▁Gi	-10.4479
▁constructed	-10.448
▁salt	-10.4486
▁aware	-10.4486
▁1979	-10.4496
▁settled	-10.4503
▁dogs	-10.4506
▁mad	-10.4513
ker	-10.4519
\	-10.4526
▁providing	-10.453
ou	-10.4531
▁Keep	-10.4533
▁Stop	-10.4535
▁county	-10.454
▁Doctor	-10.4541
▁formula	-10.4541
▁Olympics	-10.4545
▁Portugal	-10.4549
▁strike	-10.4549
▁push	-10.4554
▁listed	-10.4557
▁pattern	-10.4557
you	-10.4558
▁empire	-10.4558
▁mention	-10.4559
▁Hill	-10.4575
▁(3	-10.4576
▁Cor	-10.4577
see	-10.4577
▁advice	-10.4577
▁genetic	-10.4581
▁orbit	-10.4584
▁edge	-10.4586
known	-10.4586
▁prominent	-10.4589
▁Victoria	-10.4592
▁rates	-10.4594
yo	-10.4603
▁suit	-10.4613
▁judge	-10.4613
▁Har	-10.4615
▁concern	-10.4615
end	-10.4616
▁influenced	-10.4617
▁concert	-10.462
▁acquired	-10.4622
▁significantly	-10.4624
▁facilities	-10.4625
▁1984	-10.4625
▁Professor	-10.4626
▁specifically	-10.4626
▁Never	-10.464
▁ends	-10.4641
▁victim	-10.4644
▁Brazilian	-10.4646
▁extensive	-10.4646
use	-10.4649
▁opposed	-10.465
▁Arts	-10.4651
▁decade	-10.4654
▁CD	-10.4656
king	-10.4659
▁teaching	-10.4662
▁incident	-10.4665
▁limit	-10.4671
▁legs	-10.4671
▁sugar	-10.4672
port	-10.4673
▁replace	-10.4674
▁du	-10.4674
▁uncle	-10.4674
▁Swedish	-10.4676
▁tower	-10.468
▁Greece	-10.4682
▁leads	-10.4688
▁mathematics	-10.4691
▁Constitution	-10.4698
▁bunch	-10.4701
▁otherwise	-10.4703
▁determine	-10.4704
▁manufacturing	-10.4711
▁Gold	-10.4715
▁constant	-10.4715
▁twenty	-10.472
▁suffering	-10.4725
▁covers	-10.4726
▁succeeded	-10.4727
▁manga	-10.473
vin	-10.4732
▁decisions	-10.4732
▁glad	-10.4735
bit	-10.4739
▁1,000	-10.474
om	-10.4743
▁missed	-10.4747
▁prefer	-10.4749
▁promote	-10.4751
▁shop	-10.4753
▁reaching	-10.4758
▁Disney	-10.4758
05	-10.4762
▁2007.	-10.4762
ria	-10.4772
▁satellite	-10.4783
▁Dubai	-10.4788
▁differences	-10.479
▁tough	-10.4798
▁hydrogen	-10.4809
▁Special	-10.4809
▁soft	-10.4813
▁Mike	-10.4816
▁Col	-10.4817
▁grand	-10.4823
▁Holy	-10.4825
▁library	-10.4826
▁Fe	-10.4829
ev	-10.4831
▁tool	-10.4832
▁liquid	-10.4836
▁vehicle	-10.4841
▁platform	-10.4843
▁depending	-10.4846
▁pleasure	-10.4855
▁empty	-10.4855
▁1976	-10.4856
▁weekend	-10.4857
▁improved	-10.4858
car	-10.4861
▁normally	-10.4863
▁evolution	-10.4864
tz	-10.4867
▁Say	-10.487
▁rank	-10.4872
▁surgery	-10.4875
▁opinion	-10.4881
▁FIFA	-10.4885
▁newly	-10.4885
▁secondary	-10.4886
▁Ru	-10.4886
▁taste	-10.4888
In	-10.4894
▁Blue	-10.4897
ken	-10.49
▁advance	-10.4901
▁mental	-10.4909
▁policies	-10.4914
▁Smith	-10.4916
▁experienced	-10.492
▁Live	-10.4922
▁pilot	-10.4923
▁council	-10.4924
▁Game	-10.4925
▁{	-10.4929
but	-10.493
▁visible	-10.493
▁v	-10.4936
▁score	-10.4937
▁notable	-10.4939
▁obviously	-10.4949
80	-10.4951
▁Road	-10.4957
ach	-10.4958
▁typical	-10.4961
▁Sunday	-10.4965
▁History	-10.4973
▁sad	-10.4975
ator	-10.4977
▁note	-10.4983
▁Out	-10.4985
▁studying	-10.4986
▁roughly	-10.4987
▁hunting	-10.4991
▁ultimately	-10.4995
▁continues	-10.4997
red	-10.4998
▁honest	-10.4998
▁review	-10.5
▁stations	-10.5004
▁balance	-10.5005
▁survived	-10.501
▁jobs	-10.5015
▁medium	-10.5017
▁swear	-10.5022
▁establishment	-10.5026
▁rural	-10.5027
▁\	-10.5031
▁headquarters	-10.5032
▁counter	-10.5041
▁Ju	-10.5042
▁attempted	-10.5044
▁Records	-10.5048
▁theme	-10.5049
▁designated	-10.5049
▁Corporation	-10.5052
▁Jesus	-10.5052
Cause	-10.5054
tan	-10.5058
▁sand	-10.5058
tal	-10.5059
▁neither	-10.5062
▁feels	-10.5064
▁landing	-10.5067
▁Foundation	-10.5072
▁remove	-10.5075
▁Muslim	-10.5085
▁inhabitants	-10.5092
ec	-10.5093
let	-10.5095
▁anime	-10.5099
▁Media	-10.51
▁reform	-10.5106
▁bound	-10.511
tes	-10.5111
▁Security	-10.5111
▁Mon	-10.5116
▁permanent	-10.5117
▁1973	-10.512
▁extreme	-10.5125
▁Ver	-10.5129
▁rose	-10.5129
▁mess	-10.5137
law	-10.514
▁afternoon	-10.5141
▁1969	-10.5142
▁Mexican	-10.5143
▁carrying	-10.5144
▁portion	-10.5145
ama	-10.5145
▁steal	-10.5145
▁#	-10.5158
▁Ross	-10.5163
▁guest	-10.5164
▁tiny	-10.5165
▁quiet	-10.5165
▁retired	-10.5166
▁nose	-10.5167
▁careful	-10.5169
▁stayed	-10.5171
▁singing	-10.5172
▁techniques	-10.5172
▁follows	-10.5175
▁Pi	-10.518
▁healthy	-10.5189
▁perspective	-10.5192
▁ranked	-10.5197
▁Water	-10.5197
▁labor	-10.5197
▁factory	-10.52
▁acts	-10.5201
▁waves	-10.5201
▁secure	-10.5225
nic	-10.523
▁Archived	-10.5237
▁technologies	-10.5242
19	-10.5243
▁Pu	-10.5245
▁tests	-10.5247
▁Public	-10.5253
which	-10.5256
▁Coast	-10.5262
▁Castle	-10.5263
▁request	-10.5268
ot	-10.5269
▁bio	-10.5269
▁filled	-10.5269
▁fill	-10.527
▁towns	-10.5271
▁Nintendo	-10.5274
uri	-10.5275
▁proved	-10.5275
▁titles	-10.5279
▁increasingly	-10.5282
▁Anna	-10.5284
▁childhood	-10.5293
▁tape	-10.5299
▁holds	-10.5307
▁quarter	-10.5307
▁affect	-10.5309
ini	-10.5312
▁committee	-10.5313
▁defense	-10.5313
▁Apple	-10.5315
▁tired	-10.5318
ane	-10.5319
▁copy	-10.5319
30	-10.5322
▁flowers	-10.533
▁Carl	-10.5334
▁label	-10.5334
▁32	-10.5337
▁equivalent	-10.5338
over	-10.5339
▁Home	-10.5339
▁rescue	-10.5347
▁examples	-10.5349
not	-10.5353
▁delivered	-10.5355
▁owner	-10.5355
net	-10.5363
▁customers	-10.5363
▁Supreme	-10.5364
▁possibility	-10.5364
▁Ke	-10.5365
▁Bob	-10.5367
▁Admiral	-10.5376
our	-10.5381
▁turning	-10.5385
▁technical	-10.539
▁loan	-10.5393
ula	-10.5397
▁Real	-10.5399
ries	-10.5406
35	-10.5414
▁squad	-10.5415
▁stood	-10.5415
▁Commander	-10.5423
▁Fire	-10.5426
▁girlfriend	-10.5429
▁400	-10.5431
▁Er	-10.5433
▁hole	-10.5433
ig	-10.5435
▁appreciate	-10.544
▁relationships	-10.544
▁Book	-10.5441
%	-10.5441
▁listening	-10.5443
▁academic	-10.5446
▁stadium	-10.5446
▁temperatures	-10.545
▁teeth	-10.5457
▁Third	-10.5457
▁machines	-10.546
▁Cu	-10.5465
▁angry	-10.5467
▁manage	-10.5469
▁Cuba	-10.5472
▁Senate	-10.5478
▁desire	-10.548
▁Five	-10.5482
▁brief	-10.5483
▁flat	-10.5485
▁understood	-10.5487
▁burn	-10.549
86	-10.549
▁Ban	-10.5494
▁proof	-10.5498
▁6,	-10.5503
▁Diego	-10.5509
▁employees	-10.5509
▁tri	-10.551
▁markets	-10.5513
▁Military	-10.5519
▁Brown	-10.5519
▁Daniel	-10.5519
▁electricity	-10.552
▁fool	-10.552
í	-10.5525
▁agency	-10.5529
▁Virginia	-10.5539
▁Arthur	-10.554
▁Pakistan	-10.554
▁Among	-10.554
▁manner	-10.5541
with	-10.5542
▁sum	-10.555
▁committed	-10.555
▁slowly	-10.5551
▁surrounded	-10.5553
▁roles	-10.5554
▁candidate	-10.5561
su	-10.5571
▁1975	-10.5571
▁Space	-10.5584
▁fundamental	-10.5585
▁deliver	-10.5586
▁calm	-10.5591
▁kg	-10.5595
▁shortly	-10.5597
▁rice	-10.5599
▁situated	-10.5602
▁2019	-10.5607
▁successfully	-10.5611
▁rapid	-10.5617
▁radiation	-10.5623
▁Afghanistan	-10.5623
▁1964	-10.5635
▁(4	-10.5635
lon	-10.5638
yn	-10.5639
▁5,	-10.5641
▁arrival	-10.5644
▁lots	-10.5649
ā	-10.5649
▁Vice	-10.5652
▁plastic	-10.5659
▁da	-10.566
▁ensure	-10.5669
▁Caribbean	-10.5677
▁murdered	-10.5677
▁Bridge	-10.5678
▁Such	-10.5682
ban	-10.5687
▁restaurant	-10.569
09	-10.5691
▁Team	-10.5698
▁forests	-10.5701
now	-10.5705
▁Hospital	-10.5707
▁Project	-10.5709
▁tons	-10.5712
▁Val	-10.5715
▁signs	-10.5717
▁net	-10.5718
▁Cat	-10.5718
▁Switzerland	-10.5719
▁Jim	-10.5727
▁Mer	-10.5728
era	-10.5728
38	-10.5728
ō	-10.573
▁1981	-10.5734
bal	-10.5742
ada	-10.5745
▁Gar	-10.5745
zy	-10.575
tu	-10.5751
▁wood	-10.5754
▁distributed	-10.5755
▁150	-10.5762
har	-10.5767
▁expressed	-10.5769
45	-10.577
▁belong	-10.5782
▁Gen	-10.5786
▁benefit	-10.5788
▁producing	-10.5789
2)	-10.5791
well	-10.5793
▁illegal	-10.5796
▁Chris	-10.5797
▁sets	-10.5799
▁entry	-10.58
He	-10.5803
);	-10.5803
▁sought	-10.5803
▁treaty	-10.5805
▁Scott	-10.5806
▁participate	-10.5808
▁goods	-10.5811
▁jail	-10.5813
▁license	-10.5814
ight	-10.5816
▁gene	-10.5817
▁principal	-10.5817
▁subsequent	-10.5818
▁shift	-10.5821
▁earliest	-10.5825
▁Palace	-10.5825
▁fate	-10.5832
ano	-10.5835
▁waters	-10.5835
▁lunch	-10.5835
▁debate	-10.5841
▁mark	-10.5842
American	-10.5843
ap	-10.5843
long	-10.5843
▁Has	-10.5846
▁offering	-10.585
cu	-10.5852
hi	-10.586
▁clan	-10.5871
▁Night	-10.588
▁2003,	-10.588
▁standards	-10.5884
▁Cho	-10.5888
▁heavily	-10.5889
▁harm	-10.5892
▁purchase	-10.5895
century	-10.5896
▁measures	-10.5896
La	-10.5897
▁w	-10.5903
▁fighter	-10.5903
▁1994	-10.5906
▁figured	-10.5908
▁tail	-10.5908
▁seek	-10.5918
▁Gu	-10.5921
ata	-10.5929
ag	-10.593
▁discuss	-10.5932
▁UN	-10.5933
▁exists	-10.5942
▁agents	-10.5947
▁Early	-10.5947
▁Za	-10.5952
▁Billboard	-10.5954
▁client	-10.5964
▁Elizabeth	-10.5965
▁figures	-10.5968
▁linked	-10.5969
▁remind	-10.597
tor	-10.5971
▁Education	-10.5983
nce	-10.5989
▁steps	-10.5991
▁sons	-10.6
▁files	-10.601
▁Naval	-10.601
▁rid	-10.6013
75	-10.6016
▁afford	-10.6021
▁deaths	-10.6028
▁apply	-10.6028
▁owe	-10.6032
▁1956	-10.6042
▁THE	-10.6043
▁ill	-10.6046
▁agricultural	-10.6048
▁Foreign	-10.6052
▁philosophy	-10.6052
▁Police	-10.6052
-3	-10.6054
▁beach	-10.6055
▁organic	-10.6059
0,000	-10.6059
▁admit	-10.6062
▁Inter	-10.6065
▁vast	-10.6069
▁1961	-10.6069
nes	-10.6072
▁laid	-10.6076
▁circle	-10.6078
▁decline	-10.6079
▁constitution	-10.608
▁hoping	-10.6081
▁biological	-10.6081
▁Order	-10.6088
▁Next	-10.6096
▁boyfriend	-10.6111
▁planets	-10.6119
▁prince	-10.6121
▁1948	-10.6123
▁cards	-10.6125
▁purposes	-10.613
ai	-10.6138
ee	-10.614
▁transition	-10.6149
▁vice	-10.6151
▁Isn	-10.6152
▁kiss	-10.6153
tri	-10.6156
▁millions	-10.6158
▁Ji	-10.6162
sky	-10.6162
▁bone	-10.6165
▁principle	-10.6165
▁performing	-10.6167
▁hiding	-10.6168
▁Age	-10.6168
▁10,000	-10.617
▁supplies	-10.6173
▁Ottoman	-10.6174
tus	-10.6177
▁Light	-10.6178
tter	-10.6182
san	-10.6183
ella	-10.6185
▁Unlike	-10.6185
▁prepare	-10.619
▁doctors	-10.6196
▁rivers	-10.6197
▁Wall	-10.62
ose	-10.6201
▁Columbia	-10.6201
▁regarded	-10.6202
▁expression	-10.6203
▁1949	-10.6208
▁heads	-10.6211
▁accounts	-10.6213
55	-10.622
Re	-10.6221
rate	-10.6221
▁stronger	-10.6222
▁Khan	-10.6222
ification	-10.6225
▁sale	-10.6226
▁operate	-10.6229
▁link	-10.6229
▁trans	-10.623
▁hall	-10.6235
▁alliance	-10.624
▁Joe	-10.6253
▁explained	-10.6256
▁1959	-10.6264
36	-10.6265
▁awards	-10.6265
ani	-10.6268
ü	-10.6271
▁threatened	-10.6279
▁8,	-10.6281
len	-10.6284
▁contemporary	-10.6285
▁documents	-10.6286
▁Tour	-10.6288
▁option	-10.6293
▁Bell	-10.6306
▁reserve	-10.6308
▁Operation	-10.6311
▁cousin	-10.6314
ub	-10.6315
hy	-10.6317
Ma	-10.6317
▁Federal	-10.6319
ward	-10.632
▁spending	-10.632
▁cops	-10.6328
▁Governor	-10.6329
▁budget	-10.6332
▁regime	-10.6333
bb	-10.6338
▁nervous	-10.6341
wood	-10.6343
istic	-10.6346
ski	-10.6354
▁Corps	-10.6359
▁Still	-10.6361
▁presidential	-10.6365
▁departed	-10.6366
▁Everybody	-10.6366
99	-10.6373
ever	-10.6378
▁dreams	-10.6382
▁hired	-10.6384
▁Beijing	-10.6386
▁Alex	-10.6389
▁struggle	-10.6389
▁parent	-10.6392
▁foundation	-10.6396
▁interests	-10.6401
▁existed	-10.6401
▁Son	-10.6403
▁Ali	-10.6406
ez	-10.6406
level	-10.6408
▁−	-10.6408
ari	-10.6416
including	-10.6419
▁prisoners	-10.642
▁estate	-10.6421
▁1966	-10.6422
▁knowing	-10.6422
▁1992	-10.6422
▁noticed	-10.6424
▁walked	-10.6426
▁notes	-10.6427
▁converted	-10.6429
▁galaxy	-10.6432
▁occupation	-10.6439
▁electric	-10.644
▁Six	-10.6441
▁parallel	-10.6443
▁liver	-10.6446
▁pregnant	-10.6455
▁Anyway	-10.6455
▁vehicles	-10.646
▁moves	-10.6461
▁Francis	-10.6465
▁Saudi	-10.647
ud	-10.6482
ns	-10.6487
▁Max	-10.6488
▁storage	-10.6489
▁coastal	-10.649
▁Alice	-10.6495
light	-10.6496
▁attempts	-10.6501
▁tested	-10.6501
▁1952	-10.6501
▁tank	-10.6504
-20	-10.6506
▁mode	-10.6508
cho	-10.6509
▁plot	-10.6511
▁Colonel	-10.6513
▁saving	-10.6523
▁Colombia	-10.6526
▁se	-10.6527
ible	-10.653
low	-10.653
ably	-10.6532
▁YouTube	-10.6535
▁Centre	-10.6539
▁obvious	-10.6539
▁Mountains	-10.6543
11	-10.6546
▁journalist	-10.6551
▁cloud	-10.6562
▁prize	-10.6565
▁row	-10.6568
▁Stadium	-10.6569
▁Albert	-10.6576
▁breaking	-10.6578
48	-10.6579
▁layer	-10.6579
eng	-10.658
▁Christ	-10.6588
▁2018,	-10.659
▁compete	-10.6591
▁Jan	-10.6592
▁excited	-10.6594
▁facility	-10.6604
▁innocent	-10.6604
14	-10.6609
▁emotional	-10.6612
▁Golden	-10.6622
▁robot	-10.6624
▁registered	-10.6626
illa	-10.6629
▁Rio	-10.6633
▁components	-10.6633
fe	-10.6638
ica	-10.6638
▁indeed	-10.664
▁Peace	-10.6641
▁fans	-10.6647
▁represents	-10.6649
12	-10.6651
▁customer	-10.6657
▁7,	-10.666
▁drinking	-10.6664
lic	-10.667
▁Manchester	-10.6674
▁solutions	-10.6692
ford	-10.6695
▁gentlemen	-10.6697
▁dealing	-10.6699
▁Stone	-10.6702
oma	-10.6703
▁Guinea	-10.6709
▁Austria	-10.6717
▁alcohol	-10.6718
▁Federation	-10.6721
▁honour	-10.6721
▁collect	-10.6722
▁diseases	-10.6724
70	-10.6725
▁founder	-10.6727
work	-10.6729
▁Norway	-10.6732
▁surprised	-10.6733
▁2006.	-10.6736
▁Oliver	-10.6738
▁Nu	-10.6739
▁von	-10.6754
▁Nobel	-10.676
▁executed	-10.6761
ding	-10.6761
▁pool	-10.6763
▁contained	-10.6765
08	-10.6767
▁receiving	-10.6779
▁larvae	-10.678
▁(5	-10.6781
▁Ab	-10.6783
▁sixth	-10.6784
▁Besides	-10.6791
▁seasons	-10.6793
▁evolved	-10.68
▁garden	-10.6805
▁sending	-10.6812
▁coat	-10.6812
▁northeast	-10.6812
▁pulled	-10.6814
▁external	-10.6815
▁Global	-10.6817
▁shoes	-10.6825
▁hidden	-10.6827
▁Power	-10.6828
▁Fox	-10.6829
▁identify	-10.6832
▁Peru	-10.6836
▁sat	-10.6842
▁resolution	-10.6842
ning	-10.6843
▁locations	-10.6843
66	-10.6845
▁permission	-10.6851
▁villages	-10.6852
▁Square	-10.6862
2,	-10.6862
▁dating	-10.6865
▁smoke	-10.6869
▁ideal	-10.687
▁depression	-10.6874
▁Ukraine	-10.6875
▁drawn	-10.6878
▁gotten	-10.688
39	-10.688
▁therapy	-10.6881
▁Persian	-10.6881
▁1954	-10.6887
▁incredible	-10.6898
▁Dynasty	-10.6898
▁Boston	-10.6898
ó	-10.6899
▁Hot	-10.6904
ero	-10.6907
▁Mor	-10.691
17	-10.6912
▁democracy	-10.6912
▁noise	-10.6916
ven	-10.692
▁marketing	-10.6921
▁Region	-10.6921
▁Ad	-10.6922
▁Belgium	-10.6922
▁benefits	-10.6927
▁molecules	-10.6928
▁valley	-10.6931
board	-10.6932
▁theater	-10.6933
ón	-10.6934
▁railway	-10.6934
▁format	-10.6937
fo	-10.6938
▁Turkish	-10.6939
▁etc	-10.6943
▁governments	-10.6944
▁Part	-10.6944
▁Very	-10.6944
-4	-10.6944
▁regarding	-10.6945
▁Organization	-10.6946
▁sake	-10.6948
▁crown	-10.6949
▁borders	-10.6951
▁Wa	-10.6952
▁breath	-10.6953
▁Israeli	-10.6953
mu	-10.6957
▁frequency	-10.6961
▁unusual	-10.6963
▁items	-10.6965
▁Georgia	-10.6967
▁Technology	-10.697
▁category	-10.697
▁Allied	-10.6971
▁districts	-10.6971
wan	-10.6977
▁paying	-10.698
▁enemies	-10.6982
▁crash	-10.6985
▁grandfather	-10.6988
▁van	-10.6988
Do	-10.6995
▁falling	-10.6997
▁suffer	-10.7
▁poet	-10.7001
nia	-10.7001
▁serves	-10.7002
▁engines	-10.7003
▁electrical	-10.7004
▁agriculture	-10.7006
▁outbreak	-10.701
00	-10.7014
▁Juan	-10.7015
▁1955	-10.7019
▁soldier	-10.702
▁sq	-10.702
▁destroyer	-10.7028
▁supporting	-10.7033
▁kilometers	-10.704
▁technique	-10.7041
▁suspect	-10.7042
=	-10.7043
▁singles	-10.7045
▁sheep	-10.7048
▁suggests	-10.7048
▁depends	-10.7049
▁infections	-10.7049
▁destruction	-10.7066
▁concerns	-10.7066
▁Pat	-10.7067
val	-10.7068
▁funds	-10.707
▁liked	-10.7076
▁debuted	-10.7078
▁36	-10.7079
called	-10.708
▁detail	-10.7081
▁formally	-10.7082
▁1946	-10.7093
▁Post	-10.7099
▁covering	-10.7102
▁effectively	-10.7104
▁blame	-10.711
▁10,	-10.7111
▁widespread	-10.7127
ball	-10.7137
▁debt	-10.7141
▁isolated	-10.7143
▁maintained	-10.7143
37	-10.7145
▁wounded	-10.7147
▁wondering	-10.7149
▁opera	-10.7151
▁humanity	-10.7152
▁11,	-10.7152
▁joining	-10.7156
▁appearances	-10.7156
▁moral	-10.716
▁gay	-10.7161
▁Uganda	-10.717
▁staying	-10.7174
▁narrow	-10.7175
▁stands	-10.7176
kan	-10.7177
▁union	-10.7178
▁Tower	-10.7178
▁wealth	-10.7182
▁lasted	-10.7185
▁respond	-10.7187
ric	-10.7188
▁Business	-10.7188
▁gender	-10.7188
scale	-10.7189
▁guilty	-10.7191
▁businesses	-10.7194
▁Ray	-10.7196
▁introduce	-10.7199
▁greatly	-10.7199
▁modified	-10.7201
▁imperial	-10.7214
▁inner	-10.7219
▁Che	-10.7219
▁Nigeria	-10.722
tis	-10.7222
▁cook	-10.7223
▁employed	-10.7224
▁Min	-10.7225
▁steel	-10.7225
ala	-10.7226
▁gradually	-10.7226
gy	-10.7227
▁Final	-10.7233
▁defend	-10.7234
▁(17	-10.7239
▁vaccine	-10.7241
▁representative	-10.7241
▁TED	-10.7243
▁bread	-10.7243
gon	-10.7245
▁BBC	-10.7251
▁patterns	-10.7252
▁concentration	-10.7254
▁essentially	-10.7256
▁spin	-10.7259
▁Forces	-10.726
▁Jin	-10.7261
▁9,	-10.7267
▁tomb	-10.7268
64	-10.7272
ney	-10.7272
▁broad	-10.7274
uff	-10.7276
▁Philip	-10.7277
▁marine	-10.7282
▁introduction	-10.7287
▁aspects	-10.7287
▁Irish	-10.7289
▁Ed	-10.7296
▁Ken	-10.7298
▁trading	-10.7299
▁Rachel	-10.73
▁circumstances	-10.73
▁surrender	-10.73
▁Radio	-10.7301
▁particles	-10.7303
▁hadn	-10.7307
▁prices	-10.7309
▁bi	-10.731
▁collected	-10.7311
▁1953	-10.7313
▁1938	-10.7313
▁neighborhood	-10.7317
13	-10.732
▁Mc	-10.7324
▁engineer	-10.7327
▁somehow	-10.7328
▁medal	-10.7328
▁fled	-10.7332
▁33	-10.7335
▁2018.	-10.7342
▁popularity	-10.7343
"?	-10.7344
▁hosted	-10.7348
such	-10.735
▁38	-10.7353
▁component	-10.7355
▁burned	-10.7363
tte	-10.7364
ified	-10.7367
▁lands	-10.7372
▁Hitler	-10.7374
▁Sara	-10.7376
▁output	-10.7377
▁banks	-10.7377
▁muscle	-10.7381
▁explosion	-10.7387
▁motor	-10.7391
Well	-10.7392
▁warning	-10.7399
▁NGC	-10.7399
▁ordinary	-10.7401
ima	-10.7402
▁landed	-10.7403
▁profile	-10.7406
cal	-10.7408
▁essential	-10.741
▁Way	-10.741
vis	-10.7416
▁nominated	-10.7418
▁formerly	-10.742
▁witness	-10.7422
ging	-10.7422
II	-10.7426
▁missions	-10.7426
yan	-10.743
▁excuse	-10.7437
▁duties	-10.7437
▁Without	-10.7441
▁12,	-10.7448
▁seats	-10.7449
▁Covid	-10.745
▁Justice	-10.7451
▁featuring	-10.7452
▁print	-10.7452
▁driver	-10.7455
xi	-10.7458
tel	-10.7459
$	-10.746
▁rejected	-10.7467
▁Play	-10.7468
▁ear	-10.7469
▁papers	-10.7472
▁2000,	-10.7481
dan	-10.7482
▁load	-10.7483
"),	-10.7485
▁creative	-10.7487
▁Ch	-10.7487
▁appointment	-10.7488
▁populations	-10.7491
ris	-10.7494
▁convoy	-10.7497
▁fishing	-10.7497
▁indigenous	-10.75
▁contest	-10.7501
▁1937	-10.7501
▁Tar	-10.7502
▁Didn	-10.7505
18	-10.7511
▁romantic	-10.7513
1,	-10.7513
▁proteins	-10.7515
aw	-10.7516
▁grade	-10.7517
▁attend	-10.7518
ew	-10.7528
06	-10.7532
ER	-10.7536
This	-10.7544
▁apparently	-10.7544
▁fund	-10.7544
ida	-10.7546
▁Arabic	-10.7547
▁southeast	-10.7547
▁connect	-10.7553
ice	-10.7556
▁chair	-10.7558
▁stores	-10.7561
▁northwest	-10.7561
▁Friday	-10.7564
▁dust	-10.7565
▁Sh	-10.7576
ct	-10.7576
▁reputation	-10.7576
▁extent	-10.7576
▁rising	-10.7577
fu	-10.7577
▁Cal	-10.7579
▁attached	-10.7579
▁tissue	-10.7588
▁Model	-10.7589
▁Therefore	-10.759
▁Type	-10.7595
▁Harbor	-10.7596
▁charges	-10.7602
▁infrastructure	-10.7602
▁Islamic	-10.7606
▁Channel	-10.7615
▁Start	-10.7616
27	-10.7625
▁insurance	-10.7627
▁communicate	-10.7627
▁researchers	-10.7629
▁Command	-10.7632
▁false	-10.764
ichi	-10.764
▁tribes	-10.7642
lia	-10.7646
▁Par	-10.765
▁movies	-10.7653
▁Modern	-10.7654
▁Swiss	-10.7656
▁cream	-10.7657
▁competed	-10.7659
free	-10.7659
▁festival	-10.7666
▁chemistry	-10.7672
–18	-10.7673
▁Nam	-10.7674
▁1944	-10.7677
star	-10.7691
▁personnel	-10.7692
▁Germans	-10.7694
▁talent	-10.7694
▁2002,	-10.7696
46	-10.7697
▁ratio	-10.7699
hand	-10.7705
▁equation	-10.7706
▁po	-10.7711
▁experiences	-10.7716
▁collaboration	-10.7718
▁Network	-10.7718
▁Nazi	-10.772
▁crossed	-10.7722
▁concluded	-10.7722
▁mathematical	-10.7724
ens	-10.7725
▁cry	-10.7725
▁flew	-10.7731
▁smile	-10.7731
▁Soon	-10.7731
▁coal	-10.774
▁Meanwhile	-10.7744
▁electronic	-10.7745
▁eggs	-10.775
▁sport	-10.7752
▁hunt	-10.7756
▁universities	-10.7757
▁increases	-10.7757
▁h	-10.7758
▁personally	-10.7765
68	-10.7767
▁mis	-10.7767
▁faced	-10.7772
▁Hold	-10.7784
▁sample	-10.7786
▁organisms	-10.7792
▁ruler	-10.7794
▁Wow	-10.7795
44	-10.7799
▁PC	-10.7801
▁pounds	-10.7803
▁mainland	-10.7804
▁experiments	-10.7804
▁poverty	-10.7809
▁comfortable	-10.781
▁solo	-10.7814
▁(6	-10.7815
▁southwest	-10.782
▁Pearl	-10.7822
▁Em	-10.7827
▁Iron	-10.783
▁falls	-10.7836
▁champion	-10.7839
▁somewhat	-10.784
▁survey	-10.7841
▁appropriate	-10.7843
▁Through	-10.7847
▁exercise	-10.7848
▁offers	-10.7852
▁belief	-10.7852
rus	-10.7853
▁disappeared	-10.7856
69	-10.7857
▁burning	-10.7857
▁Affairs	-10.7862
▁begun	-10.7864
▁editor	-10.7868
▁upset	-10.7871
des	-10.7872
▁funeral	-10.7874
▁Charlie	-10.7875
ery	-10.7876
▁measured	-10.7879
▁cultures	-10.7883
coming	-10.7884
▁Ser	-10.7884
▁roll	-10.7884
▁partners	-10.7887
▁Front	-10.7887
▁radar	-10.7887
▁whereas	-10.7888
▁tanks	-10.7888
▁deserve	-10.7889
right	-10.7892
▁Finally	-10.7895
most	-10.7895
32	-10.7902
▁fiction	-10.7906
▁lord	-10.7907
▁Venezuela	-10.7907
qu	-10.7911
▁UEFA	-10.7914
▁finance	-10.7914
▁Dis	-10.7919
▁faces	-10.793
▁belongs	-10.7934
▁bottle	-10.7935
tle	-10.7936
▁parliament	-10.7939
▁survival	-10.794
▁entertainment	-10.794
▁invented	-10.7944
ette	-10.7945
▁amounts	-10.7953
▁episodes	-10.7954
▁friendly	-10.7956
85	-10.7958
▁reward	-10.7958
▁adults	-10.7959
-10	-10.7961
cle	-10.7962
▁genes	-10.7964
▁Dark	-10.7966
▁reduction	-10.7967
▁programming	-10.7968
▁Sta	-10.7971
▁48	-10.7971
ned	-10.7975
▁forming	-10.7979
▁poly	-10.7981
▁mayor	-10.7985
▁sentence	-10.7986
▁forgot	-10.7987
▁phenomenon	-10.7993
▁Standard	-10.7993
▁piano	-10.7994
▁convinced	-10.7994
▁tall	-10.7997
iv	-10.8
▁angle	-10.8004
▁mo	-10.8004
▁explanation	-10.8007
24	-10.801
▁Johnson	-10.8013
▁patrol	-10.8014
pan	-10.8015
▁contributed	-10.8018
▁mate	-10.8019
▁entrance	-10.802
To	-10.8021
ese	-10.8027
▁paint	-10.8033
▁CO	-10.8036
76	-10.8037
▁Hungary	-10.8039
▁Cambodia	-10.8042
▁cheese	-10.8047
top	-10.8047
▁poetry	-10.8048
6%	-10.8051
▁brown	-10.8051
▁lifetime	-10.8055
▁Ly	-10.8056
▁mechanism	-10.8057
▁13,	-10.8059
▁joke	-10.8059
▁sp	-10.8065
▁crowd	-10.8066
▁Pra	-10.8066
▁infected	-10.8067
▁Ph	-10.8071
ING	-10.8086
▁characteristics	-10.809
qua	-10.8091
▁Marine	-10.8096
▁celebrate	-10.8097
▁collapse	-10.8097
▁Peninsula	-10.81
▁rarely	-10.8101
▁Governorate	-10.8101
▁Byzantine	-10.8102
▁DVD	-10.8102
▁compounds	-10.8106
▁injured	-10.8114
▁1951	-10.8115
▁Agent	-10.8121
▁minus	-10.8123
ps	-10.8127
▁FA	-10.8128
▁constellation	-10.8128
▁22,	-10.8134
▁earthquake	-10.8138
▁emerged	-10.8138
▁Cross	-10.814
▁Convention	-10.8142
▁Beach	-10.8143
43	-10.8145
▁targets	-10.8149
▁fail	-10.815
▁News	-10.815
▁escaped	-10.8154
▁usual	-10.8155
▁carriers	-10.8158
▁2005.	-10.8166
idae	-10.8166
ious	-10.8166
▁answers	-10.8167
▁hat	-10.8167
▁Conference	-10.8168
▁communist	-10.8174
Mo	-10.8176
33	-10.8177
▁drawing	-10.8178
air	-10.8181
▁Kar	-10.8181
▁Mad	-10.8181
▁Facebook	-10.8181
▁princess	-10.8184
lam	-10.8184
▁remote	-10.8188
▁purchased	-10.8189
").	-10.8189
▁confused	-10.8197
▁speakers	-10.8204
▁principles	-10.8205
ions	-10.8207
▁Carolina	-10.8209
▁18,	-10.821
ped	-10.8215
▁immediate	-10.8215
mic	-10.8216
▁quit	-10.8217
▁incorporated	-10.8219
▁admitted	-10.8223
▁ban	-10.8223
▁adaptation	-10.8224
▁stream	-10.8225
▁forgive	-10.823
▁Matt	-10.8234
ich	-10.8235
▁strategic	-10.8235
▁VI	-10.8244
▁involves	-10.8248
▁Samsung	-10.8249
▁Anti	-10.8251
▁armies	-10.8251
▁CA	-10.8254
▁consisted	-10.8254
▁personality	-10.8255
▁sharing	-10.8256
ip	-10.8257
cent	-10.8261
▁Denmark	-10.8263
▁graduate	-10.8265
▁beer	-10.8266
▁videos	-10.8268
Oh	-10.8268
▁obtain	-10.8275
▁arriving	-10.8277
▁Madrid	-10.8277
▁14,	-10.8278
that	-10.8285
▁historic	-10.8286
98	-10.829
▁expedition	-10.8291
▁sleeping	-10.8292
▁cure	-10.8292
pt	-10.8293
▁flows	-10.8295
book	-10.8296
49	-10.8298
ther	-10.8298
34	-10.83
▁Jordan	-10.8302
21	-10.8308
▁strongly	-10.8313
▁Key	-10.8314
▁guide	-10.8316
▁Inc	-10.8319
▁artificial	-10.8325
▁indicate	-10.833
▁networks	-10.8331
▁Kenya	-10.8342
▁subjects	-10.8344
▁happiness	-10.8345
07	-10.8346
▁scientist	-10.8347
▁visitors	-10.8348
▁bullet	-10.8349
▁engage	-10.8354
▁TO	-10.8359
88	-10.8362
▁Mont	-10.8363
▁Girl	-10.8365
▁movements	-10.8372
▁Rose	-10.8375
▁founding	-10.8378
▁valuable	-10.8387
▁tight	-10.8388
▁Jones	-10.839
▁Dragon	-10.8392
▁generated	-10.8393
▁brings	-10.8393
wing	-10.8395
▁theories	-10.8401
ena	-10.8402
▁views	-10.8404
Be	-10.8404
▁Seven	-10.841
▁hey	-10.8413
67	-10.8413
▁Universe	-10.8414
▁Adam	-10.8416
5,000	-10.8416
How	-10.8419
▁Ok	-10.8422
▁entitled	-10.8428
95	-10.843
▁Southeast	-10.8433
ão	-10.8433
79	-10.8433
▁profit	-10.8435
▁pal	-10.8436
pen	-10.8436
▁protecting	-10.8439
▁drunk	-10.844
▁minimum	-10.8442
▁bond	-10.8444
▁pageant	-10.8444
CO	-10.8444
▁liberal	-10.8445
▁Bur	-10.8445
sis	-10.8448
▁commission	-10.8451
▁dancing	-10.8456
And	-10.8457
▁scheduled	-10.8459
▁Sen	-10.8468
▁harder	-10.8469
▁teachers	-10.847
▁literary	-10.847
▁Children	-10.847
▁breeding	-10.8471
rk	-10.8472
van	-10.8473
Al	-10.8478
▁Sar	-10.8479
bra	-10.848
▁trials	-10.849
▁entering	-10.8494
▁Arabia	-10.8496
▁farmers	-10.8497
▁Saturday	-10.8498
▁twelve	-10.8498
▁ladies	-10.8498
▁grave	-10.8499
▁composition	-10.8504
▁USA	-10.8504
▁traveled	-10.8504
▁Prior	-10.8506
▁briefly	-10.8507
ros	-10.8508
▁articles	-10.8509
▁1978	-10.8516
▁le	-10.852
▁Puerto	-10.8526
▁Wilson	-10.8527
▁input	-10.8527
▁1919	-10.8531
▁installed	-10.8535
▁Os	-10.8535
▁brave	-10.8535
▁gang	-10.8536
ien	-10.8537
▁$	-10.8539
▁vary	-10.854
▁memories	-10.854
▁Ci	-10.8541
▁selection	-10.8542
bin	-10.8545
mann	-10.8545
▁gate	-10.8545
▁affairs	-10.8553
▁thin	-10.8554
▁extinct	-10.8555
▁argued	-10.8556
▁16,	-10.8557
▁Mal	-10.8563
▁Really	-10.8567
▁mirror	-10.8571
down	-10.8574
▁Anne	-10.8576
▁Yet	-10.8577
▁Bel	-10.8577
▁violent	-10.858
▁processing	-10.859
▁translation	-10.859
af	-10.8591
▁adding	-10.8592
▁depth	-10.8593
▁scenes	-10.8593
▁dare	-10.8595
▁underground	-10.8599
▁conduct	-10.86
▁accompanied	-10.8604
▁schedule	-10.8608
▁root	-10.8614
▁monster	-10.8619
▁lb	-10.862
▁latest	-10.8624
▁Vo	-10.8627
▁Barry	-10.863
):	-10.863
▁frame	-10.8638
▁occasionally	-10.8642
▁colors	-10.8643
▁notably	-10.8644
▁absence	-10.8653
▁Costa	-10.8653
▁Within	-10.8658
▁Ana	-10.8662
▁extraordinary	-10.8667
rid	-10.8669
▁consumption	-10.8669
ei	-10.867
▁choices	-10.8671
▁1918	-10.8671
town	-10.8674
▁explore	-10.8675
▁21,	-10.868
▁Hollywood	-10.8682
▁pp	-10.8686
▁flower	-10.8694
▁Panama	-10.8697
▁chairman	-10.8697
▁Ukrainian	-10.87
▁lights	-10.8702
▁download	-10.8702
▁charged	-10.8705
▁ca	-10.8706
▁nerve	-10.8706
▁uniform	-10.8707
▁Steve	-10.8708
▁Kh	-10.8708
▁Hama	-10.8709
▁anniversary	-10.871
▁replacement	-10.8712
▁considerable	-10.8714
▁dollar	-10.8717
▁exception	-10.8719
▁Tony	-10.872
▁FBI	-10.8725
▁internet	-10.8725
▁app	-10.8728
▁exposed	-10.8731
▁grandmother	-10.8739
▁representation	-10.8744
▁options	-10.8746
▁Bal	-10.8752
▁longest	-10.8753
ú	-10.8753
▁involving	-10.8753
ä	-10.8754
die	-10.8755
rum	-10.8757
▁Pop	-10.8759
ö	-10.8759
42	-10.8763
▁prototype	-10.8765
pp	-10.8766
dong	-10.877
▁hits	-10.8775
▁37	-10.8782
▁pen	-10.8782
▁Management	-10.8782
▁Finland	-10.8782
▁YOU	-10.8785
▁coup	-10.8788
▁domain	-10.8789
▁Simon	-10.8792
▁heading	-10.8794
▁Jimmy	-10.8797
kov	-10.8799
▁trigger	-10.8799
lus	-10.8802
▁stages	-10.8803
▁28,	-10.8803
▁Want	-10.8803
▁15,	-10.8803
og	-10.8805
Upon	-10.8805
▁stole	-10.8806
yu	-10.8808
▁bother	-10.8811
▁residence	-10.8811
▁immune	-10.8811
▁64	-10.8812
ori	-10.8817
▁representing	-10.8817
pre	-10.8818
▁abuse	-10.8819
If	-10.8822
▁75	-10.8822
▁Je	-10.8823
▁interaction	-10.8826
▁Cuban	-10.8826
16	-10.883
▁document	-10.8839
bel	-10.8841
▁Around	-10.8845
▁sudden	-10.8847
62	-10.8848
▁Amazon	-10.8854
ix	-10.8856
96	-10.8857
▁perfectly	-10.886
▁accused	-10.886
}}	-10.8865
ł	-10.8868
▁expand	-10.8868
▁cameras	-10.8878
set	-10.8879
▁babies	-10.8883
▁injury	-10.8883
▁transmission	-10.8883
▁barely	-10.8886
▁repair	-10.8887
▁interior	-10.8888
▁crossing	-10.8893
gue	-10.8899
▁em	-10.8903
▁et	-10.8907
ami	-10.8909
▁Camp	-10.8912
din	-10.8912
▁Economic	-10.8913
▁cattle	-10.8913
▁Wood	-10.8913
▁youngest	-10.8918
sta	-10.8919
▁keeps	-10.8921
▁shame	-10.8923
▁24,	-10.8942
▁currency	-10.8942
▁fortune	-10.8942
cin	-10.8946
sion	-10.8948
TV	-10.8949
100	-10.895
▁Bre	-10.895
▁diplomatic	-10.8954
▁Death	-10.8957
▁secretary	-10.896
▁Point	-10.8966
▁Area	-10.8966
▁Wars	-10.8967
▁kings	-10.8967
▁bones	-10.897
sia	-10.8971
▁!	-10.8972
▁enable	-10.8973
▁Marie	-10.8973
▁Us	-10.8977
▁laugh	-10.898
ae	-10.8982
▁1942	-10.8983
▁pretend	-10.8983
▁clinical	-10.8985
▁lovely	-10.8985
▁consumer	-10.8986
▁shopping	-10.8986
▁argument	-10.8987
77	-10.899
▁1967	-10.8991
▁Hotel	-10.8992
▁42	-10.8995
▁vessels	-10.8997
▁bathroom	-10.9001
▁describes	-10.9002
isation	-10.9002
▁facing	-10.9009
▁Official	-10.901
▁cake	-10.901
dia	-10.9011
eg	-10.9011
▁designer	-10.9012
▁treasure	-10.9015
eo	-10.9017
▁fossil	-10.9019
▁pages	-10.9024
▁Tra	-10.9025
▁Trade	-10.9033
▁challenges	-10.9038
▁magnetic	-10.9039
nu	-10.904
▁Bor	-10.9042
▁Agency	-10.9045
▁Del	-10.9045
▁Unless	-10.9046
ral	-10.9047
eb	-10.9049
▁fake	-10.9051
▁paintings	-10.9062
▁roads	-10.9067
▁Ash	-10.9068
59	-10.9069
▁males	-10.9072
▁Control	-10.9074
▁1968	-10.9075
▁experimental	-10.9075
▁twin	-10.9079
▁sharp	-10.9082
▁Walter	-10.9087
▁Board	-10.909
▁designs	-10.9097
▁express	-10.9099
▁translated	-10.9099
▁tip	-10.9103
▁designation	-10.9105
dis	-10.9105
▁Chart	-10.9106
▁Defense	-10.9108
ugh	-10.911
dom	-10.9114
US	-10.9115
▁Stay	-10.9116
▁Mai	-10.9117
▁Lieutenant	-10.9119
▁restored	-10.9119
▁Claire	-10.912
▁earn	-10.9121
▁publication	-10.9121
▁17,	-10.9123
▁theatre	-10.9124
29	-10.9125
ela	-10.9131
▁limits	-10.9132
PA	-10.9135
▁Czech	-10.9138
-5	-10.9141
▁pan	-10.9141
▁atoms	-10.9147
▁regret	-10.9148
everal	-10.915
▁Taylor	-10.915
▁exit	-10.9153
▁sacrifice	-10.9154
▁holiday	-10.9154
stone	-10.9154
▁divisions	-10.9156
▁outer	-10.9158
row	-10.9158
▁aired	-10.916
▁Sri	-10.9162
▁phrase	-10.9164
ple	-10.9169
▁disaster	-10.917
▁funding	-10.9171
▁random	-10.9172
▁practical	-10.9172
▁encourage	-10.9176
▁abroad	-10.9179
▁NASA	-10.9179
▁dirty	-10.9182
▁arrive	-10.9183
▁Hand	-10.9186
▁mono	-10.9188
▁intellectual	-10.9194
ale	-10.92
▁interface	-10.9201
▁beating	-10.9201
▁cave	-10.9207
án	-10.9209
▁breakfast	-10.9209
▁grab	-10.9209
▁transportation	-10.9212
▁settle	-10.9213
▁transform	-10.9214
▁proposal	-10.9215
▁fluid	-10.9216
28	-10.9217
71	-10.9219
▁belt	-10.9222
rian	-10.9222
▁pyramid	-10.9224
▁coronavirus	-10.9224
▁colony	-10.9225
more	-10.9227
▁flights	-10.9229
▁Mel	-10.9234
elle	-10.9237
ians	-10.924
▁aim	-10.924
▁albums	-10.924
▁colleagues	-10.924
eh	-10.924
▁CEO	-10.924
▁composer	-10.9241
▁reactions	-10.9243
life	-10.9243
dimensional	-10.9244
26	-10.9245
▁tied	-10.9246
▁nowhere	-10.9246
cur	-10.9248
state	-10.9254
▁GDP	-10.9255
▁loyal	-10.9256
bus	-10.9258
▁Dong	-10.926
▁planes	-10.926
ole	-10.9261
▁naturally	-10.9262
una	-10.9264
▁Field	-10.9269
▁25,	-10.9269
ug	-10.9271
▁adapted	-10.9275
▁apparent	-10.9277
ties	-10.9279
AR	-10.928
▁dates	-10.9284
mus	-10.9284
▁chest	-10.9286
▁Heart	-10.9287
▁recommended	-10.9292
▁Forest	-10.9294
▁delivery	-10.9294
▁hardware	-10.93
▁variant	-10.9302
var	-10.9304
▁linear	-10.9305
▁requirements	-10.9307
▁taxes	-10.9308
▁Lin	-10.9308
▁objective	-10.931
▁shore	-10.9314
▁Sure	-10.9314
▁execution	-10.9314
▁stomach	-10.9314
▁trail	-10.9316
▁heir	-10.9317
hr	-10.932
▁Cap	-10.9321
ele	-10.9321
▁Bra	-10.9332
▁originated	-10.9335
▁Jane	-10.9336
▁34	-10.9338
▁necessarily	-10.9345
▁letting	-10.9345
▁temporary	-10.9347
01	-10.9349
from	-10.935
▁tie	-10.9352
OS	-10.9353
▁lyrics	-10.9353
gra	-10.9354
▁biology	-10.9354
▁arranged	-10.9355
▁losses	-10.9357
▁consequences	-10.936
▁branches	-10.9368
▁error	-10.937
▁guards	-10.9371
▁comedy	-10.9372
▁votes	-10.9372
och	-10.9375
▁produces	-10.9381
▁argue	-10.9385
▁illness	-10.9388
87	-10.9388
▁Sydney	-10.939
▁shelter	-10.9391
chu	-10.9397
▁Android	-10.9398
So	-10.9399
▁attracted	-10.94
▁Tai	-10.9401
▁Sciences	-10.9402
▁pursue	-10.9404
zer	-10.9408
▁Fort	-10.9409
57	-10.9409
▁27,	-10.9413
▁column	-10.9414
ath	-10.9415
▁institution	-10.9421
▁lo	-10.9429
▁clothing	-10.943
▁exposure	-10.9437
▁efficient	-10.9439
▁recovered	-10.9447
▁habitat	-10.9448
▁description	-10.945
▁Officer	-10.945
▁convince	-10.945
▁Lincoln	-10.9452
▁periods	-10.9453
▁1936	-10.9454
▁Sin	-10.9455
▁Plan	-10.9455
▁te	-10.9457
▁bow	-10.9457
56	-10.946
▁survivors	-10.9466
▁boundary	-10.9469
ome	-10.9472
▁hanging	-10.9472
▁Things	-10.9473
▁ta	-10.9477
3)	-10.9477
▁ought	-10.948
▁Philadelphia	-10.9483
▁continuous	-10.9491
sch	-10.9493
▁Ber	-10.9498
▁percentage	-10.9505
▁Abu	-10.9506
▁differently	-10.9507
Man	-10.9509
▁End	-10.951
▁cable	-10.9511
▁COVID	-10.9514
▁email	-10.9514
▁offensive	-10.9518
▁negotiations	-10.9518
▁martial	-10.9518
ky	-10.9519
▁finger	-10.9519
▁photos	-10.9524
▁fee	-10.9528
▁tribe	-10.9529
▁plenty	-10.9529
▁ruling	-10.9529
▁plate	-10.9534
▁finds	-10.9535
▁colour	-10.9541
▁fairly	-10.9543
IN	-10.9543
▁intense	-10.9545
ade	-10.9548
▁draft	-10.9549
▁density	-10.9549
par	-10.955
form	-10.955
▁tourist	-10.9552
▁para	-10.9553
▁voted	-10.9555
▁Sch	-10.9559
▁2,000	-10.956
▁identical	-10.956
▁matrix	-10.956
23	-10.9561
nch	-10.9567
▁na	-10.9573
▁ال	-10.9574
▁MTV	-10.9578
ED	-10.9579
▁Ren	-10.9584
▁26,	-10.9585
▁battles	-10.959
▁elsewhere	-10.9592
▁Buddhist	-10.9593
▁engagement	-10.9593
▁buying	-10.9594
▁600	-10.9604
▁Caesar	-10.9607
▁venture	-10.961
▁strip	-10.9618
▁José	-10.9623
▁magnitude	-10.9625
ue	-10.963
▁Nice	-10.9633
▁hill	-10.9636
some	-10.9638
▁exciting	-10.9638
Music	-10.9639
▁Bueno	-10.9639
▁colonial	-10.9644
▁Bruce	-10.9645
▁retain	-10.965
gal	-10.9654
▁Scottish	-10.9655
▁plain	-10.9655
▁Welcome	-10.9657
ay	-10.9657
▁civilian	-10.9659
fish	-10.9659
▁destroyers	-10.966
▁bloody	-10.9668
41	-10.9668
▁Find	-10.9671
47	-10.9672
ual	-10.9674
▁signing	-10.9678
▁constantly	-10.9681
53	-10.9682
▁properly	-10.9682
▁pig	-10.9685
▁ka	-10.9685
water	-10.9686
▁deputy	-10.9686
▁enormous	-10.9686
▁legend	-10.9687
▁Bang	-10.9688
▁missile	-10.9688
▁Linux	-10.9689
▁alien	-10.969
▁incredibly	-10.9691
▁recovery	-10.9691
▁writers	-10.9698
▁slave	-10.9704
cer	-10.9714
▁z	-10.9714
▁knife	-10.9717
av	-10.9717
▁signals	-10.9718
▁crimes	-10.9718
▁1922	-10.9719
▁repeat	-10.972
▁→	-10.972
▁extension	-10.972
▁landscape	-10.972
▁Aires	-10.9721
▁exercises	-10.9728
▁(16	-10.973
▁expert	-10.9736
▁diet	-10.9738
▁Press	-10.9738
▁hardly	-10.9739
lying	-10.974
▁quantum	-10.9749
▁cabinet	-10.9749
▁relief	-10.9749
▁fever	-10.975
▁convert	-10.9752
▁gravity	-10.9752
▁enjoyed	-10.9755
▁critics	-10.976
▁ears	-10.9763
▁superior	-10.9763
▁rebellion	-10.9765
▁excellent	-10.9765
▁Fine	-10.9766
part	-10.9767
▁bath	-10.9771
▁creatures	-10.9771
22	-10.9772
ical	-10.9774
▁sa	-10.9774
▁Hungarian	-10.9777
▁auto	-10.978
▁driven	-10.978
▁opportunities	-10.9781
▁Uncle	-10.9782
▁heaven	-10.9794
east	-10.9795
▁discover	-10.9795
▁Harvard	-10.9796
▁intervention	-10.9796
▁spiritual	-10.9797
▁behalf	-10.9798
mal	-10.9798
▁celebrated	-10.9801
▁brains	-10.9802
▁merged	-10.9802
54	-10.9809
▁approval	-10.9812
▁Shanghai	-10.9812
▁Stalin	-10.9813
▁1935	-10.9815
▁grant	-10.9816
▁statue	-10.9817
▁100,000	-10.9821
▁mining	-10.9821
▁Joey	-10.9823
▁sensitive	-10.9823
▁dominant	-10.9831
58	-10.9831
▁*	-10.9837
▁accurate	-10.9838
▁Wu	-10.984
▁absolute	-10.984
jin	-10.9847
▁Roger	-10.985
▁Trump	-10.9861
▁reducing	-10.9861
▁forgotten	-10.9861
nan	-10.9862
▁Sub	-10.9875
▁23,	-10.9876
▁elevation	-10.9876
▁influential	-10.9876
▁Milan	-10.9881
▁stolen	-10.9882
▁lift	-10.9882
▁innovation	-10.9883
amp	-10.9887
:00	-10.9889
▁rail	-10.9889
▁Marshall	-10.9895
▁seed	-10.9896
▁indicated	-10.9896
▁stating	-10.9898
made	-10.9901
▁19,	-10.9906
Ha	-10.9906
▁tongue	-10.9909
IS	-10.991
▁Winter	-10.991
▁strikes	-10.9911
▁cute	-10.9915
▁substance	-10.9916
▁prisoner	-10.992
▁Sky	-10.9923
▁conservation	-10.9925
▁scholars	-10.9925
▁flu	-10.9933
▁Bad	-10.9934
▁bull	-10.9935
▁export	-10.994
▁diverse	-10.9942
▁operational	-10.9943
▁Ve	-10.995
▁dam	-10.995
▁traveling	-10.9954
▁Bureau	-10.9958
▁rough	-10.996
▁submarine	-10.9962
▁returns	-10.9964
▁sisters	-10.9965
▁idiot	-10.9966
▁discussion	-10.9967
point	-10.9968
hl	-10.9969
rich	-10.997
▁Ye	-10.9974
▁mechanical	-10.9976
▁Had	-10.9976
▁Trans	-10.9977
▁Sarah	-10.9979
▁Snow	-10.9979
▁ghost	-10.9982
art	-10.9989
▁cavalry	-10.999
▁criticism	-10.999
▁bid	-10.9991
▁oh	-10.9992
▁molecular	-10.9994
▁connections	-11.0007
ado	-11.0007
▁Web	-11.0009
gun	-11.0012
cus	-11.0013
▁proportion	-11.0013
▁bombing	-11.0016
related	-11.0018
meter	-11.0019
▁Eric	-11.002
▁Belgian	-11.0022
▁distant	-11.0022
▁Detective	-11.0022
▁housing	-11.0022
97	-11.0024
▁Additionally	-11.0024
▁inspiration	-11.0026
▁1934	-11.003
ef	-11.0037
▁j	-11.0038
▁predict	-11.0038
▁Commonwealth	-11.0038
▁diversity	-11.0038
▁sequel	-11.0038
▁Euro	-11.0044
ons	-11.0048
▁virtual	-11.0048
dic	-11.0054
▁Lebanon	-11.0055
▁naked	-11.0055
▁afterwards	-11.0056
▁Chan	-11.0056
▁Dar	-11.0057
Cl	-11.0057
▁ya	-11.0058
▁Khmer	-11.0061
del	-11.0062
▁declined	-11.0064
9%	-11.0065
▁conclusion	-11.0065
▁Library	-11.0071
▁1947	-11.0072
78	-11.0079
▁starred	-11.0079
rie	-11.0083
who	-11.0086
▁Reserve	-11.0088
My	-11.0089
▁lesson	-11.009
▁confidence	-11.0092
mat	-11.0096
mbo	-11.0096
▁charts	-11.0096
▁session	-11.0099
▁Deputy	-11.0104
▁badly	-11.0104
▁Brian	-11.0107
bro	-11.0113
▁Hawaii	-11.0118
▁cap	-11.0119
▁guarantee	-11.012
▁rival	-11.0121
▁shirt	-11.0121
▁interact	-11.0122
▁Batman	-11.0122
▁Anything	-11.0123
ye	-11.0128
gg	-11.013
nal	-11.0131
run	-11.0132
▁Kra	-11.0132
pur	-11.0132
▁surviving	-11.0137
▁regularly	-11.0139
65	-11.0141
▁Article	-11.0141
▁recognised	-11.0145
Ba	-11.0147
2.	-11.0148
▁architect	-11.0149
▁Chu	-11.0151
▁pa	-11.0151
▁civilization	-11.0152
▁calendar	-11.0153
tha	-11.0155
▁mood	-11.0157
▁appeal	-11.0157
▁cruise	-11.0158
▁dozen	-11.0167
uch	-11.0167
▁centers	-11.0168
▁detect	-11.0169
▁pray	-11.017
▁Together	-11.017
Sa	-11.0171
▁vi	-11.0171
▁lowest	-11.0175
▁65	-11.0176
lar	-11.0179
ika	-11.018
▁loud	-11.0181
▁cluster	-11.0183
aceae	-11.0183
▁1900	-11.0184
▁cruiser	-11.0186
▁loves	-11.0187
stra	-11.0198
▁refugees	-11.0199
▁revenue	-11.02
▁39	-11.0201
▁drew	-11.0203
▁closing	-11.0203
▁Trust	-11.0204
▁1933	-11.0205
▁rear	-11.0209
▁cutting	-11.0213
▁viewed	-11.0219
▁boundaries	-11.022
od	-11.0223
▁ho	-11.0226
ona	-11.0227
▁breeds	-11.0229
▁deeply	-11.0231
▁define	-11.0234
▁Oxford	-11.0236
▁Stephen	-11.0236
hour	-11.0237
▁stake	-11.0237
▁helps	-11.0238
▁succeed	-11.024
De	-11.0246
▁robots	-11.025
▁procedure	-11.0251
▁1987	-11.0253
▁comparison	-11.0253
▁Somebody	-11.0254
▁HIV	-11.0254
▁Too	-11.0255
▁Solar	-11.0256
▁sin	-11.026
▁1925	-11.0261
▁continent	-11.0264
zen	-11.0264
▁Sever	-11.0266
▁database	-11.0269
log	-11.0275
▁samples	-11.0283
▁priest	-11.0285
▁chamber	-11.0285
▁industries	-11.0286
▁cooperation	-11.0287
▁spacecraft	-11.0287
▁Senator	-11.0287
▁controversial	-11.0288
▁corporate	-11.0289
▁Bro	-11.0293
▁Tim	-11.0298
▁experts	-11.03
▁unlike	-11.0301
▁Crown	-11.0306
▁Kan	-11.0311
▁channels	-11.0312
▁seventh	-11.0313
aba	-11.0318
▁Napoleon	-11.0318
▁Islam	-11.0318
▁mix	-11.0319
ー	-11.032
▁banned	-11.032
▁encouraged	-11.0322
▁transformation	-11.0323
▁120	-11.0324
▁meal	-11.0325
Don	-11.0326
▁Tha	-11.0327
ii	-11.0327
▁photograph	-11.033
SA	-11.033
▁actors	-11.0331
▁joy	-11.0333
▁Argentine	-11.0337
ob	-11.0338
▁laser	-11.0338
▁el	-11.0339
▁rooms	-11.0339
▁suitable	-11.0339
▁Ol	-11.0345
amine	-11.0348
▁gather	-11.0348
▁1963	-11.0353
▁consecutive	-11.0356
▁extend	-11.0358
▁emotions	-11.036
▁printing	-11.0361
▁Victor	-11.0363
pin	-11.0364
▁searching	-11.0365
▁Ram	-11.0368
▁Las	-11.037
▁Administration	-11.037
▁Except	-11.037
▁Heritage	-11.037
▁championship	-11.0372
▁×	-11.0375
room	-11.0376
▁Yi	-11.0386
▁hungry	-11.0388
:30	-11.0391
▁Main	-11.0393
▁lit	-11.0394
▁roots	-11.0395
▁odd	-11.0398
▁custom	-11.0398
aka	-11.04
▁syndrome	-11.0404
▁diameter	-11.0404
▁poison	-11.0408
▁rely	-11.0411
MA	-11.0411
▁Th	-11.0412
▁fallen	-11.0413
▁winds	-11.0415
til	-11.0415
▁educational	-11.0416
▁Il	-11.042
▁societies	-11.0421
è	-11.0422
▁battery	-11.0422
tar	-11.0422
▁1932	-11.0423
▁variation	-11.0423
▁Andrew	-11.0423
type	-11.0424
▁summit	-11.0424
▁Allen	-11.0428
bert	-11.0431
▁Looks	-11.0433
▁intention	-11.0434
▁stability	-11.0439
▁frequent	-11.0439
▁Tan	-11.0439
▁Secret	-11.0442
▁daughters	-11.0443
▁citizen	-11.0443
▁spell	-11.0446
▁par	-11.0446
▁radical	-11.0448
mm	-11.045
▁females	-11.0452
▁Girls	-11.0453
▁agencies	-11.0455
▁Having	-11.0457
▁restricted	-11.0459
▁reflect	-11.0462
▁eaten	-11.0466
▁closest	-11.0468
▁pollution	-11.0472
▁Grace	-11.0474
▁darkness	-11.0476
▁bombs	-11.0478
▁wound	-11.0481
ré	-11.0485
uma	-11.0489
▁Monday	-11.049
▁Op	-11.0496
▁practices	-11.0497
▁notion	-11.0498
▁carefully	-11.0503
lla	-11.0503
Ho	-11.0507
▁messages	-11.051
▁folks	-11.0511
▁Canal	-11.0517
▁1944,	-11.0517
▁differ	-11.0517
▁guests	-11.052
▁wars	-11.052
▁defence	-11.0523
▁Oregon	-11.0523
▁siege	-11.0524
▁pot	-11.0524
▁divorce	-11.0524
▁Arctic	-11.0524
▁pet	-11.0525
▁instruments	-11.0526
▁1921	-11.0527
▁vessel	-11.0528
▁dressed	-11.0529
ux	-11.0534
▁smooth	-11.0534
▁substantial	-11.0534
▁Ball	-11.0536
▁Robin	-11.0537
▁Pen	-11.054
▁hurry	-11.0541
▁whenever	-11.0541
▁fewer	-11.0541
▁variable	-11.0545
▁performances	-11.0547
▁prey	-11.0547
▁organ	-11.0548
▁Ms	-11.0549
▁Excuse	-11.0558
▁artistic	-11.0559
▁nurse	-11.0562
pper	-11.0562
▁toxic	-11.0568
▁guitar	-11.0572
▁poll	-11.0573
cor	-11.0574
▁candidates	-11.0574
ude	-11.0575
▁throat	-11.0575
▁Monica	-11.0576
ations	-11.0577
sel	-11.0578
▁conservative	-11.0578
▁arc	-11.0578
▁phones	-11.0578
▁poem	-11.0582
▁communications	-11.0583
▁29,	-11.0585
iz	-11.0587
▁crowned	-11.0592
▁Hanoi	-11.0593
▁belonged	-11.0594
▁1941	-11.0594
▁competitive	-11.0596
▁bro	-11.0599
▁usage	-11.06
▁sole	-11.0603
▁finishing	-11.0609
▁denied	-11.061
▁trap	-11.061
▁activist	-11.0616
ira	-11.0618
▁portal	-11.0621
▁universal	-11.0622
▁Champions	-11.0625
▁rat	-11.0625
▁Jerusalem	-11.0627
▁animation	-11.0627
▁telephone	-11.0627
▁Davis	-11.0628
▁exile	-11.0628
▁Video	-11.063
▁painted	-11.063
▁retail	-11.0632
▁generations	-11.0634
▁Thi	-11.0637
▁Lan	-11.0638
▁Championships	-11.0641
▁Ak	-11.0641
▁30,	-11.0641
▁mysterious	-11.0644
▁relevant	-11.0644
▁math	-11.0648
▁None	-11.0654
RE	-11.0655
▁curious	-11.0662
ged	-11.0663
▁1929	-11.0663
▁Bat	-11.0665
▁Report	-11.0666
▁Guard	-11.0668
▁Years	-11.0669
▁Var	-11.0671
89	-11.0675
▁55	-11.0678
▁pandemic	-11.0679
▁Norfolk	-11.0679
▁dioxide	-11.0679
▁vital	-11.068
ora	-11.0681
▁suspended	-11.0682
▁demands	-11.0689
▁everyday	-11.0693
▁(7	-11.0694
▁offices	-11.0694
▁dated	-11.0697
▁deployed	-11.0701
IC	-11.0702
That	-11.0703
▁molecule	-11.0709
iya	-11.0713
aki	-11.0713
▁perception	-11.0714
▁Jacob	-11.0715
▁clients	-11.0715
91	-11.0715
▁reverse	-11.0716
▁comfort	-11.0716
▁pushed	-11.0718
▁invite	-11.0719
sco	-11.0721
▁cooking	-11.0722
AT	-11.0726
oid	-11.0727
▁Gun	-11.0728
▁medication	-11.0728
▁App	-11.073
phy	-11.073
▁swimming	-11.0731
▁breathe	-11.0734
▁tries	-11.0738
inch	-11.0741
▁visa	-11.0742
▁eliminated	-11.0745
▁withdrew	-11.0749
▁detailed	-11.0749
▁conversion	-11.0749
▁allies	-11.0749
▁hoped	-11.075
▁seal	-11.0752
▁abilities	-11.0755
▁Try	-11.0758
▁clinic	-11.0762
▁Para	-11.0763
▁premiered	-11.0763
▁Daddy	-11.0768
▁aged	-11.0768
▁commissioned	-11.0769
ska	-11.0776
▁helicopter	-11.0776
▁Comp	-11.0777
▁divide	-11.0777
▁wings	-11.0778
▁dies	-11.0778
ois	-11.078
are	-11.0784
▁Family	-11.0784
▁beneath	-11.0784
▁Along	-11.0784
▁Theatre	-11.0785
▁invention	-11.0785
ites	-11.0791
▁breathing	-11.0793
▁Leo	-11.0794
▁monarch	-11.0795
▁educated	-11.0795
▁gathered	-11.0796
▁$2	-11.0798
▁Number	-11.0802
▁gap	-11.0803
ture	-11.0805
▁distinction	-11.0806
61	-11.0806
▁equipped	-11.0808
dar	-11.0812
▁Kai	-11.0816
▁wire	-11.0819
▁Ce	-11.0824
▁20,	-11.0826
▁Non	-11.0826
▁Austrian	-11.0828
▁Temple	-11.0831
▁ongoing	-11.0833
mina	-11.0834
▁enzyme	-11.0835
▁Count	-11.0835
▁Journal	-11.0836
▁repairs	-11.0836
▁overseas	-11.0837
▁mixture	-11.0837
▁Norwegian	-11.084
▁bite	-11.084
▁ranks	-11.0845
making	-11.0849
72	-11.0854
▁collective	-11.0854
▁adjacent	-11.0855
▁reviews	-11.0855
▁Food	-11.0855
▁grid	-11.0856
▁dish	-11.0858
▁crap	-11.086
63	-11.0862
▁shower	-11.0863
82	-11.0872
▁revolt	-11.0872
ensis	-11.0873
▁fingers	-11.0874
▁Einstein	-11.0875
▁painter	-11.0879
▁Mag	-11.088
▁Ever	-11.0886
▁Fair	-11.0886
rio	-11.0888
▁Jupiter	-11.089
▁Jersey	-11.089
▁campus	-11.0892
▁discussed	-11.0894
▁Fi	-11.0895
Why	-11.0898
04	-11.0902
▁relation	-11.0905
▁Honey	-11.0907
▁miracle	-11.0908
▁signature	-11.0908
31	-11.0909
▁Staff	-11.0909
▁amongst	-11.092
▁derivative	-11.0921
An	-11.0921
▁characteristic	-11.0922
▁coin	-11.0925
▁skull	-11.0926
▁punishment	-11.0926
▁1917	-11.0928
▁logic	-11.0931
▁Mid	-11.0932
▁trace	-11.0932
▁chloride	-11.0932
▁marks	-11.0933
▁democratic	-11.0935
▁trend	-11.0935
▁ties	-11.0936
92	-11.0937
dra	-11.0938
▁pin	-11.0943
▁outcome	-11.0946
▁Much	-11.0951
human	-11.0953
▁desk	-11.0954
kh	-11.0954
▁mu	-11.0955
▁Wang	-11.0955
▁tunnel	-11.0957
▁visiting	-11.0959
▁Unfortunately	-11.0961
▁shield	-11.0961
▁Ze	-11.0962
und	-11.0966
▁steam	-11.0968
▁detected	-11.0974
▁Gre	-11.0974
▁disorder	-11.0976
▁OS	-11.0977
dal	-11.0982
83	-11.099
▁Rico	-11.0995
▁reforms	-11.0995
▁devil	-11.1
▁shadow	-11.1
▁1957	-11.1001
▁escorted	-11.1003
▁Mas	-11.1004
osa	-11.101
▁Ste	-11.1012
▁Philippine	-11.1013
▁Probably	-11.1015
▁silence	-11.1015
▁Movement	-11.1016
▁impression	-11.1016
▁confirm	-11.1021
▁Information	-11.1021
▁coins	-11.1021
▁riding	-11.1027
▁wash	-11.1028
▁electron	-11.1031
▁1942,	-11.1033
▁brilliant	-11.1033
▁remarkable	-11.1033
▁charity	-11.1034
▁Sound	-11.1035
put	-11.1036
▁qualified	-11.1037
▁Rights	-11.104
▁crying	-11.104
▁instrument	-11.1041
▁wise	-11.1047
▁camps	-11.1048
▁Cold	-11.1049
▁annually	-11.1051
▁buddy	-11.1052
▁Zo	-11.1054
▁routes	-11.1055
▁disc	-11.1062
▁rent	-11.1063
▁cheap	-11.1063
▁3,000	-11.1064
▁novels	-11.1067
-12	-11.1072
▁select	-11.1074
▁anger	-11.1076
▁noble	-11.1076
tsu	-11.1077
Con	-11.1084
▁replacing	-11.1088
▁decrease	-11.1088
▁(20	-11.109
▁Eu	-11.1094
▁acted	-11.1095
▁seeking	-11.1098
▁partly	-11.1098
▁organs	-11.1102
▁continuing	-11.1106
▁warfare	-11.1106
▁trapped	-11.1106
▁Design	-11.1106
▁im	-11.1108
▁li	-11.1109
▁stored	-11.111
▁protest	-11.1111
▁Congo	-11.1113
uda	-11.1116
▁champions	-11.1118
burg	-11.1119
▁couples	-11.1121
Pa	-11.1122
▁printed	-11.1122
▁aspect	-11.1124
yama	-11.1124
▁Gal	-11.1125
▁efficiency	-11.1126
pop	-11.1135
▁Dave	-11.1137
br	-11.1138
▁advertising	-11.1142
▁flesh	-11.1142
▁Romans	-11.1144
▁1927	-11.1144
▁Being	-11.1149
SE	-11.1149
▁reserves	-11.115
nt	-11.1151
hal	-11.1152
▁1971	-11.1153
▁Karl	-11.1159
▁recover	-11.1161
she	-11.1161
▁creates	-11.1163
▁functional	-11.1167
▁clouds	-11.1171
▁newspapers	-11.1172
mine	-11.1175
▁aimed	-11.1175
▁categories	-11.1179
▁hypothesis	-11.1179
▁mystery	-11.1179
▁gear	-11.1179
▁1977	-11.1182
▁homes	-11.1182
▁transit	-11.1186
▁hook	-11.1187
For	-11.1188
▁authors	-11.119
▁Arm	-11.1193
▁swim	-11.1196
▁subspecies	-11.1197
▁apologize	-11.1198
▁involve	-11.1199
▁talks	-11.1199
▁hyper	-11.12
▁mail	-11.12
▁merely	-11.12
▁Danish	-11.1201
ction	-11.1203
000	-11.1206
act	-11.1208
▁secrets	-11.1209
▁medieval	-11.1215
▁colonies	-11.1215
▁documentary	-11.1216
▁expecting	-11.1222
▁freak	-11.1223
▁bin	-11.1224
▁concentrated	-11.1226
▁Com	-11.1229
▁2004.	-11.123
▁affair	-11.1236
▁Alan	-11.1237
▁Imagine	-11.1237
▁generate	-11.1239
▁friendship	-11.124
▁Code	-11.1241
▁historians	-11.1242
▁meetings	-11.1243
▁Blood	-11.1244
▁Gra	-11.1246
▁observations	-11.1247
▁Tor	-11.1247
▁reaches	-11.1251
▁Enterprise	-11.1252
▁commitment	-11.1254
▁Bring	-11.1254
▁Medical	-11.1258
α	-11.126
▁constitutional	-11.126
▁sodium	-11.1261
▁Win	-11.1267
▁rational	-11.1269
▁theorem	-11.1271
▁CIA	-11.1272
Ro	-11.1273
ox	-11.1275
▁partnership	-11.1275
▁attract	-11.1276
▁Cy	-11.1277
▁Villa	-11.1277
▁Kepler	-11.1289
▁revenge	-11.1289
▁Ty	-11.1289
▁contributions	-11.129
▁strict	-11.1293
▁Walt	-11.1304
▁SS	-11.1306
▁traditionally	-11.1306
▁Squadron	-11.1308
▁Vienna	-11.1308
▁balls	-11.1311
ological	-11.1315
Le	-11.1319
ans	-11.1321
▁Executive	-11.1326
▁Miami	-11.1327
▁Digital	-11.1329
▁tourism	-11.133
▁USS	-11.1333
▁46	-11.1335
▁basin	-11.1343
▁Indonesian	-11.1343
▁considering	-11.1343
▁vocal	-11.1345
▁airline	-11.1346
▁Mountain	-11.1349
▁observation	-11.135
hara	-11.1358
▁43	-11.1369
▁dude	-11.1369
73	-11.137
▁remembered	-11.1373
▁golden	-11.1374
▁estimates	-11.1374
sur	-11.1374
kai	-11.1377
▁dominated	-11.1379
▁neutral	-11.138
▁algorithm	-11.138
▁laboratory	-11.1382
▁shoulder	-11.1389
▁disk	-11.1389
▁Won	-11.1391
▁sphere	-11.1393
▁Den	-11.1394
cia	-11.1394
▁demonstrated	-11.1396
▁situations	-11.14
▁Language	-11.1401
▁Lewis	-11.1401
elli	-11.1409
▁links	-11.1412
52	-11.1413
▁Vol	-11.1419
▁dramatic	-11.142
▁interpretation	-11.1421
▁fed	-11.1421
▁Story	-11.1423
▁terminal	-11.1425
▁shares	-11.1428
▁invaded	-11.1429
▁ancestors	-11.143
▁(15	-11.1433
▁flash	-11.1435
▁programme	-11.1436
▁sufficient	-11.1437
▁cuisine	-11.1438
▁retirement	-11.1439
▁resource	-11.1441
▁Sho	-11.1442
▁spectrum	-11.1442
ular	-11.1447
▁hydro	-11.1451
oli	-11.1452
51	-11.1454
▁PlayStation	-11.1457
°	-11.1458
▁mouse	-11.1458
▁synthesis	-11.146
▁undergo	-11.1462
hood	-11.1463
▁loose	-11.1464
▁exhibition	-11.1465
▁Dream	-11.1466
German	-11.1466
lum	-11.1469
▁manufactured	-11.147
▁powder	-11.1476
▁Tomorrow	-11.1476
▁scan	-11.1477
▁1931	-11.1477
▁1926	-11.1477
▁Leave	-11.148
onic	-11.148
ST	-11.1482
▁distinguish	-11.1482
▁approaches	-11.1488
▁depend	-11.1491
▁disappear	-11.1492
wer	-11.1494
▁Junior	-11.1495
▁Majesty	-11.1495
▁Ancient	-11.1497
▁Dead	-11.1498
▁criticized	-11.1498
▁favour	-11.1502
▁des	-11.1502
▁Bush	-11.1502
ants	-11.1505
▁estimate	-11.1505
▁Ford	-11.1508
AS	-11.1509
ato	-11.1511
▁Chandler	-11.1513
▁1924	-11.1515
▁craft	-11.1517
▁corresponding	-11.152
▁Norman	-11.1522
▁distinguished	-11.1527
▁seeds	-11.1528
lay	-11.1532
▁keys	-11.1534
pha	-11.1535
▁1914	-11.1539
▁imp	-11.1539
▁resigned	-11.154
▁deeper	-11.1542
▁Auto	-11.1542
▁Natural	-11.1545
▁lied	-11.155
▁egg	-11.1551
▁Carlos	-11.1552
▁descent	-11.1552
▁conventional	-11.1553
▁orange	-11.1553
▁Ag	-11.1561
lor	-11.1566
EC	-11.1566
▁dependent	-11.1568
▁Territory	-11.157
▁Wikipedia	-11.157
▁genius	-11.1571
▁gathering	-11.1572
▁toilet	-11.1574
▁occasion	-11.1576
nie	-11.1578
▁bleeding	-11.1579
▁Lower	-11.1579
▁EU	-11.1585
▁engineers	-11.1588
▁threw	-11.1589
▁amateur	-11.1589
▁Airlines	-11.159
▁simultaneously	-11.1591
▁minority	-11.1593
а	-11.1593
▁ni	-11.1596
▁publicly	-11.1598
▁historian	-11.16
etic	-11.1605
▁employ	-11.1607
–20	-11.1609
▁Athens	-11.1609
▁250	-11.1609
▁varies	-11.1609
▁detective	-11.1609
▁mask	-11.1609
▁preserve	-11.1611
▁fighters	-11.1613
▁bo	-11.1613
▁intend	-11.1613
ments	-11.1616
▁credited	-11.1616
▁woods	-11.1616
▁wins	-11.1616
▁alarm	-11.1617
*	-11.1617
▁retreat	-11.1618
ration	-11.1624
▁Catherine	-11.1628
▁infantry	-11.1629
▁Danny	-11.1629
▁preserved	-11.1631
▁wheel	-11.1632
los	-11.1633
ace	-11.1636
▁filming	-11.1638
▁creature	-11.1639
▁dialect	-11.1639
Fi	-11.164
▁commanded	-11.1641
▁retained	-11.1642
▁Marshal	-11.1646
81	-11.1646
▁upstairs	-11.1647
▁Houston	-11.1647
▁municipalities	-11.1647
▁precious	-11.1647
▁presentation	-11.1652
▁1928	-11.1652
▁(8	-11.1654
▁potentially	-11.1656
▁implemented	-11.1657
▁publishing	-11.1657
94	-11.1663
▁payment	-11.1665
Bo	-11.1666
▁Galaxy	-11.1666
▁fantastic	-11.1666
▁remainder	-11.1668
mes	-11.1669
▁grounds	-11.1669
▁statistics	-11.1673
▁minds	-11.1675
▁Set	-11.1676
gor	-11.1676
foot	-11.1677
▁atomic	-11.1678
ī	-11.1685
▁Studies	-11.1685
▁household	-11.1686
▁2003.	-11.1687
▁stem	-11.1691
▁(12	-11.1692
-17	-11.1694
▁polar	-11.1697
▁destination	-11.1698
▁immigrants	-11.1699
▁surveillance	-11.1705
cr	-11.1705
▁consciousness	-11.1705
▁participants	-11.1706
▁graph	-11.1707
▁jet	-11.1707
▁regard	-11.1708
▁Ham	-11.1709
▁tasks	-11.1713
hol	-11.1713
▁kit	-11.1715
▁Ted	-11.1722
▁Arsenal	-11.1724
-15	-11.1725
nate	-11.1726
▁52	-11.1729
▁asleep	-11.1737
▁informed	-11.1739
▁crucial	-11.1743
▁Again	-11.1743
▁Doesn	-11.1746
▁Romania	-11.1746
▁Low	-11.1746
▁800	-11.1752
▁screw	-11.1752
General	-11.1754
▁slaves	-11.176
▁Pennsylvania	-11.1763
▁casualties	-11.1763
▁folk	-11.1763
▁boats	-11.1765
med	-11.1766
ram	-11.1768
▁Dam	-11.1773
,500	-11.1774
Co	-11.1775
▁Alaska	-11.1776
lim	-11.1778
▁thirty	-11.1782
▁log	-11.1787
▁particle	-11.1787
▁Miller	-11.1791
box	-11.1792
▁skill	-11.1793
▁vector	-11.1797
▁Late	-11.1798
▁pregnancy	-11.1801
▁photographs	-11.1802
▁Pedro	-11.1802
▁involvement	-11.1802
▁Sultan	-11.1803
▁Ur	-11.1803
▁footage	-11.1803
▁franchise	-11.1805
▁genre	-11.1805
▁corruption	-11.1806
▁Dance	-11.1807
▁traditions	-11.181
selling	-11.1811
▁operates	-11.1813
▁EP	-11.1814
osis	-11.1814
▁Wolf	-11.1814
west	-11.1815
▁Same	-11.1819
▁Au	-11.182
▁Twitter	-11.1821
▁participation	-11.1821
▁sacred	-11.1823
▁Hope	-11.1826
ر	-11.1827
▁Wild	-11.1828
▁resist	-11.1829
▁curve	-11.1831
▁restore	-11.1832
▁Zi	-11.1832
▁Brother	-11.1837
▁44	-11.1838
200	-11.1839
▁Down	-11.184
▁loyalty	-11.1842
▁mistakes	-11.1842
▁Ron	-11.1844
▁inches	-11.1845
mis	-11.1845
▁dose	-11.1851
▁completion	-11.186
▁conquest	-11.186
▁£	-11.1861
▁vulnerable	-11.1862
▁u	-11.1863
▁conquered	-11.1866
▁raw	-11.1871
▁bike	-11.1873
93	-11.1873
ova	-11.1877
iki	-11.1878
▁47	-11.1879
lov	-11.188
uro	-11.188
range	-11.188
▁tourists	-11.1882
▁Building	-11.1886
ique	-11.189
▁Ter	-11.1896
▁Minh	-11.1897
▁ba	-11.1897
▁electro	-11.1899
▁worship	-11.1899
▁Thursday	-11.1899
▁framework	-11.19
▁Upper	-11.1904
▁Zone	-11.1908
▁mar	-11.1909
▁campaigns	-11.1915
▁breast	-11.1917
▁Liverpool	-11.1919
▁implementation	-11.1921
▁Bible	-11.1924
▁characterized	-11.1927
▁recall	-11.1928
▁Must	-11.1928
▁worker	-11.1929
▁Bulgaria	-11.1932
▁valid	-11.1938
▁courage	-11.1938
▁Community	-11.1939
▁artillery	-11.1939
▁Studios	-11.1939
CA	-11.1939
▁adapt	-11.1944
▁Howard	-11.195
▁moments	-11.1957
▁ugly	-11.1959
AL	-11.1959
▁tube	-11.196
▁intelligent	-11.1961
▁Chen	-11.1974
▁Java	-11.1975
▁pronunciation	-11.1978
▁silent	-11.1978
▁genome	-11.1978
▁audio	-11.1978
▁Grant	-11.198
▁dig	-11.198
▁Hy	-11.1982
▁integrated	-11.1985
▁pi	-11.1987
▁41	-11.1987
▁environments	-11.1989
▁hip	-11.199
Japanese	-11.1991
▁economics	-11.1997
▁doors	-11.1998
▁attractive	-11.1999
▁maps	-11.2001
▁Series	-11.2002
▁wealthy	-11.2009
▁dynamic	-11.2011
▁button	-11.2014
▁Short	-11.2015
▁lung	-11.2016
▁torpedo	-11.2023
▁raising	-11.2024
dale	-11.2024
▁Aren	-11.2027
▁preparation	-11.2039
▁attributed	-11.2042
▁abandon	-11.2046
rou	-11.2047
▁mill	-11.2049
▁Baby	-11.205
▁Kha	-11.2056
▁filter	-11.2058
▁Emily	-11.2059
ense	-11.2061
▁dispute	-11.2062
▁comic	-11.2063
zh	-11.2067
new	-11.2068
▁Republican	-11.2069
▁rescued	-11.2071
▁corn	-11.2071
kha	-11.2072
▁consistent	-11.2072
▁Arizona	-11.2078
▁Chelsea	-11.2078
▁Gordon	-11.2078
▁scare	-11.2081
tia	-11.2082
iti	-11.2083
awa	-11.2083
pu	-11.2087
▁Monte	-11.2089
cis	-11.2089
▁Stark	-11.2089
▁Jay	-11.209
▁republic	-11.2097
mun	-11.2097
▁Child	-11.2099
▁demon	-11.2099
▁difficulty	-11.2099
▁Chairman	-11.2101
▁dragon	-11.2102
▁Sister	-11.2103
table	-11.2103
▁partially	-11.2104
vert	-11.2104
tta	-11.2105
▁resumed	-11.2107
▁Dean	-11.2109
▁altitude	-11.2109
▁raid	-11.211
▁yield	-11.2111
▁(10	-11.2114
▁Sim	-11.2115
▁indicates	-11.2116
▁blast	-11.2118
▁psychological	-11.2118
▁Cambridge	-11.2118
▁protests	-11.2119
▁spare	-11.2119
col	-11.2119
▁Billy	-11.212
▁investigate	-11.2121
▁Flight	-11.2122
▁crops	-11.2125
▁ju	-11.2125
▁inform	-11.2126
▁repeated	-11.2126
▁praised	-11.2128
▁alert	-11.2129
lis	-11.2131
▁armor	-11.2135
▁lakes	-11.2135
▁1000	-11.2138
▁Lawrence	-11.2138
▁Santiago	-11.2138
▁controversy	-11.2138
▁maintenance	-11.2138
▁probability	-11.2138
▁relegated	-11.2138
▁Culture	-11.2138
ened	-11.2142
▁Originally	-11.2142
▁5,000	-11.2145
▁cur	-11.2149
▁wa	-11.2154
▁Sports	-11.2157
▁Constantinople	-11.2158
▁preferred	-11.2159
▁Venus	-11.2159
▁cleared	-11.216
▁warrant	-11.216
▁mile	-11.2162
▁administered	-11.2166
▁bomber	-11.2166
▁Local	-11.2166
▁climb	-11.2167
▁politicians	-11.2168
▁tap	-11.2171
▁Cro	-11.2174
win	-11.2175
▁Sierra	-11.2178
▁1983	-11.218
▁Socialist	-11.2185
bol	-11.2187
▁awful	-11.2192
cast	-11.2193
▁relatives	-11.2193
▁reveal	-11.2194
ów	-11.2198
▁Manhattan	-11.2199
▁imagination	-11.2199
oo	-11.2199
▁treating	-11.2199
▁Throughout	-11.22
▁Half	-11.2201
▁Youth	-11.2201
▁possession	-11.2204
-6	-11.2206
▁lessons	-11.2208
ben	-11.2208
▁specialized	-11.2209
-7	-11.221
▁missiles	-11.2216
▁Chang	-11.2217
▁31,	-11.2218
▁Barcelona	-11.2219
▁Alliance	-11.2219
▁triple	-11.222
▁producers	-11.222
▁VII	-11.2225
ي	-11.2226
▁ranging	-11.2228
▁lists	-11.2228
▁ion	-11.2233
▁Run	-11.2233
▁winners	-11.2239
▁Furthermore	-11.2239
lit	-11.224
▁Engineering	-11.2243
▁hospitals	-11.2244
▁landings	-11.2244
▁contribute	-11.2248
▁1910	-11.2248
mail	-11.2249
▁accounting	-11.2253
▁IT	-11.2256
▁resort	-11.226
▁index	-11.2261
▁announcement	-11.2261
▁Talk	-11.2266
▁pilots	-11.2266
nder	-11.2269
aries	-11.2274
sp	-11.2277
600	-11.2278
▁scar	-11.2279
pl	-11.2279
▁horrible	-11.228
▁firing	-11.228
▁Kevin	-11.2282
▁Nar	-11.2286
▁arrangement	-11.2287
▁employment	-11.2288
oh	-11.2289
74	-11.2289
▁Hal	-11.229
▁Fund	-11.229
▁instructions	-11.2291
▁blog	-11.2293
▁spelled	-11.2294
▁representatives	-11.2295
▁tear	-11.23
cz	-11.2301
▁approached	-11.2303
▁aside	-11.2303
▁animated	-11.2304
▁organisation	-11.2307
▁51	-11.2308
▁regulations	-11.2308
speaking	-11.2315
▁behave	-11.2318
rn	-11.232
▁volumes	-11.2321
▁narrative	-11.2321
Ra	-11.2323
▁Hindu	-11.2323
▁copper	-11.2324
▁peaceful	-11.2328
▁Shortly	-11.2328
onia	-11.2329
▁acids	-11.233
▁leak	-11.2331
▁grows	-11.2336
▁Metro	-11.234
▁suspected	-11.2341
▁restrictions	-11.2341
▁exploration	-11.2342
▁referring	-11.2342
▁Kara	-11.2343
▁perceived	-11.2349
▁Gil	-11.2349
▁Delta	-11.235
▁relax	-11.235
▁mineral	-11.2353
▁Mayor	-11.2354
▁Sicily	-11.2362
▁interactions	-11.2365
▁Medal	-11.2368
▁topic	-11.2369
▁Help	-11.2369
/	-11.2369
▁reporting	-11.2374
▁bases	-11.2375
▁belonging	-11.2376
▁Band	-11.2376
▁pride	-11.2384
▁soup	-11.2384
▁Work	-11.2384
▁Honor	-11.2385
▁cats	-11.2396
š	-11.2403
▁invitation	-11.2403
▁Spring	-11.2412
▁register	-11.2413
try	-11.2414
▁stroke	-11.2415
▁Hard	-11.2415
worth	-11.2415
▁Found	-11.2416
▁eleven	-11.2417
▁beliefs	-11.2417
olo	-11.2418
▁kills	-11.242
▁chocolate	-11.2424
▁burden	-11.2424
▁commit	-11.2426
▁mature	-11.2426
▁Task	-11.2427
▁beast	-11.2427
8%	-11.2433
▁Kor	-11.2433
▁segment	-11.2434
▁Lang	-11.2434
▁Ward	-11.2436
▁Yoshi	-11.2438
▁Okinawa	-11.2439
rat	-11.2442
▁Energy	-11.2445
▁ridiculous	-11.2445
▁coalition	-11.2445
▁drove	-11.2446
▁chess	-11.2448
-8	-11.2449
▁1912	-11.2451
▁Market	-11.2451
▁merchant	-11.2455
▁mini	-11.2459
lie	-11.2462
▁Eventually	-11.2466
▁galaxies	-11.2466
▁invisible	-11.2466
iko	-11.2466
▁Morgan	-11.2467
far	-11.247
▁complexity	-11.2473
▁Program	-11.2474
eta	-11.2475
▁Matthew	-11.2486
▁attorney	-11.2486
▁judgment	-11.2486
▁decay	-11.2487
▁flood	-11.2489
▁1.5	-11.2493
84	-11.2494
▁Indo	-11.2498
▁predicted	-11.2501
▁gross	-11.2501
French	-11.2502
4,	-11.2502
rated	-11.2505
GA	-11.2508
▁compare	-11.2508
▁1923	-11.2509
▁exclusively	-11.2514
▁amino	-11.2515
▁aunt	-11.2517
و	-11.2521
▁Ages	-11.2524
▁serial	-11.2527
▁nephew	-11.2528
▁heritage	-11.2528
▁Ladies	-11.2528
▁boring	-11.2529
▁slide	-11.2529
ema	-11.2529
▁rotation	-11.2529
ū	-11.2531
▁mammals	-11.2534
▁internationally	-11.2536
phi	-11.2538
oni	-11.254
ulation	-11.2543
▁genera	-11.2543
▁fame	-11.2544
▁cult	-11.2545
▁Russians	-11.2545
▁occurring	-11.2551
03	-11.2552
▁shots	-11.2559
▁Armenian	-11.2559
uz	-11.256
order	-11.2562
Me	-11.2563
▁Garden	-11.2564
▁developers	-11.2566
▁succession	-11.2566
pon	-11.2569
▁Char	-11.2569
▁Nevertheless	-11.257
▁competing	-11.257
SS	-11.2571
▁Note	-11.2571
▁Nature	-11.2572
▁withdrawal	-11.2574
▁extract	-11.2577
usa	-11.2578
▁occasions	-11.2581
▁receptor	-11.2584
▁neighbors	-11.2586
▁Kal	-11.2586
▁exclusive	-11.2588
3,	-11.2591
▁requested	-11.2594
▁Wayne	-11.2594
AP	-11.2596
▁downtown	-11.2599
▁meets	-11.2604
▁physically	-11.2606
ua	-11.2609
▁ports	-11.261
▁Mun	-11.261
yi	-11.2611
ui	-11.2614
▁Dog	-11.2615
▁extinction	-11.2615
▁Dia	-11.2615
▁Franklin	-11.2615
▁soap	-11.2616
yang	-11.2619
▁northwestern	-11.2623
▁smallest	-11.2624
▁10%	-11.2625
▁Yang	-11.2626
present	-11.2626
▁Bou	-11.2629
▁Yan	-11.2629
▁structural	-11.2629
ges	-11.263
▁responded	-11.2632
▁rope	-11.2632
▁march	-11.2632
▁permitted	-11.2634
▁ownership	-11.2635
▁pulling	-11.2635
▁Str	-11.2638
▁Lucas	-11.2638
▁‘	-11.2641
▁journal	-11.2641
non	-11.2642
itis	-11.2643
ech	-11.2646
▁1958	-11.2648
▁scheme	-11.2648
bri	-11.2648
▁tumor	-11.265
tine	-11.2652
cher	-11.2654
▁Bangkok	-11.2655
▁Darwin	-11.2655
▁mild	-11.2656
ography	-11.2657
▁whoever	-11.2659
▁parking	-11.2659
▁Horse	-11.2659
▁devoted	-11.266
▁fur	-11.2661
▁ranking	-11.2663
met	-11.2664
nica	-11.2667
▁Jon	-11.2669
-18	-11.2669
▁territorial	-11.2676
▁Television	-11.2676
▁worn	-11.2676
▁Kon	-11.2678
▁Place	-11.2678
bed	-11.2678
▁bears	-11.2681
▁displayed	-11.2682
fully	-11.2686
▁appearing	-11.2688
nik	-11.2688
tern	-11.2689
Russian	-11.2693
▁destiny	-11.2697
▁legislation	-11.2697
▁temporarily	-11.2697
▁dawn	-11.2697
▁automatically	-11.2698
▁awareness	-11.2699
▁Currently	-11.27
▁highway	-11.2701
▁attitude	-11.2701
az	-11.2705
cut	-11.2707
▁1992,	-11.2707
▁eighth	-11.2709
▁borrow	-11.271
▁Shan	-11.2714
▁cow	-11.2714
MS	-11.2716
▁hosts	-11.2716
ister	-11.2717
ila	-11.2717
ear	-11.2718
▁Chamber	-11.2719
▁Sudan	-11.2719
▁cent	-11.2723
▁torture	-11.2723
▁si	-11.2725
kar	-11.2725
▁chains	-11.2731
stein	-11.2733
▁bonds	-11.2733
▁console	-11.2735
▁improvement	-11.2737
▁Muslims	-11.2739
▁awesome	-11.274
▁decree	-11.274
−	-11.2742
▁lion	-11.2743
▁1994,	-11.275
▁Gor	-11.2754
▁Pin	-11.2754
▁Data	-11.2754
4)	-11.2756
▁Bangladesh	-11.2761
▁promoting	-11.2761
▁geometry	-11.2761
▁Douglas	-11.2761
▁Virgin	-11.2762
▁Medicine	-11.2762
▁autonomous	-11.2765
▁Were	-11.2765
▁difficulties	-11.2766
▁Woman	-11.2771
▁Iranian	-11.2771
▁restaurants	-11.2776
pol	-11.2777
ates	-11.2782
anda	-11.2782
-11	-11.2783
▁parliamentary	-11.2784
▁Ō	-11.2785
pri	-11.2785
▁hi	-11.2788
ote	-11.2804
▁aggressive	-11.2804
▁psychology	-11.2804
▁endemic	-11.2805
▁Ltd	-11.2806
▁MP	-11.2808
▁Sony	-11.2808
▁Mat	-11.2808
▁fastest	-11.2808
▁dishes	-11.2809
▁feeding	-11.2814
▁Industrial	-11.2819
▁chapter	-11.2823
▁punch	-11.2825
tech	-11.2828
Na	-11.283
▁mines	-11.2834
▁emissions	-11.2844
month	-11.2845
▁fu	-11.2845
▁shipping	-11.2851
▁gr	-11.2851
▁demonstrate	-11.2852
rah	-11.2852
▁encounter	-11.2855
iva	-11.2862
▁transformed	-11.2864
▁bra	-11.2867
▁clever	-11.2869
▁gentleman	-11.2871
▁sections	-11.2873
▁72	-11.2875
–3	-11.2876
▁encountered	-11.2881
ory	-11.2882
▁insects	-11.2883
▁(11	-11.2889
▁contribution	-11.2889
▁employee	-11.2889
▁chip	-11.289
▁Guadalcanal	-11.2891
▁improving	-11.2891
▁sustainable	-11.2892
▁proven	-11.2893
▁UNESCO	-11.2893
tive	-11.2894
aya	-11.2895
▁1911	-11.2898
▁connecting	-11.29
ctor	-11.29
▁ra	-11.2901
▁wore	-11.2901
▁equally	-11.2904
▁monitoring	-11.2908
▁angel	-11.2909
ware	-11.291
▁Amy	-11.2911
▁neighbour	-11.2911
▁migration	-11.2913
▁peninsula	-11.2913
▁Silver	-11.2913
▁acres	-11.2913
gram	-11.2915
▁Common	-11.2916
logy	-11.2917
▁meta	-11.2917
▁2000.	-11.2926
▁Armenia	-11.2927
▁neighboring	-11.2928
Br	-11.2929
▁Plant	-11.293
▁(9	-11.2932
▁consequence	-11.2934
▁Kennedy	-11.2934
▁plasma	-11.2934
▁powered	-11.2935
▁Highway	-11.2936
▁dissolved	-11.2941
▁waited	-11.2941
▁Use	-11.2942
ffer	-11.2943
PS	-11.2944
nam	-11.2955
▁Studio	-11.2956
▁wishes	-11.2958
▁explains	-11.2966
▁Ask	-11.297
▁Base	-11.2973
▁Lanka	-11.2973
▁99	-11.2975
▁vacation	-11.2978
▁consent	-11.2978
▁jurisdiction	-11.2978
▁warrior	-11.2978
▁elite	-11.2981
AC	-11.2981
▁700	-11.2989
eau	-11.2994
▁58	-11.2996
str	-11.2996
▁realm	-11.2997
▁Hor	-11.2998
▁musician	-11.2999
▁injuries	-11.3
▁trillion	-11.3
▁Computer	-11.3
▁Florence	-11.3
▁suggesting	-11.3002
▁ease	-11.3004
oi	-11.3004
▁50%	-11.3007
▁string	-11.3011
▁Ohio	-11.3013
▁Turn	-11.3013
▁routine	-11.3015
place	-11.3015
ة	-11.3016
▁zones	-11.3017
▁threats	-11.3018
▁variations	-11.302
▁zoo	-11.302
▁concrete	-11.3022
▁technological	-11.3022
▁capabilities	-11.3022
▁1965	-11.3022
▁clip	-11.3023
vy	-11.3024
bble	-11.3024
▁Renaissance	-11.3024
▁pants	-11.3025
▁Baltic	-11.3025
bury	-11.3026
▁Cam	-11.3027
▁membership	-11.3028
▁pointed	-11.3032
Li	-11.3039
▁Cre	-11.304
▁abstract	-11.3041
▁labour	-11.3043
▁bronze	-11.3044
▁hurricane	-11.3044
▁Twenty	-11.3044
▁sooner	-11.3046
umi	-11.3047
▁Jong	-11.3049
▁Jung	-11.3049
▁locally	-11.3049
▁pink	-11.305
▁Bon	-11.3051
▁importantly	-11.3057
▁Munich	-11.3066
▁thy	-11.3067
▁descended	-11.3071
lio	-11.3073
▁Unit	-11.3075
.7	-11.3076
ame	-11.308
▁monitor	-11.3084
▁Word	-11.3085
▁spreading	-11.3087
▁behaviour	-11.3088
▁defensive	-11.3088
▁reliable	-11.3088
▁Mercury	-11.3088
two	-11.3088
▁aboard	-11.3089
▁flagship	-11.309
▁posted	-11.3093
▁photographer	-11.3094
▁Daily	-11.3095
PP	-11.3095
▁delayed	-11.3098
LA	-11.31
▁construct	-11.3101
▁handsome	-11.3102
▁secured	-11.3103
ule	-11.3103
via	-11.3104
There	-11.3107
▁horror	-11.311
▁Magazine	-11.311
▁Ghana	-11.311
▁infant	-11.3111
▁Total	-11.3111
ologist	-11.3111
▁protocol	-11.3114
▁Palestinian	-11.3114
▁merger	-11.3114
▁tribute	-11.3117
CC	-11.3122
▁origins	-11.3123
▁ranges	-11.3124
world	-11.3126
▁thrown	-11.3128
ID	-11.3129
iro	-11.3129
▁Shu	-11.313
DS	-11.313
▁believes	-11.3132
ition	-11.3134
▁eliminate	-11.3138
phon	-11.3141
tum	-11.3148
▁Tre	-11.3149
▁licensed	-11.3153
▁oxide	-11.3154
eth	-11.3155
▁Colorado	-11.3155
▁Roy	-11.3157
▁localities	-11.3159
▁risks	-11.3165
▁refuse	-11.3165
▁consideration	-11.3167
▁Williams	-11.3168
▁poems	-11.317
▁Malay	-11.3172
▁Fall	-11.3172
▁adventure	-11.3174
▁2002.	-11.3175
▁atom	-11.3177
▁grateful	-11.3177
▁Capital	-11.318
▁convention	-11.3183
▁reportedly	-11.3184
▁Qui	-11.3194
ving	-11.3194
и	-11.3195
▁consumers	-11.3197
ell	-11.3199
▁divorced	-11.3199
tur	-11.3202
aj	-11.3205
Ca	-11.3205
▁chi	-11.3206
▁hire	-11.3212
▁adopt	-11.3213
▁defeating	-11.3216
chen	-11.322
▁asks	-11.322
Polish	-11.322
▁junior	-11.3222
▁frozen	-11.3223
е	-11.3226
▁Johnny	-11.3227
▁initiated	-11.323
▁discipline	-11.3236
▁elevator	-11.3244
▁uranium	-11.3244
Mar	-11.3244
aria	-11.3245
leg	-11.3245
▁impressed	-11.325
▁snake	-11.3251
▁Chilean	-11.3251
▁Mill	-11.3254
▁manufacturer	-11.3254
▁virtually	-11.3254
▁Anderson	-11.3254
party	-11.3256
gate	-11.3256
ids	-11.3256
uring	-11.3258
▁Fer	-11.3263
▁withdraw	-11.3263
ン	-11.3267
▁bowl	-11.3267
▁Xbox	-11.3268
gger	-11.3272
▁coral	-11.3273
▁filmed	-11.3273
▁Plus	-11.3273
▁opponent	-11.3274
▁graphics	-11.3275
▁competitions	-11.3276
▁react	-11.3276
▁shops	-11.3281
DP	-11.3284
▁stealing	-11.3285
▁thoughts	-11.3285
_{	-11.3287
▁Vegas	-11.3288
า	-11.3289
▁accompany	-11.329
▁volcanic	-11.329
▁wisdom	-11.329
▁separation	-11.329
▁hub	-11.329
▁1905	-11.3293
mark	-11.3293
▁chronic	-11.3295
▁peaked	-11.3296
▁revolutionary	-11.3297
▁Cole	-11.33
ake	-11.3301
▁loop	-11.3302
▁implement	-11.3303
▁claiming	-11.3303
▁chemicals	-11.3303
lip	-11.3303
sub	-11.3307
▁shake	-11.3308
▁puzzle	-11.3312
▁Charlotte	-11.3312
▁Boeing	-11.3312
▁Either	-11.3312
▁Protestant	-11.3312
▁hills	-11.3316
▁Sur	-11.3319
▁monkey	-11.3319
▁Walker	-11.3319
▁grain	-11.332
▁fraction	-11.332
▁warn	-11.3321
▁heroes	-11.3324
▁throwing	-11.3329
▁lifestyle	-11.333
▁controls	-11.3332
ional	-11.3334
eu	-11.3334
▁texts	-11.3334
▁preparing	-11.3335
▁rainfall	-11.3335
▁María	-11.3335
isa	-11.3336
avi	-11.3337
▁Tr	-11.3337
▁Sand	-11.334
▁Mari	-11.3342
▁rifle	-11.3343
play	-11.3345
▁painful	-11.3345
▁seized	-11.3346
yr	-11.3348
▁Cher	-11.335
his	-11.335
▁Alfred	-11.3353
bound	-11.3355
▁Colombian	-11.3355
▁custody	-11.3358
▁graduating	-11.3358
▁hybrid	-11.3358
▁Constantine	-11.3358
▁impressive	-11.3358
▁Freedom	-11.3358
▁slip	-11.3358
shan	-11.3359
▁Alpha	-11.3359
▁Voice	-11.3361
ía	-11.3363
▁Luke	-11.3364
▁proclaimed	-11.3365
▁spaces	-11.3366
▁burst	-11.3366
▁1915	-11.3366
▁independently	-11.337
tail	-11.337
▁Thought	-11.3372
▁Liu	-11.3374
▁dump	-11.3375
▁courts	-11.3375
▁56	-11.3378
▁emphasis	-11.338
▁fantasy	-11.338
▁versus	-11.338
▁Better	-11.3382
–2	-11.3384
▁dimensions	-11.3385
▁BCE	-11.339
▁attempting	-11.339
▁Name	-11.3391
▁sorts	-11.3395
▁lately	-11.3396
▁vertical	-11.3396
▁Ring	-11.3397
▁Ryan	-11.34
▁civilians	-11.3402
ici	-11.3403
▁Cultural	-11.3403
▁quantity	-11.3403
▁triangle	-11.3403
▁burial	-11.3403
▁Bio	-11.3407
▁trains	-11.3408
▁Bla	-11.3408
▁Village	-11.341
▁infinite	-11.3411
▁beam	-11.3418
▁Ob	-11.3419
▁warned	-11.3419
But	-11.3424
▁conflicts	-11.3424
▁Iceland	-11.3426
▁Senior	-11.3426
▁velocity	-11.3426
hn	-11.3427
▁investors	-11.3427
hold	-11.343
▁runner	-11.3431
▁recommend	-11.3436
▁celebration	-11.3437
▁trusted	-11.3437
▁persons	-11.3441
▁demanded	-11.3442
▁Tang	-11.3443
▁RNA	-11.3447
à	-11.3448
▁Bishop	-11.3449
▁concepts	-11.3453
sized	-11.3454
▁portrayed	-11.3455
▁Based	-11.3457
▁photography	-11.3459
▁DC	-11.346
▁Dai	-11.3462
▁Nova	-11.3463
▁der	-11.3463
▁beta	-11.3464
▁Guatemala	-11.3466
▁Donald	-11.3473
▁terrain	-11.3473
ati	-11.3474
▁Phil	-11.3475
▁1962	-11.3477
▁rulers	-11.3478
list	-11.3479
ل	-11.348
▁Nan	-11.348
▁Ger	-11.3485
▁20,000	-11.3487
ste	-11.3489
▁tears	-11.3489
▁Jamaica	-11.3489
▁Ara	-11.349
▁Kraków	-11.3495
▁departure	-11.3495
▁Vincent	-11.3495
▁united	-11.3496
five	-11.3496
▁Des	-11.3496
▁Earl	-11.3496
fl	-11.3498
▁depicted	-11.3499
nar	-11.35
▁1990,	-11.3501
▁Gri	-11.3504
▁wider	-11.351
▁alleged	-11.3511
▁Sy	-11.3512
.”	-11.3513
▁Memorial	-11.3518
▁slept	-11.3518
▁eldest	-11.3518
dor	-11.3518
▁Guess	-11.3518
ín	-11.352
▁Seung	-11.352
▁Jason	-11.352
▁axis	-11.3521
▁update	-11.3521
▁priority	-11.3522
▁dancer	-11.3524
▁Sp	-11.3524
▁Rica	-11.3525
eri	-11.3527
▁dual	-11.3528
ille	-11.3529
▁predecessor	-11.3531
▁churches	-11.3536
▁harsh	-11.3541
▁lungs	-11.3542
▁Country	-11.3543
▁observe	-11.3544
hem	-11.3544
▁Almost	-11.3544
▁Magic	-11.3546
▁overcome	-11.3547
NS	-11.3552
▁wolf	-11.3556
bia	-11.3556
▁influences	-11.3557
ET	-11.3561
▁filed	-11.3561
zar	-11.3562
▁Qu	-11.3563
▁penalty	-11.3565
uni	-11.3565
NA	-11.3566
ido	-11.3568
▁rebels	-11.3569
▁expanding	-11.357
▁improvements	-11.357
▁ignore	-11.3571
mir	-11.3572
▁curse	-11.3572
une	-11.3573
bat	-11.3574
▁sang	-11.3578
▁Change	-11.3579
▁precise	-11.3581
▁Political	-11.3588
▁Venice	-11.3588
▁navy	-11.3588
▁shorter	-11.359
▁inherited	-11.3592
▁Christianity	-11.3593
▁defending	-11.3598
▁Know	-11.3599
TS	-11.36
▁Sol	-11.36
gin	-11.3601
amo	-11.3601
vers	-11.3603
▁partial	-11.3607
▁sunk	-11.3607
▁cinema	-11.3609
▁supplement	-11.3611
▁tremendous	-11.3611
▁voting	-11.3611
▁midnight	-11.3612
▁parks	-11.3614
▁historically	-11.3614
▁magical	-11.3617
SC	-11.3617
▁Clo	-11.3618
what	-11.3621
▁Tiger	-11.3621
▁Mission	-11.3623
▁HD	-11.3624
▁membrane	-11.3626
▁counting	-11.3627
▁panel	-11.3628
HMS	-11.3631
aga	-11.3631
▁darling	-11.3634
▁Prefecture	-11.3634
▁adoption	-11.3635
▁USSR	-11.3636
▁Always	-11.3638
▁wooden	-11.3638
▁crop	-11.3644
ash	-11.3647
SO	-11.3649
▁boom	-11.3653
Hi	-11.3655
▁equations	-11.3656
▁Cer	-11.3658
▁participating	-11.3658
▁Spi	-11.366
▁$3	-11.3661
▁announce	-11.3663
▁rush	-11.3664
▁sank	-11.3664
▁quote	-11.3666
▁1913	-11.3668
▁touched	-11.3668
▁lover	-11.3669
ising	-11.3672
▁smoking	-11.3681
▁farming	-11.3681
▁Initially	-11.3684
▁Sounds	-11.3684
▁Hmm	-11.3684
▁supporters	-11.3687
▁scary	-11.3689
▁Franco	-11.3691
Se	-11.3692
cri	-11.3694
▁Andy	-11.3696
▁screening	-11.3698
cat	-11.3699
ê	-11.37
▁windows	-11.3703
nk	-11.3705
▁Mos	-11.3705
Chinese	-11.3705
▁tennis	-11.3706
▁Tonight	-11.3707
arian	-11.3707
▁Marcus	-11.3709
▁tag	-11.3711
take	-11.3712
num	-11.3716
▁monument	-11.3717
Ka	-11.3719
▁Jr	-11.3722
▁musicians	-11.3726
▁Ecuador	-11.3727
▁integration	-11.3728
▁Railway	-11.3728
▁comprises	-11.3729
▁bedroom	-11.3729
▁Tommy	-11.373
▁Newton	-11.373
▁warming	-11.3739
▁Nigerian	-11.374
▁telescope	-11.3746
▁Paulo	-11.3748
▁pushing	-11.375
oph	-11.3751
▁Nor	-11.3752
▁provincial	-11.3752
▁varieties	-11.3752
▁Michigan	-11.3752
2,000	-11.3752
▁fitted	-11.3754
▁dumb	-11.3754
▁invest	-11.3755
▁neurons	-11.3756
▁Hol	-11.3756
▁layers	-11.3756
▁Tam	-11.3758
▁49	-11.3759
CH	-11.3759
▁substitute	-11.3759
▁calculated	-11.3764
▁cargo	-11.3765
▁Angel	-11.3766
▁Hunter	-11.3768
▁bay	-11.3768
game	-11.3769
▁pleased	-11.3773
▁dwarf	-11.3776
▁Buddha	-11.3776
▁moderate	-11.3777
▁Step	-11.3778
▁SA	-11.3781
▁collapsed	-11.3782
▁stopping	-11.3782
▁styles	-11.3783
▁facts	-11.3793
▁Small	-11.3793
ES	-11.3794
▁scenario	-11.3795
▁circuit	-11.3796
▁Tuesday	-11.3799
▁Construction	-11.38
▁Pha	-11.3803
ago	-11.3805
▁strongest	-11.3805
▁measurements	-11.3811
▁Thu	-11.3813
▁squared	-11.3817
▁Pierre	-11.3817
▁Fo	-11.3819
▁initiative	-11.3819
▁facilitate	-11.3823
▁uprising	-11.3823
▁Idlib	-11.3823
▁ed	-11.3823
Spanish	-11.3824
▁swing	-11.3825
get	-11.3825
ddle	-11.3826
▁95	-11.3827
▁54	-11.3829
▁beaten	-11.3831
▁Near	-11.3831
ean	-11.3835
▁Clark	-11.3838
▁1941,	-11.384
▁woke	-11.3845
cum	-11.3846
▁Orthodox	-11.3847
▁Otherwise	-11.3847
▁Manila	-11.3849
▁pie	-11.385
▁coverage	-11.3851
▁owners	-11.3852
▁speaker	-11.3853
wo	-11.3854
▁flee	-11.3855
▁epi	-11.3856
▁apple	-11.3858
Lo	-11.3859
cap	-11.3862
uli	-11.3868
▁answered	-11.387
▁tens	-11.387
▁spiral	-11.3871
▁Pri	-11.3872
ets	-11.3874
tr	-11.3875
▁exhibit	-11.3879
▁beg	-11.3883
Ta	-11.3891
▁Bond	-11.3892
▁ritual	-11.3892
▁Nicholas	-11.3895
▁circulation	-11.3895
▁globe	-11.3895
▁Native	-11.39
▁breaks	-11.3901
▁;	-11.3901
▁Mobile	-11.3902
eur	-11.3903
▁Cook	-11.3904
▁Bird	-11.3905
horn	-11.3906
▁drinks	-11.3907
▁item	-11.3909
▁Pol	-11.3909
▁Nepal	-11.3912
▁Fri	-11.3916
▁legacy	-11.3919
▁basketball	-11.3919
▁Support	-11.3919
▁pigs	-11.3921
▁magazines	-11.3922
▁beef	-11.3924
▁terrorist	-11.3929
shima	-11.3931
▁concerning	-11.394
-21	-11.3941
▁extends	-11.3942
▁Carr	-11.3943
▁Trinidad	-11.3943
▁diagnosis	-11.3943
▁mud	-11.3944
▁safely	-11.3947
tain	-11.3948
▁pit	-11.3953
rac	-11.3954
▁ruined	-11.3954
▁athletes	-11.3955
vent	-11.3956
nin	-11.3959
cra	-11.3961
▁spy	-11.3963
chan	-11.3964
▁bearing	-11.3965
▁murderer	-11.3968
▁Burn	-11.3968
▁injection	-11.3969
▁exam	-11.3972
▁Tro	-11.3972
▁imported	-11.3977
▁controlling	-11.3981
mura	-11.3989
▁cancelled	-11.3992
▁Saturn	-11.3992
▁rebuilt	-11.3993
▁manufacture	-11.3995
▁hence	-11.4
▁1916	-11.4
▁Guy	-11.4001
▁stranger	-11.4002
tti	-11.4004
▁probe	-11.4006
▁possess	-11.4006
vol	-11.4007
load	-11.4007
▁advisor	-11.4009
-9	-11.4012
▁lecture	-11.4012
▁orchestra	-11.4015
▁Apparently	-11.4016
▁epidemic	-11.4016
▁Missouri	-11.4016
▁Independence	-11.4018
▁nitrogen	-11.4019
▁scream	-11.4022
ld	-11.4024
▁margin	-11.4024
▁geo	-11.4025
▁pairs	-11.4029
▁codes	-11.4033
▁Kid	-11.4034
▁tactics	-11.4037
four	-11.4037
▁(0	-11.4039
▁Margaret	-11.404
▁certificate	-11.404
▁significance	-11.404
▁strategies	-11.404
▁jungle	-11.404
▁Heaven	-11.404
▁solved	-11.4044
ρ	-11.4047
▁attending	-11.405
▁oceans	-11.4052
mel	-11.4056
▁server	-11.4061
▁comment	-11.4061
thy	-11.4061
▁neuro	-11.4063
▁Cooper	-11.4064
▁chase	-11.4064
▁judges	-11.4064
▁confusion	-11.4065
▁scholarship	-11.4065
▁Nathan	-11.4066
▁Hans	-11.4067
▁Anyone	-11.4068
▁intensity	-11.4069
▁drill	-11.4071
▁2020	-11.4073
nus	-11.4073
All	-11.4075
She	-11.4075
▁thereafter	-11.4079
lation	-11.408
▁ultimate	-11.4082
▁nest	-11.4082
▁rape	-11.4083
▁Opera	-11.4083
▁severely	-11.4083
▁bell	-11.4085
▁rounds	-11.4085
▁describing	-11.4089
OR	-11.4091
uc	-11.4092
▁declare	-11.4097
▁holy	-11.4102
о	-11.4105
ators	-11.4105
▁sail	-11.4107
▁illusion	-11.4114
▁Infantry	-11.4114
▁releases	-11.4116
▁elevated	-11.4117
ali	-11.4119
gh	-11.4123
▁Hit	-11.4125
pes	-11.4131
▁Mis	-11.4133
▁binding	-11.4136
▁Further	-11.4138
▁trunk	-11.4138
▁endangered	-11.4141
▁goodbye	-11.4142
▁precisely	-11.4145
ode	-11.4148
▁Bol	-11.4152
▁tone	-11.4155
BA	-11.4156
▁focusing	-11.4157
cul	-11.4159
hen	-11.4159
▁SC	-11.4162
▁autonomy	-11.4163
▁orientation	-11.4163
▁radius	-11.4163
▁settlements	-11.4163
▁regardless	-11.4164
▁themes	-11.4164
minute	-11.4165
▁starring	-11.4166
▁vegetables	-11.4166
▁electrons	-11.4167
▁Large	-11.4168
▁Ivan	-11.417
▁Site	-11.4171
▁accomplished	-11.4172
▁wanting	-11.4174
▁medals	-11.4177
later	-11.4179
▁sink	-11.4182
▁viruses	-11.4186
▁transplant	-11.4186
ava	-11.4186
▁submitted	-11.4188
▁Tropical	-11.4188
lands	-11.4188
▁Yemen	-11.4189
▁ruin	-11.4195
▁Knight	-11.4199
lf	-11.42
▁audition	-11.4202
▁reflected	-11.4204
▁bore	-11.4204
▁patent	-11.4205
▁Cruz	-11.4206
▁flooding	-11.4209
▁Haiti	-11.4211
▁Agreement	-11.4212
▁Morocco	-11.4212
▁residential	-11.4213
▁Wei	-11.4213
▁Cairo	-11.4213
▁Kyoto	-11.4213
▁Review	-11.4213
▁Bai	-11.4213
▁Regional	-11.4215
rr	-11.4223
▁fortress	-11.4224
▁gut	-11.4225
xe	-11.4228
▁orbital	-11.423
▁Roosevelt	-11.4237
▁Desert	-11.4237
▁Apollo	-11.4237
▁(14	-11.4238
-16	-11.4238
▁browser	-11.4238
▁sunlight	-11.4238
▁Yugoslavia	-11.424
matic	-11.424
▁physician	-11.4242
▁insane	-11.4245
▁sauce	-11.4248
this	-11.4252
mate	-11.4255
▁focuses	-11.4256
source	-11.4261
▁quantities	-11.4262
▁underneath	-11.4262
▁mercy	-11.4263
▁bump	-11.4264
▁mall	-11.4264
oy	-11.4265
▁Universal	-11.4266
▁1890	-11.4266
▁AI	-11.4267
▁delay	-11.4268
shire	-11.4269
▁Mah	-11.4271
▁IBM	-11.4272
▁affects	-11.4274
▁(13	-11.4275
▁cleaning	-11.4279
▁updated	-11.428
▁Susan	-11.4281
ington	-11.4282
▁overhaul	-11.4287
▁scoring	-11.4287
▁subsidiary	-11.4287
▁Cameron	-11.4287
▁Mind	-11.4288
oka	-11.4291
sol	-11.4293
▁kidney	-11.4294
won	-11.4295
inus	-11.4296
moto	-11.4299
▁pe	-11.43
▁neighbor	-11.43
bor	-11.4301
chin	-11.4306
▁destroying	-11.4308
▁Hat	-11.4308
▁duration	-11.4312
▁Storm	-11.4313
▁dive	-11.4313
Can	-11.4314
▁Mm	-11.4315
▁Minor	-11.4315
▁Carter	-11.4315
shaped	-11.4318
▁approaching	-11.4319
▁emerge	-11.432
▁Taka	-11.4325
▁Fuji	-11.4326
▁}	-11.4328
nh	-11.4332
▁Eve	-11.4336
LE	-11.4337
▁fancy	-11.4338
▁Alright	-11.434
▁jumped	-11.4344
▁servant	-11.4344
▁Season	-11.4344
▁thermal	-11.4348
▁Hai	-11.435
▁underway	-11.4353
▁bars	-11.4355
▁tide	-11.436
▁Ain	-11.4361
▁Buddhism	-11.4362
▁metropolitan	-11.4362
▁architectural	-11.4362
▁travelled	-11.4364
▁Route	-11.4365
▁carries	-11.4366
dri	-11.4367
▁heal	-11.4367
▁Antonio	-11.4368
▁oral	-11.4368
▁fictional	-11.4369
▁organism	-11.4371
▁unclear	-11.4373
▁marketed	-11.4373
ا	-11.4377
▁handed	-11.4379
▁fifteen	-11.438
▁weakness	-11.4386
▁acquisition	-11.4387
▁declaration	-11.4387
▁Samuel	-11.4387
▁Rain	-11.4395
▁ridge	-11.4398
▁Fan	-11.44
▁finite	-11.4401
▁theoretical	-11.4406
lier	-11.4409
▁circles	-11.441
▁symbols	-11.4412
▁trauma	-11.4412
▁Christopher	-11.4412
▁reception	-11.4412
▁trash	-11.4416
▁elder	-11.4423
▁Dec	-11.4429
▁Ethiopia	-11.4432
▁divine	-11.4438
▁forecast	-11.4438
▁Movie	-11.4438
▁Les	-11.444
▁visits	-11.4441
▁managing	-11.4442
▁sentenced	-11.4445
▁Planet	-11.4445
pel	-11.4446
▁absorbed	-11.4448
▁Kings	-11.4454
▁legally	-11.4456
▁cited	-11.4464
▁accessible	-11.4465
Mi	-11.4465
▁distinctive	-11.4465
▁Perry	-11.4468
▁lighter	-11.4469
▁funded	-11.4472
..."	-11.4473
▁Rad	-11.4474
▁Mama	-11.4478
▁Ros	-11.448
▁pound	-11.4482
▁Algeria	-11.4483
▁Ann	-11.4483
▁Cur	-11.4483
stan	-11.4483
▁Fourth	-11.4484
▁Rob	-11.4486
▁Map	-11.4488
▁Illinois	-11.4489
▁Guys	-11.449
▁shifted	-11.449
▁targeted	-11.4492
▁1945.	-11.4495
▁mechanisms	-11.4497
م	-11.4498
▁flavor	-11.4504
cell	-11.4507
▁chat	-11.4509
AM	-11.4511
▁Jun	-11.4511
▁collision	-11.4514
▁capability	-11.4515
▁bombardment	-11.4515
)}	-11.4515
▁forcing	-11.4515
▁Kind	-11.4515
▁AS	-11.4516
▁Ny	-11.4516
▁53	-11.4519
▁tech	-11.4519
mont	-11.4521
shu	-11.4524
New	-11.4526
▁platforms	-11.4527
▁thereby	-11.4529
▁resident	-11.4529
RA	-11.453
▁instruction	-11.4531
▁cord	-11.4531
ifi	-11.4532
eno	-11.4535
▁profession	-11.4535
▁Defence	-11.454
▁gmina	-11.454
▁baseball	-11.4541
▁asteroid	-11.4544
▁Bun	-11.4548
▁Ai	-11.4548
▁Member	-11.4548
▁ceased	-11.4553
▁consumed	-11.4554
omi	-11.4554
▁commercially	-11.4555
▁Jam	-11.4559
▁Greater	-11.4562
▁voices	-11.4564
▁Mississippi	-11.4565
▁tambon	-11.4565
▁memorial	-11.4565
▁simulation	-11.4565
▁patron	-11.4565
▁chaos	-11.4567
▁coward	-11.4569
aku	-11.4569
▁clay	-11.457
▁mentor	-11.4572
▁Sel	-11.4574
▁bug	-11.4575
▁pole	-11.4575
▁floating	-11.4579
▁Laos	-11.4583
▁extensively	-11.4584
▁ski	-11.4585
▁Poly	-11.4587
▁gases	-11.459
▁stops	-11.4591
▁autumn	-11.4591
▁completing	-11.4591
▁deposits	-11.4591
▁airplane	-11.4592
▁ages	-11.4592
▁hostile	-11.4592
▁gray	-11.4593
▁fence	-11.4594
▁directors	-11.4596
▁pulse	-11.4599
▁NATO	-11.4599
rist	-11.46
▁bury	-11.4601
▁Cambodian	-11.4603
atsu	-11.4605
gro	-11.4608
bil	-11.4609
▁jealous	-11.461
▁rap	-11.461
▁Huh	-11.4611
▁crystal	-11.4612
▁decreased	-11.4615
▁wherever	-11.4615
▁Metropolitan	-11.4617
▁measuring	-11.4617
▁Raymond	-11.4617
fra	-11.4617
▁maintaining	-11.4619
▁counties	-11.4619
▁weekly	-11.462
▁sometime	-11.4625
▁basement	-11.4625
▁chances	-11.4626
▁drives	-11.4626
after	-11.4626
▁demo	-11.4628
gent	-11.4629
▁Augustus	-11.463
▁barrier	-11.4631
▁upgraded	-11.4632
▁boxes	-11.4636
▁reveals	-11.4637
▁Nation	-11.4638
▁MA	-11.4638
sey	-11.4639
▁municipal	-11.4641
▁frog	-11.4643
▁Harold	-11.4645
▁Guardian	-11.4647
▁Shah	-11.4653
ao	-11.4654
uit	-11.4655
▁rec	-11.4655
▁descendants	-11.4656
ij	-11.4656
▁voyage	-11.4657
▁Solomon	-11.4657
hai	-11.4658
▁measurement	-11.466
▁besides	-11.4664
▁Tin	-11.4664
▁Need	-11.4664
▁emerging	-11.4669
▁Naples	-11.4669
▁atmospheric	-11.4669
▁integral	-11.4669
▁Qatar	-11.4669
▁surgeon	-11.4671
▁lonely	-11.4672
▁confident	-11.4672
away	-11.4675
hor	-11.4678
arch	-11.4679
▁gates	-11.4686
▁optical	-11.4686
CT	-11.4687
▁politically	-11.469
▁Wil	-11.4691
yer	-11.4692
▁Muhammad	-11.4694
▁creativity	-11.4694
▁Melbourne	-11.4695
▁jazz	-11.4695
▁Legend	-11.4695
▁inventory	-11.4699
Po	-11.4702
▁emotion	-11.4705
▁demonstration	-11.471
▁confess	-11.471
▁Might	-11.4718
▁speaks	-11.4719
hard	-11.472
Pro	-11.4721
▁Leyte	-11.4721
▁Oscar	-11.4721
owned	-11.4724
▁followers	-11.4735
▁desired	-11.4737
▁tiger	-11.4737
▁Production	-11.4737
burn	-11.4738
▁outfit	-11.4738
▁metric	-11.4739
chy	-11.474
▁regulation	-11.4745
▁uncertain	-11.4746
shin	-11.4746
▁sheet	-11.4746
-23	-11.4746
▁Cleopatra	-11.4747
▁typhoon	-11.4747
▁Whether	-11.4747
▁Aviation	-11.4747
▁settlers	-11.4748
▁Burma	-11.4749
▁releasing	-11.4752
py	-11.4753
▁Off	-11.4753
▁failing	-11.4755
▁negotiate	-11.4756
▁proceeded	-11.4758
▁threaten	-11.476
face	-11.4763
ters	-11.4766
▁documented	-11.4767
▁Tsu	-11.4769
▁Store	-11.4773
▁Atlanta	-11.4773
▁fraud	-11.4773
▁Dylan	-11.4773
▁Sang	-11.4776
▁procedures	-11.4776
▁CH	-11.4779
▁hitting	-11.4781
▁50,000	-11.4785
ax	-11.4785
▁Test	-11.4787
▁widow	-11.4788
02	-11.4791
asi	-11.4794
▁Tibet	-11.4796
▁Shō	-11.4796
▁continental	-11.4797
▁Especially	-11.4799
▁enforcement	-11.4799
lle	-11.48
▁imprisoned	-11.4801
▁elementary	-11.4802
▁inhabited	-11.4807
▁MiG	-11.4808
▁diplomat	-11.4809
about	-11.4811
night	-11.4811
▁muscles	-11.4811
▁knee	-11.4812
▁pronounced	-11.4813
–4	-11.4815
▁firms	-11.4817
▁Deep	-11.4819
page	-11.482
ivity	-11.482
▁doses	-11.4821
▁Leader	-11.4822
▁Salvador	-11.4825
▁alternate	-11.4826
▁Page	-11.4828
▁honored	-11.4829
▁embarked	-11.483
Th	-11.4841
▁rings	-11.4844
▁knight	-11.4844
▁desperate	-11.4845
▁tin	-11.4845
▁profound	-11.4845
▁yards	-11.4845
eastern	-11.4847
▁Said	-11.4849
▁odds	-11.485
▁excess	-11.4851
▁lunar	-11.4852
▁chasing	-11.4852
▁slavery	-11.4853
▁Actor	-11.4854
▁taxi	-11.4857
▁Close	-11.4859
hon	-11.4859
▁stationed	-11.486
▁handling	-11.4865
▁Warner	-11.4867
▁satellites	-11.4868
ground	-11.4869
oe	-11.487
under	-11.4873
▁Hiro	-11.4873
▁sweat	-11.4873
▁nomination	-11.4876
ute	-11.4877
▁Clinton	-11.4878
▁aggregate	-11.4878
▁possibilities	-11.4878
▁inflation	-11.4878
▁bride	-11.4879
▁Authority	-11.4879
▁minimal	-11.4879
▁specimens	-11.4879
▁daddy	-11.4881
where	-11.4882
▁Similarly	-11.4883
▁Mine	-11.4886
▁logo	-11.4886
aire	-11.4886
▁Micro	-11.4887
▁monsters	-11.489
self	-11.4891
FA	-11.4893
▁Alexandria	-11.4894
▁terror	-11.4896
▁operator	-11.4899
▁Wing	-11.4899
▁heating	-11.4902
EN	-11.4902
▁harbor	-11.4905
▁Regiment	-11.4905
▁Sarawak	-11.4905
gus	-11.4905
▁Titan	-11.4906
▁reconnaissance	-11.4907
▁Anglo	-11.4908
▁Wal	-11.4909
▁disorders	-11.491
▁Marcel	-11.491
▁diagnosed	-11.4911
▁Finnish	-11.4911
▁cruisers	-11.4911
▁Rosa	-11.4911
▁dimension	-11.4916
▁unlikely	-11.4916
▁alpha	-11.4917
cio	-11.4918
▁4,000	-11.492
▁Arabian	-11.4921
▁exploit	-11.4922
▁actively	-11.4924
▁tale	-11.4926
▁Dude	-11.4927
▁homeless	-11.4929
ashi	-11.4931
▁Anthony	-11.4931
▁default	-11.4931
▁economies	-11.4931
▁presidency	-11.4931
▁privacy	-11.4931
▁expelled	-11.4931
▁Gro	-11.4931
▁bulk	-11.4932
▁poster	-11.4934
▁Welsh	-11.4934
Da	-11.4939
▁Christians	-11.4947
–6	-11.4948
▁CE	-11.4953
▁Lou	-11.4956
3%	-11.4957
gia	-11.4959
▁rebel	-11.496
▁orbits	-11.4961
▁frontier	-11.4963
▁brush	-11.4964
largest	-11.4965
▁supports	-11.4966
▁equality	-11.4967
▁Ac	-11.497
▁Kang	-11.497
▁useless	-11.4971
▁ingredients	-11.4971
▁habit	-11.4974
▁steamed	-11.4975
▁DS	-11.4975
▁bands	-11.4977
▁30,000	-11.4977
▁mutual	-11.4978
young	-11.4979
▁Mongolia	-11.498
▁Ry	-11.4982
▁Voivodeship	-11.4985
▁anxiety	-11.4985
▁Papa	-11.4986
▁Palm	-11.4992
woo	-11.4993
▁betrayed	-11.4995
▁organize	-11.5
▁modeling	-11.5001
▁temples	-11.5004
▁unexpected	-11.5005
▁Baker	-11.5005
▁transported	-11.5006
org	-11.5006
▁rating	-11.5007
▁clue	-11.5007
▁57	-11.5012
▁Sergeant	-11.5012
▁insist	-11.5012
TA	-11.5012
▁Kin	-11.5016
▁propose	-11.5018
UN	-11.502
▁1908	-11.502
▁holes	-11.5021
adi	-11.5028
▁hopes	-11.5028
▁Croatia	-11.5033
▁glory	-11.5038
▁Kazakhstan	-11.5038
▁batteries	-11.5039
▁Fl	-11.5039
▁spotted	-11.5041
▁1909	-11.5042
▁Brothers	-11.5044
ides	-11.5048
▁enzymes	-11.5049
Ch	-11.5049
▁receives	-11.5051
▁Luis	-11.5056
▁mounted	-11.506
▁bat	-11.5065
fin	-11.5068
▁writes	-11.5068
▁organised	-11.507
zan	-11.5074
▁Bas	-11.5074
▁resolve	-11.5076
▁stones	-11.5076
▁scrap	-11.5079
▁toast	-11.5079
emia	-11.5082
▁pile	-11.5084
▁manufacturers	-11.5086
▁wounds	-11.5087
▁colleague	-11.509
▁iPhone	-11.5092
▁libraries	-11.5092
▁sophisticated	-11.5092
▁absent	-11.5092
▁Petersburg	-11.5093
Yes	-11.5094
▁jury	-11.5094
▁extending	-11.5094
▁grandson	-11.5095
▁incorporate	-11.5095
When	-11.5101
▁1906	-11.5101
▁faint	-11.5101
▁dialects	-11.5104
7%	-11.5106
▁Hebrew	-11.5108
▁Leon	-11.5111
▁surprising	-11.5113
▁fusion	-11.5115
vir	-11.5116
▁troop	-11.5116
heim	-11.5119
hole	-11.5119
▁Wednesday	-11.512
▁elaborate	-11.512
▁guidance	-11.512
▁qualification	-11.512
▁steady	-11.512
▁unstable	-11.512
▁mortality	-11.5121
▁alright	-11.5121
▁dropping	-11.5121
▁phenomena	-11.5124
phe	-11.5126
language	-11.5127
▁cha	-11.5128
nis	-11.513
aro	-11.5133
▁Mir	-11.5137
▁hypo	-11.5141
▁decides	-11.5144
▁specimen	-11.5146
▁Myanmar	-11.5147
▁intermediate	-11.5147
▁pursuit	-11.5147
▁vacuum	-11.5147
▁Toronto	-11.5147
▁Wilhelm	-11.5147
▁achievement	-11.5148
▁OF	-11.5148
▁1907	-11.515
▁connects	-11.5151
iff	-11.5151
▁Wind	-11.5152
▁Services	-11.5152
▁Kate	-11.5157
▁Drug	-11.5158
PD	-11.5159
nor	-11.5161
just	-11.5163
▁Than	-11.5164
▁bust	-11.5165
▁quest	-11.5168
bul	-11.5168
▁proceed	-11.5171
▁Action	-11.5173
▁philosopher	-11.5173
▁hormone	-11.5173
▁Madagascar	-11.5174
▁Explorer	-11.5174
▁Eddie	-11.5174
▁Sil	-11.5177
▁drag	-11.5177
▁deposit	-11.5179
▁77	-11.5179
Com	-11.5181
▁synthetic	-11.5182
▁Others	-11.5183
▁Harrison	-11.5184
▁badge	-11.5184
AD	-11.5185
.5%	-11.5189
▁strain	-11.519
▁Zu	-11.5192
▁honestly	-11.5193
wind	-11.5198
▁raids	-11.5198
▁boost	-11.5199
▁banking	-11.52
▁yourselves	-11.5201
▁ministry	-11.5201
▁scout	-11.5201
▁Swift	-11.5201
▁foster	-11.5202
▁Fish	-11.5203
▁convicted	-11.5206
▁Qing	-11.5208
▁Bus	-11.521
mbi	-11.521
member	-11.5211
▁Thor	-11.5213
then	-11.5213
▁boot	-11.5213
▁practically	-11.5214
▁bitter	-11.5215
▁Bulgarian	-11.5215
▁linguistic	-11.5215
▁screwed	-11.5218
▁Gabriel	-11.5221
▁Stra	-11.5224
▁Gary	-11.5225
▁sovereign	-11.5228
3,000	-11.5228
▁downstairs	-11.5229
▁suspicious	-11.5229
▁humor	-11.5232
▁enabled	-11.5233
▁relie	-11.5233
▁spots	-11.5235
▁hated	-11.5235
▁worthy	-11.5235
▁prints	-11.5239
▁exports	-11.5241
▁butter	-11.5242
▁Emma	-11.5243
pos	-11.5247
feld	-11.5249
▁Lion	-11.5249
SL	-11.5251
▁permit	-11.5252
▁85	-11.5254
▁pills	-11.5256
▁examination	-11.5256
▁tattoo	-11.5256
▁Cabinet	-11.5256
▁Seattle	-11.5256
▁thief	-11.5256
▁nightmare	-11.5256
▁restoration	-11.5257
▁southeastern	-11.5258
▁Zero	-11.5261
▁Side	-11.5261
▁Sean	-11.5261
▁cu	-11.5263
▁panic	-11.5265
▁farms	-11.5269
▁lap	-11.5269
left	-11.5274
▁donated	-11.5275
▁Yuan	-11.5275
▁Len	-11.5275
▁dirt	-11.5277
▁Zimbabwe	-11.5281
▁availability	-11.5284
▁Madonna	-11.5284
▁dramatically	-11.5285
had	-11.5285
stat	-11.5286
–1	-11.5291
▁Doc	-11.5295
tana	-11.5296
▁viral	-11.5297
▁fears	-11.5298
▁suppress	-11.5299
wen	-11.5304
▁ruins	-11.5307
ically	-11.5307
▁Bolivia	-11.531
▁companion	-11.5311
▁binary	-11.5313
test	-11.5315
▁Maha	-11.5318
name	-11.5322
▁outstanding	-11.5322
▁races	-11.5323
▁reject	-11.5323
▁insisted	-11.5323
▁ministers	-11.5324
▁Die	-11.533
▁flown	-11.5332
▁Room	-11.5338
▁Kuwait	-11.5339
▁gravitational	-11.5339
▁nuts	-11.5339
▁silly	-11.534
ito	-11.534
▁copyright	-11.534
▁Cas	-11.534
▁Rh	-11.534
▁keyboard	-11.5341
ن	-11.5341
▁evolutionary	-11.5341
▁1904	-11.5343
▁Seem	-11.5344
IA	-11.5345
▁runway	-11.5346
boy	-11.5347
▁Brand	-11.5347
▁evaluation	-11.5347
ø	-11.5347
▁Kam	-11.5348
▁concentrate	-11.535
▁monarchy	-11.535
▁Hills	-11.5353
▁Iraqi	-11.5354
▁Gate	-11.5354
lai	-11.5362
amide	-11.5365
▁Reg	-11.5366
▁lieutenant	-11.5367
▁sovereignty	-11.5368
▁shapes	-11.5368
▁gifts	-11.5368
▁installation	-11.5372
▁compromise	-11.5378
sson	-11.5378
iest	-11.5382
▁Bear	-11.5386
▁1901	-11.5386
▁freely	-11.5388
▁tablet	-11.5393
▁Doug	-11.5393
▁challenging	-11.5395
▁skeleton	-11.5395
▁blew	-11.5395
▁considerably	-11.5396
▁shark	-11.5399
▁underwater	-11.5402
▁nearest	-11.5406
itu	-11.541
action	-11.5414
▁1999.	-11.5418
yō	-11.5418
▁magnet	-11.5421
▁crush	-11.5422
▁legitimate	-11.5423
▁tragedy	-11.5423
▁Tokugawa	-11.5423
las	-11.5423
▁loving	-11.5423
▁horizontal	-11.5424
pped	-11.5424
▁respective	-11.5426
▁reflection	-11.5428
hop	-11.5429
▁3-	-11.5432
▁siblings	-11.5435
rite	-11.5439
enberg	-11.5443
tron	-11.5448
▁Allies	-11.5449
iel	-11.5449
▁choosing	-11.5451
▁stairs	-11.5451
▁Caroline	-11.5451
ony	-11.5452
▁101	-11.5453
▁pose	-11.5456
OH	-11.546
▁acquire	-11.5462
▁businessman	-11.5464
▁Kur	-11.5465
▁Guam	-11.5468
▁Stan	-11.5468
▁palm	-11.547
Let	-11.5474
▁broadcasting	-11.5478
▁Sheriff	-11.5479
▁motivation	-11.5479
▁removal	-11.5479
▁cooperate	-11.5479
▁Empress	-11.5479
▁leap	-11.5479
▁predominantly	-11.5481
quin	-11.5486
▁intent	-11.5486
▁span	-11.5492
Who	-11.55
▁publications	-11.5501
llo	-11.5502
maker	-11.5503
▁Cardinal	-11.5507
▁Tae	-11.5508
▁IN	-11.5512
▁dismissed	-11.5513
▁varying	-11.5515
▁sh	-11.5515
▁attraction	-11.5515
MP	-11.5517
▁Rat	-11.5518
▁Save	-11.5519
▁Judge	-11.5522
▁imagined	-11.5524
▁upgrade	-11.5529
lived	-11.5531
▁Works	-11.5532
▁directions	-11.5534
▁believing	-11.5535
▁racing	-11.5535
▁Mega	-11.5535
▁rubber	-11.5536
▁socialist	-11.5538
specific	-11.5545
▁yard	-11.5546
▁Lev	-11.555
▁arrives	-11.5552
▁Lao	-11.5553
▁Scout	-11.5555
▁Serbia	-11.5559
kawa	-11.5561
▁import	-11.5562
▁bachelor	-11.5563
▁Spirit	-11.5564
▁Pay	-11.5568
▁tele	-11.5571
▁elephant	-11.5572
▁monthly	-11.5572
▁sessions	-11.5572
PDF	-11.5573
League	-11.5573
speed	-11.5575
▁Boys	-11.5576
▁bags	-11.5576
▁commented	-11.5577
▁ro	-11.5578
▁rhythm	-11.5583
ili	-11.5584
▁Marc	-11.5585
▁dense	-11.5588
▁crashed	-11.5591
▁Phoebe	-11.5592
▁cemetery	-11.5592
▁cognitive	-11.5592
▁immigration	-11.5592
▁Borneo	-11.5592
▁crater	-11.5599
▁Spe	-11.56
▁sweep	-11.5602
▁plague	-11.5603
was	-11.5609
▁Face	-11.5609
▁shaped	-11.5611
▁concentrations	-11.5611
oper	-11.5612
▁unsuccessful	-11.5613
▁customs	-11.5615
–15	-11.5615
▁Whoa	-11.5617
▁antibiotics	-11.5617
▁Ptolemy	-11.562
▁indicating	-11.562
▁Species	-11.562
▁equilibrium	-11.5622
▁Fred	-11.5626
▁Sc	-11.5629
ñ	-11.5629
second	-11.563
▁volunteers	-11.5631
▁SO	-11.5634
▁Santo	-11.5634
▁Send	-11.5634
▁Rus	-11.5635
▁opponents	-11.564
▁counts	-11.5641
▁beside	-11.5642
▁LA	-11.5644
▁Ran	-11.5646
▁Avenue	-11.5649
▁Benjamin	-11.5649
▁Pretty	-11.5649
▁Observatory	-11.5649
▁hectares	-11.5649
▁handled	-11.5649
▁traitor	-11.565
▁va	-11.5655
▁Guide	-11.5657
▁stepped	-11.5657
▁golf	-11.5659
▁reactor	-11.5662
▁invested	-11.5663
bot	-11.5663
▁spite	-11.5664
▁Move	-11.5665
▁Him	-11.5666
▁Mul	-11.5669
Si	-11.567
▁psycho	-11.5675
4.	-11.5676
▁MO	-11.5677
▁Isaac	-11.5678
▁factories	-11.568
fil	-11.5682
IT	-11.5683
▁travels	-11.5683
▁strictly	-11.5688
DF	-11.5694
press	-11.5696
én	-11.5697
▁profits	-11.5699
▁ok	-11.5699
vie	-11.5701
▁reporter	-11.5704
▁Dun	-11.5706
▁mainstream	-11.5707
shot	-11.5707
▁Ghost	-11.5707
▁northeastern	-11.5708
vel	-11.5709
lot	-11.571
▁pharmaceutical	-11.571
ush	-11.5711
▁Nine	-11.5713
▁enhance	-11.5714
generation	-11.5715
د	-11.5715
▁Mur	-11.5717
▁shoe	-11.5717
▁continuously	-11.5719
▁cab	-11.5719
▁Artist	-11.572
▁Hero	-11.5723
uka	-11.5726
sum	-11.5726
▁Mus	-11.5727
▁Wii	-11.573
yp	-11.5731
grad	-11.5732
▁forth	-11.5732
any	-11.5734
▁academy	-11.5735
▁archaeological	-11.5735
▁computing	-11.5735
▁configuration	-11.5735
▁supplied	-11.5735
▁underwent	-11.5735
▁silk	-11.5735
▁Manuel	-11.5736
lian	-11.5736
▁Geneva	-11.5737
▁Wright	-11.5737
▁Limited	-11.5738
▁Xi	-11.5741
▁conducting	-11.5743
▁AIDS	-11.5743
tai	-11.5743
▁1997.	-11.5743
ico	-11.5745
▁altered	-11.5746
▁tent	-11.5746
▁mathematician	-11.5747
▁hostage	-11.5751
▁Jeff	-11.5754
▁fatal	-11.5754
gna	-11.5755
▁reasonable	-11.5756
▁Pictures	-11.5759
▁decent	-11.576
▁geographical	-11.576
▁MI	-11.5762
▁gentle	-11.5762
▁spirits	-11.5762
ę	-11.5764
▁Financial	-11.5764
▁evacuation	-11.5764
▁gesture	-11.5764
▁uncomfortable	-11.5764
▁Janeiro	-11.5764
▁wives	-11.5764
▁Russell	-11.5764
▁poisoning	-11.5766
▁latitude	-11.5772
▁witnesses	-11.5772
▁80%	-11.5773
owski	-11.5774
nos	-11.5774
Hey	-11.5774
▁gardens	-11.5778
EA	-11.578
▁Mau	-11.578
▁earning	-11.5783
";	-11.5783
front	-11.5786
▁criteria	-11.5793
▁Actress	-11.5793
▁recipient	-11.5793
▁Delhi	-11.5793
path	-11.5796
▁sciences	-11.5797
▁advised	-11.5806
▁Indians	-11.5807
▁Shall	-11.5807
▁Album	-11.5807
odo	-11.5808
▁ne	-11.5809
lies	-11.581
▁algorithms	-11.5813
ographic	-11.5814
▁Lithuania	-11.5815
sil	-11.5817
▁prayer	-11.5817
▁acute	-11.5821
▁Pokémon	-11.5822
▁generous	-11.5822
▁goddess	-11.5822
▁transmitted	-11.5822
▁TF	-11.5823
▁wage	-11.5828
hiro	-11.5833
▁expense	-11.5836
▁sculpture	-11.5836
ston	-11.5837
RS	-11.5838
▁Blu	-11.5839
▁surely	-11.584
▁arguments	-11.5848
▁malaria	-11.5848
▁Usually	-11.5851
▁Believe	-11.5851
▁varied	-11.5851
▁aviation	-11.5851
▁Grammy	-11.5851
▁Julian	-11.5854
ike	-11.5856
▁Carey	-11.5858
▁Neo	-11.5861
▁imposed	-11.5862
▁op	-11.5866
▁scope	-11.5867
tone	-11.5869
500	-11.5872
lly	-11.5873
▁concerts	-11.588
▁kernel	-11.588
▁breakthrough	-11.5881
▁resignation	-11.5882
▁Mak	-11.5886
Go	-11.5887
oke	-11.5896
▁physicist	-11.5896
4%	-11.5897
▁Az	-11.5897
EL	-11.5898
▁expectations	-11.59
▁permanently	-11.59
rri	-11.5901
▁alphabet	-11.5901
▁whil	-11.5902
▁Edo	-11.5905
▁auction	-11.5906
position	-11.5907
mos	-11.5909
▁cruel	-11.591
▁absorb	-11.591
▁abundant	-11.591
▁placing	-11.591
▁entities	-11.591
▁viewers	-11.591
▁Laboratory	-11.591
▁ninth	-11.591
▁diagram	-11.591
▁Private	-11.591
▁motive	-11.591
▁wagon	-11.591
▁nucleus	-11.5911
▁listened	-11.5911
▁reconstruction	-11.5911
▁bombers	-11.5914
plo	-11.5917
▁Luc	-11.5918
▁pH	-11.592
▁weigh	-11.5921
▁Gong	-11.5922
vid	-11.5925
▁substances	-11.5926
▁ecosystem	-11.5926
▁developer	-11.5928
seat	-11.5929
core	-11.5931
rine	-11.5933
person	-11.5933
boat	-11.5938
▁fe	-11.5939
▁Queensland	-11.594
▁tooth	-11.5942
▁faction	-11.5945
▁protective	-11.5946
▁sustained	-11.5948
▁logical	-11.595
▁pace	-11.595
piece	-11.5952
woman	-11.5953
▁loaded	-11.5957
eon	-11.5959
▁Prussia	-11.5963
ologists	-11.5963
▁bills	-11.5963
▁criminals	-11.5965
▁interfere	-11.5969
▁Nelson	-11.5969
▁Tennessee	-11.5969
▁deemed	-11.5969
▁adverse	-11.5969
▁McC	-11.5969
▁combine	-11.597
▁lawyers	-11.5971
▁63	-11.5973
▁Kelly	-11.5973
▁plug	-11.5976
imi	-11.5979
▁Happy	-11.598
uta	-11.5982
▁Examples	-11.5982
▁tutor	-11.5984
▁technically	-11.5988
cing	-11.5998
▁Aaron	-11.5998
▁steep	-11.5998
6,000	-11.5999
▁citizenship	-11.5999
▁lighting	-11.6001
▁deny	-11.6002
DE	-11.6003
▁Jake	-11.6006
▁populated	-11.6008
▁Independent	-11.6008
▁outdoor	-11.6009
▁trainer	-11.6012
▁ch	-11.6013
▁collecting	-11.6014
▁ME	-11.6018
▁Strait	-11.6018
▁Lily	-11.602
▁Eun	-11.602
▁cheer	-11.6027
▁Finance	-11.6028
▁respiratory	-11.6028
▁Stein	-11.6031
▁Round	-11.6031
▁unfortunately	-11.6032
▁bold	-11.6033
▁lasting	-11.6034
tas	-11.6035
▁volunteer	-11.6036
▁Liga	-11.6037
ete	-11.6037
▁Hum	-11.6039
▁Malta	-11.604
▁challenged	-11.6041
sei	-11.6042
▁2001.	-11.6042
▁apps	-11.6044
ify	-11.6044
{	-11.6045
▁drain	-11.6046
▁alter	-11.6046
▁hop	-11.6048
IF	-11.6049
▁Yard	-11.6051
inter	-11.6051
▁ward	-11.6054
▁array	-11.6058
ello	-11.6058
lee	-11.6058
▁excessive	-11.6059
▁90%	-11.6059
▁disappointed	-11.6061
▁Shut	-11.6061
▁1880	-11.6062
cc	-11.6062
▁prevented	-11.6063
lé	-11.6064
▁Direct	-11.6066
▁Range	-11.6068
▁hunter	-11.6069
▁Lam	-11.6069
ér	-11.607
ander	-11.607
▁variants	-11.607
Wa	-11.6073
▁Sit	-11.6074
–5	-11.6079
▁tends	-11.608
▁macro	-11.6084
▁ammunition	-11.6088
▁vitamin	-11.6088
▁welfare	-11.6088
▁facial	-11.6088
▁wildlife	-11.6088
▁1903	-11.6091
atory	-11.6092
▁Express	-11.6092
ega	-11.6096
▁toys	-11.6098
ime	-11.6099
▁Kill	-11.6102
founded	-11.6106
▁collections	-11.6109
ces	-11.611
▁myth	-11.6114
▁publisher	-11.6114
▁cal	-11.6114
hwa	-11.6115
▁surrendered	-11.6115
▁garage	-11.6118
▁petition	-11.6118
▁Edition	-11.6118
▁desktop	-11.6118
▁wireless	-11.6119
▁Intelligence	-11.612
▁erected	-11.6122
▁cabin	-11.6123
rov	-11.6123
Sha	-11.6124
▁receptors	-11.6129
▁arrange	-11.613
▁110	-11.613
TO	-11.6132
nov	-11.6133
▁displays	-11.6139
▁Bin	-11.6139
▁AFC	-11.614
▁poorly	-11.6142
▁Julia	-11.6146
▁Bag	-11.6147
▁prospect	-11.6147
▁€	-11.6147
▁Bahrain	-11.6148
▁Beginning	-11.6148
▁laptop	-11.6148
igo	-11.6149
▁ti	-11.6157
▁Systems	-11.6157
▁tune	-11.6158
high	-11.6158
▁Soul	-11.6158
Greek	-11.6161
▁Qa	-11.6162
▁Venezuelan	-11.6163
▁α	-11.6163
▁qualifying	-11.6164
▁Pole	-11.6167
▁Nah	-11.617
print	-11.6176
▁Pet	-11.6177
▁Por	-11.6177
▁Cyprus	-11.6178
▁protagonist	-11.6178
▁warehouse	-11.6178
▁dialogue	-11.6178
▁entity	-11.6178
▁specified	-11.6178
▁sweetheart	-11.6178
▁Nguyen	-11.6178
els	-11.6178
▁favourite	-11.618
▁horizon	-11.618
▁plates	-11.6181
▁mountainous	-11.6181
fall	-11.6182
▁threatening	-11.6184
▁battleships	-11.6185
▁Fighter	-11.6187
;/	-11.6189
▁59	-11.6191
hin	-11.6195
4,000	-11.6196
▁Kane	-11.62
▁Mil	-11.6203
▁Tunisia	-11.6203
sar	-11.6203
▁Pink	-11.6203
▁comments	-11.6205
▁activated	-11.6206
▁battleship	-11.6206
▁garrison	-11.6208
▁promising	-11.6208
▁convey	-11.6208
▁spray	-11.6209
▁96	-11.6211
▁gaining	-11.6213
gri	-11.6215
▁1998.	-11.6219
▁leaf	-11.6221
▁66	-11.6224
▁den	-11.6228
▁designers	-11.6229
▁premiere	-11.6231
fan	-11.6232
▁pump	-11.6232
dian	-11.6233
▁slight	-11.6233
▁Fantasy	-11.6238
▁Aki	-11.6239
▁Machine	-11.6239
▁safer	-11.624
▁shallow	-11.6241
▁volcano	-11.6245
▁commenced	-11.6245
▁similarly	-11.6245
nne	-11.625
▁wished	-11.625
▁Kom	-11.6251
▁20%	-11.6251
▁Hank	-11.6252
▁Training	-11.6254
▁sha	-11.6254
▁Prussian	-11.6254
ν	-11.6259
▁metaphor	-11.626
▁Mao	-11.626
▁topics	-11.6261
▁cyclone	-11.6263
El	-11.6265
▁Dor	-11.6265
▁pipe	-11.6267
rup	-11.6268
▁Gentlemen	-11.6269
▁Nixon	-11.6269
▁Palestine	-11.6269
▁anonymous	-11.6269
▁fifty	-11.6269
▁legislative	-11.6269
▁flank	-11.6269
▁sheriff	-11.6269
▁scandal	-11.6269
▁unemployment	-11.6269
▁Liberation	-11.6269
uf	-11.6269
▁exceed	-11.627
▁discount	-11.627
▁Bernard	-11.627
▁Nancy	-11.627
▁subway	-11.6272
▁Hawaiian	-11.6273
▁laughing	-11.6275
▁mice	-11.6277
trans	-11.6279
▁Gru	-11.6279
rad	-11.628
▁liar	-11.628
%)	-11.6281
▁fruits	-11.6281
▁2:	-11.6284
nge	-11.6284
▁Math	-11.6287
▁ignored	-11.6291
▁Bru	-11.6291
▁Tree	-11.6292
CP	-11.6293
▁Nico	-11.6298
They	-11.6298
▁Given	-11.6298
bur	-11.6299
▁180	-11.6299
▁kidnapped	-11.6299
▁Cos	-11.6299
▁integer	-11.6299
▁cannon	-11.63
▁arena	-11.6301
card	-11.6304
▁Wo	-11.6307
▁allied	-11.6316
▁institute	-11.6324
▁Mach	-11.6329
▁Industry	-11.633
▁bicycle	-11.633
▁vault	-11.633
▁disturbance	-11.633
lau	-11.633
▁hosting	-11.633
▁deployment	-11.6331
▁Naga	-11.6331
▁departments	-11.6334
▁1860	-11.6335
RT	-11.6335
▁metals	-11.6336
▁Mali	-11.6337
▁Fat	-11.6341
▁cy	-11.6344
▁finest	-11.6344
western	-11.6345
RP	-11.6349
lat	-11.635
▁Ming	-11.6351
▁Sino	-11.6355
▁arrow	-11.6357
▁tub	-11.6359
▁Swa	-11.636
▁isolation	-11.636
▁Osaka	-11.6361
▁pl	-11.6362
▁harvest	-11.6366
▁hung	-11.6367
PO	-11.6367
▁outcomes	-11.6368
▁repeatedly	-11.6371
â	-11.6373
▁embrace	-11.6374
▁Grey	-11.6377
▁flies	-11.6378
▁Harris	-11.6382
▁sn	-11.6384
gr	-11.6385
▁corporations	-11.6386
▁tu	-11.6387
▁designing	-11.6389
▁chemist	-11.639
▁pharaoh	-11.6391
▁Brooklyn	-11.6391
▁Wouldn	-11.6391
300	-11.6393
▁Peruvian	-11.6394
▁recruited	-11.64
PL	-11.6408
▁1987,	-11.6412
▁correctly	-11.6415
▁findings	-11.6417
▁addressed	-11.6417
▁pope	-11.6417
▁spa	-11.642
–16	-11.6421
▁accuracy	-11.6422
▁fascinating	-11.6422
▁feminist	-11.6422
▁referendum	-11.6422
▁Beatles	-11.6422
▁Linda	-11.6423
▁62	-11.6424
tō	-11.6425
▁Coach	-11.6425
▁2.5	-11.6425
▁1902	-11.6427
▁Ay	-11.6428
▁MS	-11.6429
▁cloth	-11.643
▁Roll	-11.643
▁halfway	-11.643
▁loser	-11.6433
▁defender	-11.6435
city	-11.6435
▁deer	-11.6435
Di	-11.644
▁planetary	-11.6443
▁helpful	-11.6443
thi	-11.6449
▁TB	-11.6451
▁lesser	-11.6451
Bu	-11.6451
▁accommodate	-11.6453
▁graduation	-11.6453
▁requiring	-11.6453
▁pizza	-11.6453
▁priests	-11.6455
▁statements	-11.6458
▁Masa	-11.6459
ło	-11.6459
▁dozens	-11.6461
▁elderly	-11.6461
▁Online	-11.6462
▁Cast	-11.6471
–200	-11.6472
▁consume	-11.6474
▁rip	-11.6474
▁cor	-11.6474
One	-11.6475
▁scholar	-11.6475
▁ser	-11.6478
tier	-11.6478
▁Sto	-11.648
▁practiced	-11.6481
▁transaction	-11.6483
▁calcium	-11.6484
▁dignity	-11.6484
▁thrust	-11.6484
▁meantime	-11.6487
▁Marvel	-11.6487
▁accidentally	-11.649
IM	-11.6491
▁collaborated	-11.6492
▁Boss	-11.6494
ancy	-11.6496
▁blend	-11.6497
▁affecting	-11.6508
▁Tanzania	-11.651
▁striking	-11.6515
▁wolves	-11.6515
▁Labour	-11.6516
▁abortion	-11.6516
▁Self	-11.6517
▁Bobby	-11.6517
▁scattered	-11.6517
pat	-11.6518
▁ID	-11.6518
zz	-11.6518
▁enrolled	-11.6518
▁tonnes	-11.652
▁PS	-11.652
▁Hay	-11.6522
▁menu	-11.6522
▁cancel	-11.6525
▁arch	-11.6526
▁Tur	-11.6527
▁evacuated	-11.6528
▁evolve	-11.6529
–17	-11.6532
▁HE	-11.6532
PC	-11.6533
▁vaccines	-11.6537
▁sailing	-11.6538
ink	-11.6539
nation	-11.6539
osaurus	-11.6541
▁tactical	-11.6543
▁Belarus	-11.6544
▁Cameroon	-11.6545
▁Bachelor	-11.6546
▁Cathedral	-11.6546
▁Faculty	-11.6546
▁Jerry	-11.6548
▁Potter	-11.6548
▁yo	-11.6551
▁mon	-11.6552
▁prop	-11.6553
▁Steel	-11.6554
▁mechanics	-11.6555
▁errors	-11.6556
dine	-11.6557
SP	-11.6557
▁accomplish	-11.6562
▁productive	-11.6563
▁Shaw	-11.6563
▁cuts	-11.6568
wide	-11.6569
▁homo	-11.6573
▁Uruguay	-11.6575
▁Campaign	-11.6578
▁midfielder	-11.6578
▁philosophical	-11.6578
▁railroad	-11.6578
▁cotton	-11.6578
ches	-11.658
lect	-11.6581
▁tissues	-11.6581
▁Full	-11.6581
eni	-11.6582
▁Ker	-11.6583
▁beard	-11.6583
▁streams	-11.6584
▁topped	-11.6589
▁1992.	-11.659
hee	-11.659
▁68	-11.6592
▁betray	-11.6595
▁40,000	-11.6595
▁True	-11.6602
▁Albania	-11.6602
▁bred	-11.6604
▁rats	-11.6606
▁Abraham	-11.6609
▁Paraguay	-11.6609
▁automobile	-11.6609
▁victories	-11.6609
▁salary	-11.661
view	-11.6615
iga	-11.6615
Armed	-11.6616
IP	-11.6617
▁hunger	-11.6617
▁interpreted	-11.6618
fire	-11.6618
▁Bee	-11.6619
DA	-11.6622
▁Wan	-11.6622
▁blade	-11.6625
▁Reich	-11.6627
illo	-11.6628
▁organisations	-11.6631
▁Mario	-11.6632
▁mega	-11.6635
▁bullets	-11.6635
▁Tele	-11.6637
▁managers	-11.6637
icus	-11.6638
power	-11.6638
▁confession	-11.6639
May	-11.664
▁equals	-11.664
▁qualities	-11.6641
▁Orleans	-11.6641
▁lawsuit	-11.6641
▁oath	-11.6641
▁Manager	-11.6642
▁ally	-11.6642
▁Theater	-11.6642
▁Search	-11.6642
CE	-11.6642
▁1870	-11.6645
▁tension	-11.6646
▁artwork	-11.6647
▁Highness	-11.6648
▁capita	-11.665
▁bind	-11.665
rod	-11.6654
▁cease	-11.6655
hei	-11.6656
▁Male	-11.6658
▁Malaysian	-11.6661
▁variables	-11.6664
▁screaming	-11.6664
▁sinking	-11.6664
▁PA	-11.6669
aged	-11.667
▁defended	-11.667
aving	-11.6672
oku	-11.6672
▁Software	-11.6672
▁juice	-11.6673
▁Barbara	-11.6673
ement	-11.6673
▁chef	-11.6673
▁amendment	-11.6674
▁horn	-11.6675
wn	-11.6676
▁Revolutionary	-11.6676
▁cart	-11.6677
key	-11.6681
▁contestants	-11.6681
being	-11.6682
▁Friends	-11.6684
▁solely	-11.6685
▁facto	-11.6688
▁Chad	-11.6689
achi	-11.6697
▁witnessed	-11.6701
▁arguing	-11.6704
▁identification	-11.6704
▁luxury	-11.6704
▁applies	-11.6704
▁Future	-11.6705
only	-11.6707
uv	-11.6708
▁weakened	-11.6711
how	-11.6713
▁Adams	-11.6713
▁objectives	-11.6717
atic	-11.6717
▁Neu	-11.6719
▁whore	-11.6721
▁Ap	-11.6721
▁Pete	-11.6723
rt	-11.6723
▁360	-11.6725
▁Lau	-11.6727
▁sponsored	-11.6727
▁explaining	-11.6727
Ki	-11.6728
▁Card	-11.6728
poli	-11.6732
▁Pho	-11.6732
▁blown	-11.6733
▁comprehensive	-11.6736
▁Century	-11.6736
▁gallery	-11.6736
▁unified	-11.674
▁astronomy	-11.674
vu	-11.6741
▁emission	-11.6741
▁costume	-11.6741
▁coordinates	-11.6742
ON	-11.6744
▁someday	-11.6745
▁140	-11.6745
▁Sz	-11.6745
▁cheaper	-11.6747
oriented	-11.6748
▁Lie	-11.6751
▁Cut	-11.6752
gli	-11.6755
text	-11.6758
▁Siberia	-11.6763
▁Grande	-11.6764
▁monastery	-11.6768
▁propaganda	-11.6768
▁forbidden	-11.6768
▁Gustav	-11.6768
▁Duchy	-11.6768
▁healthcare	-11.6769
-0	-11.677
▁130	-11.6771
▁satisfied	-11.6772
▁corporation	-11.6773
▁diamond	-11.6773
iness	-11.6774
▁fog	-11.6776
▁creator	-11.6778
▁commerce	-11.678
▁Chase	-11.6782
▁ver	-11.6783
▁hearts	-11.6788
▁Sid	-11.6789
▁Mei	-11.679
▁secretly	-11.6794
▁voters	-11.6794
▁Carol	-11.6795
bla	-11.6796
▁Nevada	-11.68
▁tallest	-11.6801
▁Liberal	-11.6803
▁manual	-11.6804
▁contracts	-11.6806
▁pale	-11.681
▁1996.	-11.6811
▁bend	-11.6811
▁Kro	-11.6814
▁Brit	-11.6819
▁rumors	-11.6821
▁healing	-11.6825
▁invade	-11.6827
▁Helen	-11.683
ograph	-11.6831
▁journalists	-11.6832
▁Minnesota	-11.6832
▁theatrical	-11.6832
▁Kansas	-11.6832
▁Index	-11.6832
▁Neither	-11.6833
▁Justin	-11.6833
▁Tyler	-11.6833
▁Money	-11.6834
▁aims	-11.6834
▁Flag	-11.6835
▁abolished	-11.6837
▁awake	-11.6838
▁nominations	-11.6841
▁advances	-11.6843
▁submit	-11.6844
tim	-11.6844
▁eh	-11.6848
RO	-11.6848
mission	-11.6849
▁Commissioner	-11.6851
▁namely	-11.6854
▁Py	-11.6855
▁nights	-11.6855
▁thirteen	-11.6857
cca	-11.6857
▁staring	-11.6859
▁moth	-11.686
▁indication	-11.686
asa	-11.6863
▁colours	-11.6863
▁integrity	-11.6864
▁timing	-11.6864
▁goalkeeper	-11.6865
▁generic	-11.6865
nna	-11.6866
▁Lead	-11.6873
▁squadron	-11.6873
On	-11.6873
cies	-11.6876
▁whale	-11.6879
▁tan	-11.6881
Ne	-11.6883
para	-11.6884
uga	-11.6885
PR	-11.6885
▁ions	-11.6885
▁feared	-11.6886
▁Haven	-11.6887
▁AT	-11.6889
▁recalled	-11.689
dus	-11.689
▁Libya	-11.6891
▁sponsor	-11.6892
▁Pont	-11.6893
▁Hang	-11.6895
▁interviews	-11.6895
▁NA	-11.6895
▁Ou	-11.6896
▁Fifth	-11.6897
▁armament	-11.6897
▁Steven	-11.6899
▁offshore	-11.69
▁Whoever	-11.69
▁gameplay	-11.69
▁Box	-11.6901
▁Made	-11.6903
idi	-11.6905
▁prohibited	-11.6905
▁Vin	-11.6911
ić	-11.6914
▁ko	-11.6915
▁confront	-11.6916
▁deserves	-11.6916
▁deals	-11.6917
phone	-11.6919
ophy	-11.6921
▁Vel	-11.6922
▁pm	-11.6923
▁shooter	-11.6923
▁sealed	-11.6924
▁investigated	-11.6924
▁critic	-11.6925
▁fabric	-11.6927
▁warriors	-11.6929
▁consensus	-11.6929
▁eligible	-11.6929
▁primitive	-11.6929
▁Vatican	-11.6929
▁Brigade	-11.6929
▁accordance	-11.6929
▁Sei	-11.693
▁mythology	-11.693
▁romance	-11.693
▁Title	-11.693
▁removing	-11.693
▁fires	-11.693
▁freeze	-11.6931
▁farmer	-11.6937
▁Est	-11.6937
zza	-11.6939
▁rot	-11.6941
▁Fear	-11.6942
▁illustrated	-11.6943
mas	-11.6943
▁calculate	-11.6945
▁fo	-11.6946
▁breach	-11.6951
$1	-11.6953
▁touching	-11.6955
8,000	-11.6955
▁Bosnia	-11.6956
ency	-11.6956
TH	-11.6958
▁Romanian	-11.6958
▁Eight	-11.696
vit	-11.6961
▁compilation	-11.6962
▁sensation	-11.6962
▁triumph	-11.6962
▁tragic	-11.6962
▁intact	-11.6963
▁extraction	-11.6964
▁towers	-11.6965
▁61	-11.6966
▁$4	-11.6967
▁selfish	-11.6967
▁obey	-11.6967
▁arose	-11.6967
▁bishop	-11.6971
isha	-11.6973
▁col	-11.6976
▁portrait	-11.6976
▁qualify	-11.6977
suke	-11.6978
Love	-11.698
even	-11.6982
▁Wy	-11.6983
▁Brad	-11.6983
▁privilege	-11.6988
ost	-11.6989
▁Apart	-11.6989
alis	-11.699
tics	-11.6991
▁conspiracy	-11.6994
▁sworn	-11.6994
▁urgent	-11.6995
idine	-11.6995
▁greenhouse	-11.6996
other	-11.6998
▁Timor	-11.7
▁Maryland	-11.7001
▁Tibetan	-11.7004
▁mold	-11.7006
▁preventing	-11.7006
▁cares	-11.7009
▁tenth	-11.701
1%	-11.7011
read	-11.7012
▁Net	-11.7015
▁resign	-11.7016
▁vocals	-11.7019
▁suite	-11.7019
▁wondered	-11.7021
▁160	-11.7023
▁Sport	-11.7025
▁Ei	-11.7025
izer	-11.7027
▁rabbit	-11.7027
▁sediment	-11.7027
▁beloved	-11.7027
▁Brunei	-11.7028
▁renewable	-11.7028
▁Zhang	-11.7028
▁Hannah	-11.7028
▁surname	-11.7028
▁intimate	-11.7028
▁Rhine	-11.703
▁1898	-11.7031
▁battlefield	-11.7031
▁Mori	-11.7033
gas	-11.7033
FF	-11.7033
т	-11.7034
▁senator	-11.7038
▁shy	-11.7039
▁200,000	-11.7041
▁observer	-11.7043
▁flowing	-11.7046
▁refugee	-11.7046
iden	-11.7049
▁polymer	-11.7049
kel	-11.7049
▁centres	-11.705
enko	-11.705
–7	-11.705
▁sectors	-11.7051
▁Chung	-11.7053
▁electronics	-11.7055
MC	-11.7055
▁tract	-11.7057
▁gu	-11.7057
▁corridor	-11.706
responsibilities	-11.706
▁achieving	-11.706
▁embedded	-11.706
▁navigation	-11.706
▁struggling	-11.706
▁ecological	-11.706
▁Creek	-11.7061
▁Moreover	-11.7062
▁dinosaurs	-11.7062
OP	-11.7063
▁1896	-11.7063
▁traits	-11.7063
fold	-11.7066
Vi	-11.7067
▁offense	-11.7068
▁Greeks	-11.7068
▁ga	-11.707
▁bacterial	-11.707
▁charter	-11.707
bank	-11.707
▁households	-11.7072
iana	-11.7075
verse	-11.7077
Or	-11.7077
▁Turks	-11.7079
VE	-11.7079
▁opens	-11.7081
▁insight	-11.7081
▁fossils	-11.7085
sea	-11.7086
wave	-11.7089
▁Player	-11.709
▁interference	-11.7093
▁Gallery	-11.7093
▁Protection	-11.7094
NC	-11.7094
▁900	-11.7095
▁Mall	-11.7097
▁rays	-11.7098
CR	-11.7099
mini	-11.7103
▁nut	-11.7104
looking	-11.7109
▁addresses	-11.7113
CD	-11.7113
▁Oil	-11.7115
hir	-11.7118
▁rains	-11.712
half	-11.7122
▁predators	-11.7122
band	-11.7124
▁Thirty	-11.7126
▁experiencing	-11.7126
▁mosque	-11.7126
▁Prague	-11.7127
▁planted	-11.7127
▁Martha	-11.7128
▁feast	-11.7128
▁mankind	-11.7129
▁shipped	-11.7129
▁chips	-11.7131
iba	-11.7132
▁grace	-11.7132
FC	-11.7133
▁soccer	-11.7133
▁governed	-11.7134
▁intensive	-11.7136
vant	-11.7137
▁deadly	-11.7138
frac	-11.7139
▁explosive	-11.714
version	-11.7141
▁drivers	-11.7143
▁Tal	-11.7144
▁Kit	-11.7145
dr	-11.7147
▁1944.	-11.7148
formerly	-11.7148
gui	-11.7151
,300	-11.7155
▁mg	-11.7156
▁Phoenix	-11.7159
▁astronomical	-11.7159
▁savings	-11.716
glo	-11.7162
▁determin	-11.7163
ural	-11.7163
née	-11.7163
▁contacts	-11.7166
▁scores	-11.7167
▁convoys	-11.7168
▁Maz	-11.7169
▁Ul	-11.717
mori	-11.7176
▁authorized	-11.7178
▁separately	-11.7179
▁applying	-11.7181
▁filling	-11.7185
▁urine	-11.7186
link	-11.7188
ée	-11.7189
▁float	-11.7191
▁wrap	-11.7192
▁ceiling	-11.7193
▁thumb	-11.7193
▁Otto	-11.7193
▁Indeed	-11.7193
▁Section	-11.7194
▁bridges	-11.7196
▁cough	-11.7197
▁hopefully	-11.7198
▁1994.	-11.7198
▁Weekly	-11.7199
▁rivals	-11.7201
ality	-11.7203
jō	-11.7204
▁beaches	-11.7205
▁ancestor	-11.7208
н	-11.7208
▁duo	-11.7209
1)	-11.7212
▁activists	-11.7214
raz	-11.7215
▁Gaul	-11.7215
▁presents	-11.7216
▁Raj	-11.7223
▁1983,	-11.7225
pod	-11.7225
▁Tel	-11.7226
▁cathedral	-11.7226
▁certified	-11.7226
▁furniture	-11.7226
▁Nahiyah	-11.7226
▁shrine	-11.7226
▁Interstate	-11.7227
▁Larry	-11.7227
▁agenda	-11.7228
▁fees	-11.7232
▁Left	-11.7232
▁realistic	-11.7233
▁respected	-11.7234
▁references	-11.7235
▁parade	-11.7236
▁30%	-11.7236
▁jam	-11.7236
▁Emirates	-11.7237
ios	-11.7238
▁Kiev	-11.7239
▁Sex	-11.7239
▁Chess	-11.724
▁wipe	-11.724
▁ATP	-11.7241
▁Motor	-11.7242
Ga	-11.7242
▁modest	-11.7243
▁Nile	-11.7244
pot	-11.7244
▁marched	-11.7245
▁requirement	-11.7246
▁intercept	-11.7246
ature	-11.7252
▁disputed	-11.7255
▁publish	-11.7256
▁rises	-11.7258
▁advocate	-11.7259
inate	-11.726
▁Ontario	-11.726
▁Harvey	-11.726
▁readily	-11.726
▁specialist	-11.726
▁jerk	-11.726
▁Holland	-11.7263
▁AM	-11.7264
▁pioneer	-11.7264
▁condemned	-11.7265
turn	-11.7267
▁Burmese	-11.7268
▁sensors	-11.7268
▁tables	-11.7274
▁Sul	-11.7274
otic	-11.7276
▁venue	-11.7277
▁enterprise	-11.7277
▁bubble	-11.7277
▁1995.	-11.7278
▁ST	-11.7278
▁monk	-11.7279
BC	-11.728
ett	-11.7281
▁Sab	-11.7281
▁swallow	-11.7282
gio	-11.7282
▁distances	-11.7283
rik	-11.7283
▁flip	-11.7286
▁sequences	-11.7287
▁wi	-11.7289
▁murders	-11.729
▁Spa	-11.729
▁Agriculture	-11.7293
▁Edinburgh	-11.7293
▁ambulance	-11.7293
▁investigating	-11.7293
▁pleasant	-11.7293
▁relating	-11.7293
▁Visual	-11.7294
▁Yak	-11.7294
▁Mini	-11.7295
▁discoveries	-11.7295
▁Marco	-11.7295
▁Flash	-11.7295
mple	-11.7296
▁detection	-11.7296
▁nobility	-11.7297
▁discrimination	-11.7298
▁Slovakia	-11.73
▁readers	-11.7301
▁shine	-11.7301
▁Marines	-11.7303
▁lions	-11.7303
▁surfaces	-11.7304
▁Mia	-11.7305
▁quarters	-11.7306
bon	-11.7307
▁Cloud	-11.7307
rina	-11.7308
▁sends	-11.7308
▁Bern	-11.7309
cla	-11.731
▁slope	-11.7311
een	-11.7313
▁Moore	-11.7315
▁nail	-11.7317
handed	-11.7321
arious	-11.7322
▁portions	-11.7322
▁fragments	-11.7325
▁mortal	-11.7327
,400	-11.7327
▁Athletic	-11.7327
▁legislature	-11.7327
▁Gran	-11.7328
▁Indies	-11.7329
▁$100	-11.7331
▁decorated	-11.7331
gging	-11.7332
▁partition	-11.7335
▁racial	-11.7338
▁Zambia	-11.734
▁wasting	-11.7342
dio	-11.7343
▁praise	-11.7345
▁PM	-11.7346
nen	-11.7347
▁coma	-11.7348
–8	-11.735
case	-11.7352
esi	-11.7354
elo	-11.7355
▁Bet	-11.7359
jun	-11.736
▁foods	-11.7361
▁reservoir	-11.7361
▁Eagle	-11.7361
▁accent	-11.7361
▁saint	-11.7361
▁secular	-11.7361
▁coincidence	-11.7361
▁eager	-11.7362
▁grey	-11.7362
▁songwriter	-11.7362
lk	-11.7363
▁Barb	-11.7364
▁Broadway	-11.7365
▁storms	-11.7366
▁lens	-11.737
▁1965,	-11.7374
▁UTC	-11.7375
▁marshal	-11.7378
▁Sai	-11.7379
▁compact	-11.738
xa	-11.7383
▁1991.	-11.7384
▁Date	-11.7385
flow	-11.7385
sai	-11.7389
nese	-11.739
▁Stewart	-11.7395
▁virtue	-11.7395
▁pepper	-11.7396
-14	-11.7396
▁1993.	-11.7396
comp	-11.7397
▁mal	-11.7397
▁anthem	-11.7398
▁Gregory	-11.74
▁obsessed	-11.74
final	-11.7406
▁guardian	-11.7407
late	-11.7408
▁Stand	-11.7412
▁tier	-11.7415
▁Bri	-11.7415
▁Hun	-11.7416
▁compatible	-11.7418
▁Def	-11.7419
▁Pascal	-11.7419
▁elephants	-11.7419
lag	-11.742
▁lend	-11.7424
▁Leone	-11.7429
▁acoustic	-11.7429
▁delegation	-11.7429
▁innovative	-11.7429
▁Depend	-11.7429
▁Urban	-11.743
▁conversations	-11.743
ente	-11.7434
▁Beauty	-11.7434
▁Pot	-11.7434
▁Forget	-11.7434
▁lightning	-11.7435
En	-11.7436
▁hometown	-11.7438
profit	-11.745
▁strengthen	-11.745
mathb	-11.7453
etta	-11.7453
trop	-11.7456
▁cubic	-11.7457
▁Gla	-11.746
▁marriages	-11.7462
ô	-11.7463
▁LGBT	-11.7464
▁Literature	-11.7464
▁registration	-11.7464
▁drought	-11.7464
▁Female	-11.7464
▁Stefan	-11.7464
▁Hurry	-11.7464
blo	-11.7465
▁Kos	-11.7467
▁pursued	-11.7467
▁Sales	-11.7469
▁tro	-11.7469
gua	-11.7475
▁ash	-11.7476
▁1:	-11.7477
▁Turner	-11.7478
▁Castro	-11.748
▁monks	-11.7481
word	-11.7482
▁icon	-11.7483
▁ABC	-11.7484
controlled	-11.7486
▁goat	-11.7487
▁suggestion	-11.7489
▁Parker	-11.7493
▁instant	-11.7494
▁SM	-11.7494
NO	-11.7497
▁Transport	-11.7497
zon	-11.7497
▁sexy	-11.7497
▁diabetes	-11.7498
▁pistol	-11.7498
▁tuberculosis	-11.7498
▁vicinity	-11.7498
▁indicator	-11.7498
▁contrary	-11.7498
▁Murray	-11.7498
▁Reagan	-11.7501
vic	-11.7505
▁lips	-11.7505
▁peer	-11.7505
▁Kei	-11.7509
ering	-11.751
▁indoor	-11.7511
▁Angola	-11.7513
uh	-11.7517
▁Representatives	-11.7521
nium	-11.7525
▁AC	-11.7529
▁Henri	-11.753
▁disputes	-11.753
▁Hamilton	-11.753
week	-11.7531
▁jumping	-11.7532
▁Exactly	-11.7532
▁impacts	-11.7534
▁acceptance	-11.7535
▁Greenland	-11.7537
▁Often	-11.7539
▁Maya	-11.7539
▁Algerian	-11.754
▁meaningful	-11.7541
ison	-11.7546
,000,000	-11.7547
national	-11.7547
▁Environmental	-11.7548
▁Kat	-11.7549
▁1800	-11.7549
▁submarines	-11.755
▁nationalist	-11.7552
▁graphic	-11.7553
▁instrumental	-11.7554
▁pad	-11.7555
▁arrangements	-11.7557
▁Mara	-11.7557
▁Walk	-11.7558
▁guilt	-11.756
▁Ark	-11.756
Un	-11.7566
▁Census	-11.7567
▁astronaut	-11.7567
▁faculty	-11.7567
▁utility	-11.7567
▁casino	-11.7567
▁Churchill	-11.7567
▁Julius	-11.7567
▁equity	-11.7568
central	-11.7569
▁iOS	-11.7569
▁SP	-11.757
▁subtle	-11.7572
thal	-11.7573
master	-11.7575
▁pond	-11.7582
▁Azerbaijan	-11.7586
▁Ice	-11.7589
▁astronomer	-11.7591
▁globally	-11.7595
▁Wonder	-11.7597
atus	-11.76
▁preparations	-11.7601
▁maternal	-11.7602
▁Nokia	-11.7602
▁Nearby	-11.7603
▁Rouge	-11.7603
▁productivity	-11.7603
▁Train	-11.7603
▁AND	-11.7603
▁Seriously	-11.7603
▁Rather	-11.7603
▁punish	-11.7604
khe	-11.7605
▁relocated	-11.7607
▁fond	-11.7607
sley	-11.7608
▁ratings	-11.7609
▁ISBN	-11.761
▁Whit	-11.7611
etto	-11.7614
▁questioned	-11.7617
,”	-11.7617
▁religions	-11.7618
▁examined	-11.7619
▁resolved	-11.7623
modern	-11.7624
▁examine	-11.7625
wall	-11.7625
▁twins	-11.7626
three	-11.7627
▁Lisa	-11.7632
▁settings	-11.7633
▁1,500	-11.7633
▁Declaration	-11.7637
▁HCMC	-11.7637
▁Istanbul	-11.7637
▁voltage	-11.7637
▁Jonathan	-11.7637
▁neo	-11.7637
▁wrapped	-11.7641
rō	-11.7641
▁inland	-11.7643
rot	-11.7643
▁Serbian	-11.7644
tory	-11.7648
nine	-11.7648
mia	-11.7651
spor	-11.7653
▁Dominican	-11.7653
▁Bengal	-11.7654
Ar	-11.7655
▁Mongol	-11.7662
▁crosses	-11.7663
▁bits	-11.7664
▁bang	-11.7664
▁Rey	-11.7667
Qu	-11.7667
▁Pur	-11.7667
▁Tech	-11.7668
▁brutal	-11.7671
▁relegation	-11.7671
▁testimony	-11.7671
▁Stanford	-11.7672
▁escorting	-11.7673
▁intersection	-11.7675
▁conscious	-11.7677
arm	-11.7678
▁epic	-11.7678
▁provisions	-11.7682
▁Cle	-11.7683
▁overnight	-11.7683
six	-11.7687
▁occupy	-11.7689
▁melting	-11.7689
▁Joan	-11.7689
▁coined	-11.7694
▁forty	-11.7695
▁heated	-11.7696
▁monkeys	-11.7696
▁Days	-11.7699
▁sch	-11.7704
▁irregular	-11.7706
▁administrator	-11.7707
▁trailer	-11.7707
▁ashamed	-11.7707
pir	-11.7707
▁Ultra	-11.7707
itz	-11.7707
▁radioactive	-11.7707
▁achievements	-11.7709
▁landmark	-11.7709
▁AU	-11.771
▁annexed	-11.7711
▁defines	-11.7711
▁drops	-11.7715
▁handful	-11.7717
▁Georg	-11.7717
▁Period	-11.7718
zone	-11.7719
▁100%	-11.772
ç	-11.772
▁MIT	-11.7721
▁daylight	-11.7722
sie	-11.7728
▁scales	-11.7731
▁servants	-11.7732
▁1968,	-11.7734
Am	-11.774
▁bail	-11.7742
▁comprising	-11.7742
▁reservation	-11.7742
▁defining	-11.7742
▁width	-11.7742
к	-11.7742
▁Calvin	-11.7743
▁DO	-11.7743
ggle	-11.7743
▁NT	-11.7743
Su	-11.7744
oul	-11.7745
▁solving	-11.7746
▁Busan	-11.7746
▁Suppose	-11.7746
real	-11.7746
▁sulfur	-11.7748
▁Sche	-11.7748
▁collector	-11.775
▁professionals	-11.7751
▁responses	-11.7757
TC	-11.7758
▁billions	-11.7759
▁inch	-11.7759
▁aerial	-11.7762
▁souls	-11.7762
▁Fast	-11.7762
▁enhanced	-11.7763
rom	-11.7763
jan	-11.7763
▁coordinate	-11.7764
anti	-11.7766
▁nun	-11.7769
▁fiber	-11.777
▁Merc	-11.7771
▁meter	-11.7773
▁courses	-11.7773
▁fairy	-11.7773
char	-11.7775
oxy	-11.7776
▁Obviously	-11.7777
▁Source	-11.7777
▁helium	-11.7777
▁Jessica	-11.7777
▁gaming	-11.7777
▁herd	-11.7777
▁Morning	-11.7778
▁Aircraft	-11.7778
.4%	-11.7779
▁investments	-11.7779
▁88	-11.778
lac	-11.778
▁Gaga	-11.778
▁Sword	-11.7781
hua	-11.7781
did	-11.7785
▁Rub	-11.7786
▁ob	-11.7787
▁Lane	-11.7787
▁Lucy	-11.7791
▁wh	-11.7791
▁nano	-11.7793
▁sizes	-11.7793
▁cooling	-11.7793
etti	-11.7793
▁researcher	-11.78
▁governing	-11.7802
▁1967,	-11.7802
▁Pla	-11.7806
▁Fed	-11.7807
▁barrel	-11.7807
▁statistical	-11.7807
▁teenager	-11.781
▁jo	-11.7811
▁Ferdinand	-11.7813
▁Inspector	-11.7813
▁ceremonies	-11.7813
▁garbage	-11.7813
▁rainforest	-11.7813
▁decommissioned	-11.7813
▁Panzer	-11.7814
▁spelling	-11.7814
▁Thompson	-11.7815
▁kingdoms	-11.7815
▁Europa	-11.7817
▁strangers	-11.7817
▁cliff	-11.7822
▁competitors	-11.7822
organ	-11.7822
ope	-11.7822
▁oversee	-11.7822
▁Bow	-11.7823
▁unity	-11.7824
▁cellular	-11.7825
ogen	-11.7825
▁blessing	-11.7826
▁Hood	-11.7828
▁differential	-11.7829
ended	-11.7833
▁Ama	-11.7833
▁appoint	-11.7835
TE	-11.7836
▁manifest	-11.7836
BS	-11.784
▁mount	-11.7841
▁Lar	-11.7841
rant	-11.7842
▁Mae	-11.7843
tress	-11.7844
LL	-11.7845
▁sandwich	-11.7845
▁Inhabitant	-11.7848
▁Nacional	-11.7848
▁eclipse	-11.7848
▁inevitable	-11.7848
▁franc	-11.7848
▁renowned	-11.7849
▁10-	-11.785
▁rub	-11.7855
▁editions	-11.7855
ook	-11.7857
esh	-11.7865
▁spark	-11.7872
▁regain	-11.7872
▁poisoned	-11.7872
▁Kent	-11.7873
▁fold	-11.7873
▁brands	-11.7874
▁counted	-11.7874
body	-11.7876
▁decisive	-11.7877
▁Similar	-11.7877
▁Bart	-11.7877
PE	-11.7878
▁Kirk	-11.7878
odi	-11.7879
▁holder	-11.7882
▁Economics	-11.7883
▁ancestry	-11.7884
▁elimination	-11.7884
▁precursor	-11.7884
▁UFO	-11.7884
▁subordinate	-11.7884
▁Holmes	-11.7884
▁Chester	-11.7885
pet	-11.7886
AF	-11.7889
tie	-11.7891
▁habitats	-11.7891
▁automatic	-11.7894
▁Ky	-11.7895
good	-11.7898
▁guessing	-11.7898
TP	-11.7898
▁Palmer	-11.7899
▁DJ	-11.7902
nel	-11.7903
ww	-11.7904
▁demons	-11.7906
▁grip	-11.7906
▁belly	-11.7906
▁pointing	-11.7909
▁1971,	-11.7909
▁bees	-11.791
▁Chun	-11.7911
▁reinforcements	-11.7911
Mu	-11.7911
▁98	-11.7915
▁Wol	-11.7917
▁flame	-11.7917
1,000	-11.7919
▁compliment	-11.792
▁convenient	-11.792
▁unconscious	-11.792
▁Beat	-11.7921
▁limitations	-11.7922
than	-11.7923
▁Orange	-11.7924
clu	-11.7924
▁1899	-11.7924
▁relay	-11.7924
▁stays	-11.7926
used	-11.7928
▁coastline	-11.7928
▁museums	-11.7928
▁algebra	-11.7929
▁adviser	-11.7934
active	-11.7937
.8%	-11.7938
▁persuade	-11.7939
hae	-11.7941
▁beans	-11.7943
▁inhibitor	-11.7945
mid	-11.7945
▁centered	-11.7947
▁12-	-11.7947
▁su	-11.7947
bie	-11.7949
▁sharks	-11.795
▁Hunt	-11.7951
▁Joint	-11.7952
▁commune	-11.7953
cite	-11.7954
▁authentic	-11.7954
▁festivals	-11.7954
.3%	-11.7955
▁Luxembourg	-11.7956
▁conjunction	-11.7956
▁engaging	-11.7956
▁grief	-11.7956
▁maritime	-11.7956
▁Hudson	-11.7956
▁robust	-11.7956
▁Friedrich	-11.7956
hur	-11.7956
▁Previously	-11.7957
▁adjust	-11.7959
▁André	-11.7964
▁agreements	-11.7968
▁terrorism	-11.7969
)"	-11.7971
▁Working	-11.7971
▁acceptable	-11.7978
▁anchor	-11.7981
▁Sk	-11.7988
▁talented	-11.7988
hel	-11.7989
▁virgin	-11.7991
graph	-11.7991
▁culminat	-11.7991
▁Gang	-11.7992
▁Obama	-11.7992
▁colonel	-11.7993
▁Gates	-11.7993
headed	-11.7994
▁Iberian	-11.7995
round	-11.7995
ovich	-11.7999
▁Antarctica	-11.7999
▁openly	-11.7999
mme	-11.7999
oxi	-11.8
2%	-11.8
▁filmmaker	-11.8003
▁1942.	-11.8003
▁punished	-11.8004
ante	-11.8006
aging	-11.8008
▁regiment	-11.8009
▁crystals	-11.8009
▁Karen	-11.801
Car	-11.801
▁Zen	-11.8012
screen	-11.8016
▁refuge	-11.8016
▁Greg	-11.8018
care	-11.8019
grade	-11.802
pho	-11.802
tric	-11.8021
▁overthrow	-11.8023
eli	-11.8025
▁chill	-11.8026
▁ci	-11.8026
pra	-11.8028
_	-11.8028
▁Amsterdam	-11.8028
▁frequencies	-11.8028
▁treason	-11.8028
▁pursuing	-11.8028
▁Lennon	-11.8028
▁Louisiana	-11.8029
▁nationwide	-11.8029
▁Celtic	-11.8029
▁mighty	-11.803
▁Dear	-11.8031
▁couch	-11.8031
▁Tourism	-11.8032
▁glucose	-11.8032
▁gains	-11.8033
apa	-11.8034
▁prevention	-11.8035
▁Pic	-11.8036
▁Sweet	-11.8037
▁cents	-11.8039
▁Bryan	-11.8039
▁interrupted	-11.8039
icular	-11.8041
▁dreamed	-11.8045
▁tire	-11.8046
▁Basin	-11.8047
yeon	-11.8049
▁foreigners	-11.805
▁geographic	-11.806
uru	-11.8063
zawa	-11.8064
▁Disease	-11.8064
▁Vancouver	-11.8064
▁gambling	-11.8064
▁metabolism	-11.8064
▁Capitol	-11.8064
▁optimal	-11.8064
▁crusade	-11.8064
▁heavier	-11.8064
▁Liberty	-11.8065
▁comparable	-11.8066
▁sins	-11.8066
▁Ang	-11.8066
▁crust	-11.8067
▁Terry	-11.8068
▁und	-11.8069
▁enters	-11.807
▁travelling	-11.807
▁1850	-11.807
▁Chao	-11.8073
▁Teacher	-11.8074
omo	-11.8075
▁Plain	-11.8076
▁1889	-11.8078
▁melt	-11.8079
▁opinions	-11.8079
▁350	-11.8079
base	-11.8082
▁emphasize	-11.8084
▁resume	-11.8084
abi	-11.8086
▁bon	-11.8087
▁Travel	-11.8087
iri	-11.8088
▁twist	-11.8089
▁wasted	-11.8091
mouth	-11.8092
▁candy	-11.8092
▁Deb	-11.8098
issa	-11.8098
▁reduces	-11.81
gard	-11.81
▁Bhutan	-11.8101
ept	-11.8101
▁aesthetic	-11.8101
▁captive	-11.8101
▁vampire	-11.8101
chon	-11.8101
▁Wor	-11.8104
▁favorable	-11.8109
▁Lega	-11.811
▁Nazis	-11.8112
▁searched	-11.8114
▁Wong	-11.8115
Cha	-11.8116
▁Wat	-11.8117
tun	-11.8121
▁locate	-11.8121
▁lamp	-11.8122
▁slice	-11.8122
▁Gross	-11.8123
▁Sign	-11.8125
-29	-11.8126
gni	-11.8126
bach	-11.8126
▁exported	-11.8127
▁Jesse	-11.8127
▁lifted	-11.8127
site	-11.813
▁hug	-11.813
▁pill	-11.813
▁Br	-11.8131
▁sixteen	-11.8132
▁Inside	-11.8133
story	-11.8133
OC	-11.8135
▁Aleppo	-11.8138
▁Miguel	-11.8138
▁harbour	-11.8138
▁proximity	-11.8138
▁Filipino	-11.8138
▁Saigon	-11.8138
▁naming	-11.8138
▁textbook	-11.8139
▁violation	-11.8139
▁Destroyer	-11.814
▁renewed	-11.8142
▁disabled	-11.8142
▁tar	-11.8144
▁explored	-11.8144
▁earthquakes	-11.8144
▁Phu	-11.8145
IL	-11.8146
▁15,000	-11.8148
▁69	-11.8148
▁blowing	-11.815
▁villain	-11.8151
bling	-11.8151
▁geological	-11.8152
▁73	-11.8155
▁Lost	-11.8156
50,000	-11.8156
eller	-11.8158
▁marrying	-11.8159
▁Intel	-11.8161
amba	-11.8163
▁ranch	-11.8164
▁ray	-11.8165
▁privately	-11.8174
▁Conservation	-11.8174
▁Quebec	-11.8174
▁petroleum	-11.8174
▁THAT	-11.8174
▁symbolic	-11.8175
▁Cop	-11.8177
▁explicitly	-11.8179
ulate	-11.8179
▁Mou	-11.818
▁Yuri	-11.8185
▁fox	-11.819
▁processor	-11.8191
▁Disc	-11.8192
▁Rou	-11.8195
▁Songs	-11.8198
7,000	-11.8202
▁smarter	-11.8205
▁verse	-11.8207
▁inventor	-11.8207
▁treatments	-11.8211
▁threshold	-11.8211
▁wheat	-11.8211
}}}	-11.8212
virus	-11.8212
▁electromagnetic	-11.8212
▁View	-11.8213
tical	-11.8214
▁1897	-11.8214
▁terrorists	-11.8215
▁install	-11.8215
unk	-11.8216
▁upward	-11.8218
▁enjoying	-11.8218
▁torpedoes	-11.8218
▁Yale	-11.8219
pul	-11.8219
Te	-11.8219
▁commemorate	-11.822
▁VIII	-11.822
▁knees	-11.8223
▁Lip	-11.8224
▁Hart	-11.8225
pus	-11.8229
▁quarantine	-11.8231
▁Environment	-11.8231
▁factions	-11.8233
▁corrupt	-11.8236
▁71	-11.8236
▁walks	-11.8239
▁β	-11.8239
▁derives	-11.8239
▁dealer	-11.8241
▁Bran	-11.8241
▁Jae	-11.8246
▁Week	-11.8247
▁gamma	-11.8249
▁Fiji	-11.825
▁Luzon	-11.825
emi	-11.8251
▁1895	-11.8252
▁Champion	-11.8252
▁antibiotic	-11.8252
▁parameters	-11.8253
quality	-11.8254
▁Falls	-11.8254
▁admire	-11.8256
▁insult	-11.8256
rap	-11.8258
×	-11.8264
▁Ugandan	-11.8265
▁reserved	-11.8268
hm	-11.8272
▁Americas	-11.8276
bag	-11.8279
▁Budapest	-11.8285
▁essence	-11.8285
▁militia	-11.8285
▁precipitation	-11.8286
▁comp	-11.8286
▁verb	-11.8286
▁tribal	-11.8286
▁guaranteed	-11.8286
▁chapel	-11.8286
▁Fre	-11.8287
▁sulfate	-11.8287
▁rude	-11.8288
▁1868	-11.8289
▁40%	-11.829
▁motivated	-11.8292
▁Sum	-11.8293
▁penis	-11.8296
rak	-11.83
▁countryside	-11.8302
▁payments	-11.8302
▁Consider	-11.8305
▁Sing	-11.8306
▁approve	-11.8306
▁Electric	-11.8308
bing	-11.8309
▁translate	-11.8311
lice	-11.8314
dé	-11.8316
rma	-11.8317
ο	-11.8323
▁circular	-11.8323
▁introducing	-11.8323
▁mistress	-11.8323
▁pur	-11.8324
▁reproduce	-11.8326
▁confined	-11.8328
▁Bul	-11.8328
▁oxidation	-11.8328
▁Boris	-11.8328
▁detector	-11.8329
ego	-11.8331
▁swamp	-11.8333
mara	-11.8333
▁sustain	-11.8334
▁2.0	-11.8335
▁Living	-11.8335
Ex	-11.8336
eva	-11.8336
▁Notes	-11.8336
▁cleaned	-11.8336
▁nutrients	-11.8336
ern	-11.8337
▁posts	-11.8338
rang	-11.8338
▁seller	-11.8339
standing	-11.8341
▁medications	-11.8342
▁retire	-11.8342
▁borrowed	-11.8343
▁Pr	-11.8345
▁Syn	-11.8345
▁minerals	-11.8347
▁Rama	-11.8348
▁Mina	-11.8349
▁Gan	-11.8349
written	-11.8351
▁3:	-11.8355
powered	-11.8356
ota	-11.8357
▁hurts	-11.8357
▁analog	-11.8359
▁ram	-11.836
▁Berkeley	-11.836
▁awkward	-11.836
▁supreme	-11.836
▁thrive	-11.836
▁electoral	-11.836
▁freezing	-11.836
▁altogether	-11.836
▁minimize	-11.836
▁Popular	-11.8361
▁expertise	-11.8361
ril	-11.8363
dle	-11.8365
dog	-11.8366
▁170	-11.8367
▁fulfill	-11.8368
▁Hua	-11.8369
rol	-11.837
▁Animal	-11.8371
▁rolling	-11.8374
▁Access	-11.8374
▁67	-11.8375
▁nuclei	-11.838
bye	-11.838
▁distribute	-11.8381
rag	-11.8386
crib	-11.8387
dding	-11.8387
▁teenage	-11.8395
▁eagle	-11.8398
▁tobacco	-11.8398
▁puppet	-11.8398
▁thou	-11.8398
▁termed	-11.8399
▁Barney	-11.8399
▁sheets	-11.8399
uan	-11.84
▁breakdown	-11.84
▁robbery	-11.8402
▁Laura	-11.8404
▁PhD	-11.8404
▁pathway	-11.8407
▁idol	-11.8407
▁Pad	-11.8409
▁nerves	-11.8409
▁allegedly	-11.8409
▁theaters	-11.8409
hun	-11.841
▁momentum	-11.8411
▁collectively	-11.8412
▁Farm	-11.8416
pid	-11.8416
▁Tara	-11.8419
▁Row	-11.8421
lash	-11.8422
eer	-11.8424
lop	-11.8425
Where	-11.8427
▁Cao	-11.8431
established	-11.8432
▁Kō	-11.8434
▁WE	-11.8435
▁terrestrial	-11.8436
▁Danube	-11.8436
▁slot	-11.8436
▁purple	-11.8436
▁hull	-11.8436
▁prosperity	-11.8436
▁Watson	-11.8437
III	-11.8437
▁70%	-11.8437
▁Commons	-11.8438
iso	-11.8438
▁Jump	-11.8439
▁Spears	-11.8442
▁tubes	-11.8444
▁eruption	-11.8444
▁surround	-11.8444
▁Ground	-11.8445
▁sits	-11.8445
▁fights	-11.8445
▁mag	-11.8447
▁streaming	-11.8447
uous	-11.845
▁Taking	-11.8453
▁requests	-11.8456
▁maid	-11.8459
March	-11.846
▁withdrawn	-11.8463
ulf	-11.8463
▁q	-11.8464
▁shelf	-11.8464
ales	-11.8464
NG	-11.8465
ening	-11.8466
MO	-11.8468
▁Rwanda	-11.8468
first	-11.8468
▁Masters	-11.8468
▁fin	-11.847
▁intentions	-11.8471
▁onwards	-11.8472
▁Proto	-11.8472
▁defect	-11.8472
▁lineage	-11.8473
▁slower	-11.8473
▁humanitarian	-11.8473
▁suspicion	-11.8473
▁vegetation	-11.8473
▁stink	-11.8474
▁Forbes	-11.8474
plat	-11.8476
▁PR	-11.8476
cos	-11.8477
▁faithful	-11.8477
▁depressed	-11.8478
▁Historically	-11.8479
▁effectiveness	-11.8479
▁arise	-11.8484
▁astronomers	-11.8485
▁mat	-11.8485
▁Fra	-11.8486
▁floors	-11.8486
zhou	-11.8487
▁seeks	-11.8487
Fe	-11.8487
▁cheat	-11.8489
▁counsel	-11.8491
dai	-11.8495
▁Guards	-11.8495
▁discussing	-11.8498
LO	-11.85
▁Hawk	-11.8501
▁makeup	-11.8501
▁inhabit	-11.8502
VA	-11.851
zel	-11.8511
▁Original	-11.8511
▁Damascus	-11.8511
▁Newfoundland	-11.8511
▁doctrine	-11.8511
▁contributing	-11.8511
▁delicious	-11.8512
▁Chapter	-11.8512
▁freshwater	-11.8512
▁Cinema	-11.8513
▁consultant	-11.8513
▁81	-11.8514
▁Salt	-11.8514
▁mob	-11.8516
▁flexible	-11.8519
▁suburb	-11.8519
ough	-11.852
▁comm	-11.8522
▁2–1	-11.8523
0°	-11.8524
▁gi	-11.853
▁tolerate	-11.8531
ME	-11.8531
▁websites	-11.8532
▁6,000	-11.8534
▁Barr	-11.8537
▁rig	-11.8539
▁shade	-11.8541
▁contacted	-11.8542
▁Sung	-11.8549
bian	-11.8549
▁Yellow	-11.8549
▁preliminary	-11.855
▁prestigious	-11.855
▁eternal	-11.855
▁Different	-11.855
▁diagnostic	-11.855
▁guidelines	-11.855
▁niece	-11.855
tica	-11.8551
▁ferry	-11.8551
▁1893	-11.8552
anna	-11.8554
▁conquer	-11.8556
▁revenues	-11.8556
-200	-11.8557
▁Drive	-11.8557
▁BA	-11.8559
▁columns	-11.8559
▁argues	-11.8561
▁Johann	-11.8562
flu	-11.8563
▁accounted	-11.8563
▁Mare	-11.8566
7)	-11.8568
▁activate	-11.8571
there	-11.8573
▁mole	-11.8573
▁holidays	-11.8574
▁Dallas	-11.8575
▁washed	-11.8577
▁avoided	-11.8578
▁triggered	-11.858
▁homeland	-11.858
iyah	-11.8581
iza	-11.8585
▁Woo	-11.8587
▁Brussels	-11.8588
▁Wisconsin	-11.8588
▁Graham	-11.8589
▁Hamburg	-11.8589
▁textile	-11.859
▁legendary	-11.859
kon	-11.859
▁interrupt	-11.8592
▁Alps	-11.8593
▁cooked	-11.8593
▁governance	-11.8593
▁Beast	-11.8595
▁boots	-11.8596
▁Finch	-11.8601
▁shipment	-11.8601
▁sentences	-11.8605
▁Nord	-11.8606
▁Lab	-11.8607
▁Der	-11.8608
▁Met	-11.8609
▁sung	-11.8609
▁explode	-11.8609
▁skilled	-11.8611
▁Devil	-11.8613
▁Singles	-11.8613
▁Wave	-11.8614
▁spill	-11.8615
▁loses	-11.8616
▁cooler	-11.8617
▁$5	-11.8617
▁Estonia	-11.862
▁charm	-11.862
▁5%	-11.8621
▁Gin	-11.8621
▁casting	-11.8623
▁relate	-11.8624
▁inequality	-11.8626
▁distress	-11.8627
▁informal	-11.8628
▁RAF	-11.863
bad	-11.8631
▁riot	-11.8641
ume	-11.8642
▁exhibited	-11.8645
▁Lim	-11.8645
▁proposals	-11.8647
▁segments	-11.8647
pr	-11.8649
▁envelope	-11.8649
Jo	-11.8649
▁hid	-11.8652
▁Nicaragua	-11.8659
▁Record	-11.8662
▁tender	-11.8662
▁cube	-11.8664
▁precision	-11.8665
▁Adolf	-11.8665
-13	-11.8665
▁humble	-11.8666
▁hint	-11.8667
▁texture	-11.8667
▁1863	-11.8668
hab	-11.8668
aut	-11.8669
▁tenure	-11.8669
▁2019.	-11.8669
def	-11.867
▁advise	-11.8671
^{	-11.8673
▁Helena	-11.8675
▁derivatives	-11.8675
▁machinery	-11.8675
aq	-11.8675
▁canceled	-11.8679
▁insect	-11.8681
▁Mongolian	-11.8682
▁Dae	-11.8683
▁bark	-11.8683
▁1962,	-11.8685
▁merchants	-11.8685
thro	-11.8686
▁maintains	-11.869
▁Turin	-11.8694
World	-11.8696
raw	-11.8696
▁Single	-11.8697
▁limb	-11.8698
▁eventual	-11.8699
▁climbing	-11.8699
shed	-11.87
▁Table	-11.8703
▁Soccer	-11.8703
▁Alabama	-11.8704
▁Lebanese	-11.8704
▁additive	-11.8704
▁dominance	-11.8704
▁Protocol	-11.8704
▁Stuart	-11.8704
▁uncommon	-11.8705
▁colored	-11.8705
▁sounded	-11.8705
▁promises	-11.8706
▁Austin	-11.8706
▁Tab	-11.8707
rium	-11.8707
▁Workers	-11.8707
▁Ooh	-11.8707
▁infrared	-11.8709
▁Afghan	-11.8711
bet	-11.8711
▁ISO	-11.8714
they	-11.8716
force	-11.8718
▁essay	-11.8718
DD	-11.8718
▁Jar	-11.8719
▁76	-11.872
▁ecosystems	-11.8721
▁Slavic	-11.8722
▁Lima	-11.8722
▁Seo	-11.8722
anga	-11.8722
▁paths	-11.8724
▁trends	-11.8727
▁Gray	-11.8728
▁bored	-11.8731
▁ballet	-11.8732
Star	-11.8734
▁Pas	-11.8735
▁kinda	-11.8735
▁Macedonia	-11.8736
▁transports	-11.8737
TER	-11.874
▁evident	-11.8743
▁suspension	-11.8743
▁unofficial	-11.8744
▁Aunt	-11.8746
CI	-11.8747
▁Flu	-11.8748
agi	-11.875
iser	-11.8751
▁adds	-11.8751
ache	-11.8752
hou	-11.8758
▁smartphone	-11.8758
SH	-11.8761
▁possessed	-11.8761
▁sneak	-11.8762
▁capitalism	-11.8763
▁Eat	-11.8764
▁corpse	-11.8766
ester	-11.8766
tori	-11.8768
▁demanding	-11.8769
▁Meiji	-11.8769
▁statues	-11.877
▁villa	-11.8774
nde	-11.8776
elia	-11.8776
ENT	-11.8776
kka	-11.8776
plant	-11.8777
Thai	-11.8777
▁86	-11.8779
▁FM	-11.878
▁unions	-11.878
code	-11.878
▁deceased	-11.8782
▁practicing	-11.8782
▁nonsense	-11.8782
▁spawn	-11.8782
▁valve	-11.8782
ako	-11.8782
▁Pablo	-11.8782
▁Malawi	-11.8782
▁BE	-11.8783
▁Oman	-11.8783
▁hotels	-11.8784
fen	-11.8784
▁Anime	-11.8785
▁rally	-11.8786
▁Truth	-11.8788
▁honorary	-11.8788
▁cultivated	-11.8788
▁ja	-11.8795
tina	-11.8799
ario	-11.88
▁await	-11.8809
eria	-11.881
girl	-11.8811
nai	-11.8812
▁Antarctic	-11.8813
▁Namibia	-11.8815
▁fourteen	-11.8816
▁Metal	-11.8819
▁suits	-11.882
▁Shakespeare	-11.8821
▁ambitious	-11.8821
▁footprint	-11.8821
▁occasional	-11.8822
▁Outside	-11.8823
▁Cel	-11.8824
▁1–0	-11.8824
▁1963,	-11.8825
▁vent	-11.8826
▁Albanian	-11.883
▁stressed	-11.883
▁pork	-11.8831
ridge	-11.8832
2.5	-11.8834
▁Franz	-11.884
▁Cham	-11.884
▁digits	-11.8841
▁drum	-11.8842
▁foundations	-11.8843
own	-11.8843
▁execute	-11.8843
▁duel	-11.8844
ulus	-11.8844
▁spoil	-11.8849
gel	-11.8849
▁pirates	-11.8852
▁rag	-11.8852
SU	-11.8855
nell	-11.8858
▁antagonist	-11.886
▁compensation	-11.886
▁miserable	-11.886
▁surgical	-11.886
▁Physics	-11.886
▁geography	-11.886
▁Forum	-11.8861
AA	-11.8862
qi	-11.8862
▁exert	-11.8863
▁Beth	-11.8863
▁CPU	-11.8863
▁corresponds	-11.8863
▁leverage	-11.8865
▁Glad	-11.8867
ppe	-11.8867
mile	-11.8871
▁Baron	-11.8872
–12	-11.8876
lated	-11.8878
▁implications	-11.888
▁broader	-11.888
race	-11.888
▁Maine	-11.888
▁Meta	-11.888
cel	-11.8881
app	-11.8881
▁flooded	-11.8882
▁dominate	-11.8883
▁rage	-11.8884
gers	-11.8885
▁1958,	-11.8887
.7%	-11.8887
vor	-11.8887
▁Mk	-11.889
▁Gene	-11.889
storm	-11.8892
Soviet	-11.8892
tian	-11.8893
▁fierce	-11.8893
▁inscription	-11.8898
mul	-11.8898
▁attain	-11.8899
▁dessert	-11.89
▁Confederate	-11.89
▁unprecedented	-11.89
▁Shadow	-11.89
▁projection	-11.8901
▁doubles	-11.8901
▁foolish	-11.8902
▁unsub	-11.8903
▁resembles	-11.8903
▁induce	-11.8908
400	-11.8909
plane	-11.8912
chief	-11.8912
▁bare	-11.8912
gie	-11.8915
▁satisfy	-11.8922
▁lamb	-11.8922
▁caves	-11.8922
▁rebuild	-11.8922
▁interviewed	-11.8925
▁incomplete	-11.8925
▁Aka	-11.8925
▁prayers	-11.8925
SD	-11.8926
▁trips	-11.8928
inae	-11.8928
keeper	-11.893
▁cho	-11.8934
roid	-11.8936
▁unhappy	-11.894
▁stiff	-11.894
▁screenplay	-11.8941
▁Mommy	-11.8941
▁transactions	-11.8941
kal	-11.8943
▁rob	-11.8943
▁Prix	-11.8944
bridge	-11.8945
.2%	-11.8945
▁similarities	-11.8945
▁Antony	-11.8946
▁sexuality	-11.8947
–10	-11.8948
▁Chemical	-11.8948
▁pee	-11.8949
▁digit	-11.8949
▁operators	-11.8949
▁generating	-11.895
▁Rican	-11.8952
▁exceptions	-11.8952
▁seas	-11.8952
▁Former	-11.8954
▁É	-11.8957
wal	-11.8958
▁shrink	-11.8961
▁interpret	-11.8961
▁bleed	-11.8962
▁disrupt	-11.8964
▁deploy	-11.8966
▁Kol	-11.8968
▁promotional	-11.8968
▁corps	-11.8969
▁suburbs	-11.8969
built	-11.897
▁Dal	-11.8972
▁Rap	-11.8973
▁Finn	-11.8974
▁Bert	-11.8975
▁Oak	-11.8978
▁behaviors	-11.8979
▁Malcolm	-11.8979
▁archipelago	-11.8979
▁judicial	-11.8979
▁Campbell	-11.898
▁thread	-11.898
▁Policy	-11.898
▁polite	-11.898
▁Generation	-11.898
▁Normandy	-11.898
▁Underwood	-11.8981
▁slum	-11.8982
▁Silesian	-11.8984
▁marking	-11.8986
▁Kids	-11.8986
▁Labor	-11.8988
▁Cla	-11.8989
,700	-11.899
▁elect	-11.899
duct	-11.8991
lift	-11.8994
solv	-11.8996
▁ph	-11.8997
craft	-11.8999
▁Michel	-11.8999
▁Charter	-11.9
▁athlete	-11.9
▁hostages	-11.9003
LC	-11.9005
▁Andrea	-11.9007
▁senses	-11.9009
▁Julie	-11.901
▁lad	-11.901
▁fa	-11.9011
▁noon	-11.9012
nau	-11.9013
▁74	-11.9015
pit	-11.9017
▁Beyond	-11.9019
▁Galileo	-11.9019
▁Oklahoma	-11.9019
▁absorption	-11.9019
▁Been	-11.902
▁admission	-11.902
▁dealt	-11.9022
▁frankly	-11.9022
cop	-11.9023
▁systematic	-11.9023
ied	-11.9025
alia	-11.9025
▁GPS	-11.9026
got	-11.9027
▁monuments	-11.903
▁1885	-11.903
▁lowland	-11.9031
▁traders	-11.9032
▁Rif	-11.9035
▁tetra	-11.9037
▁Palau	-11.9039
,800	-11.904
▁Cab	-11.9041
▁Gram	-11.9041
▁potent	-11.9042
▁expose	-11.9043
elected	-11.9044
▁Rum	-11.9044
ying	-11.9045
rai	-11.9046
▁Indiana	-11.9046
ethyl	-11.9047
с	-11.905
usually	-11.9051
▁employer	-11.9054
▁Stage	-11.9055
▁mercury	-11.906
▁offspring	-11.9061
▁Lyon	-11.9061
▁Gotham	-11.9061
dig	-11.9061
▁revised	-11.9062
▁Chancellor	-11.9063
▁oppos	-11.9063
▁1888	-11.9063
▁Arc	-11.9064
▁Portland	-11.9065
▁farther	-11.9065
▁1830	-11.9065
▁broker	-11.9065
▁bonus	-11.9065
▁edited	-11.9069
▁tournaments	-11.9071
▁credits	-11.9076
▁Bud	-11.9077
count	-11.9078
roy	-11.9078
▁sailors	-11.9079
GS	-11.9082
▁balloon	-11.9082
▁turret	-11.9082
▁flags	-11.9086
▁generals	-11.9087
rse	-11.909
▁Horn	-11.9097
▁Industries	-11.91
▁encouraging	-11.91
▁immense	-11.91
▁aftermath	-11.91
▁sperm	-11.91
▁cardiac	-11.91
▁tendency	-11.91
▁suspects	-11.9102
▁vs	-11.9105
▁Bac	-11.9106
CS	-11.9107
▁numbered	-11.9108
▁methyl	-11.9109
▁conceived	-11.911
▁Princeton	-11.9111
▁sentiment	-11.9112
▁Phone	-11.9113
▁buyer	-11.9113
▁5-	-11.9113
▁pressing	-11.9113
▁Clarke	-11.9115
▁regulated	-11.9116
▁ingredient	-11.912
▁commanders	-11.912
▁discussions	-11.912
▁seize	-11.9125
ulu	-11.9129
▁screened	-11.913
Wi	-11.9132
Video	-11.9134
bis	-11.9134
European	-11.9134
▁messing	-11.9135
▁bribe	-11.914
▁Montgomery	-11.914
▁hemisphere	-11.914
wl	-11.9141
▁hormones	-11.9141
▁Spider	-11.9141
▁Niger	-11.9142
▁Robinson	-11.9142
▁servers	-11.9145
▁NO	-11.9146
▁biologist	-11.9147
lob	-11.9148
▁Jacques	-11.9149
▁Jen	-11.915
▁Ox	-11.9151
▁Plate	-11.9155
bell	-11.9159
rra	-11.916
▁buses	-11.916
▁Rod	-11.9161
▁seasonal	-11.9168
▁modes	-11.9169
▁slaughter	-11.9169
▁Kil	-11.9172
▁Bach	-11.9172
school	-11.9174
▁overwhelming	-11.9177
▁canal	-11.9177
iling	-11.9178
▁tensions	-11.9178
-47	-11.9179
▁Product	-11.918
▁Caucasus	-11.9181
▁inclusion	-11.9181
▁sniper	-11.9181
▁anxious	-11.9181
▁Jefferson	-11.9181
▁tolerance	-11.9181
▁Felix	-11.9181
▁Gay	-11.9182
▁wool	-11.9182
▁2-	-11.9183
eda	-11.9183
▁displaced	-11.9184
WA	-11.9184
▁fist	-11.9184
▁functionality	-11.9185
▁1871	-11.9185
ees	-11.9185
▁compiled	-11.9186
▁discontinued	-11.9187
alo	-11.9188
eight	-11.9188
hito	-11.9188
▁Oz	-11.9188
▁Beautiful	-11.9191
▁Choi	-11.9191
▁southwestern	-11.9192
▁colleges	-11.9193
▁knights	-11.9193
▁cer	-11.9193
▁Enter	-11.9194
▁Angela	-11.9195
ncing	-11.92
▁floods	-11.9201
▁Springs	-11.9205
▁analyze	-11.9205
-25	-11.9206
▁Nak	-11.9206
▁Hur	-11.9208
▁cared	-11.921
▁snakes	-11.9211
▁Arte	-11.9211
▁Bros	-11.9214
▁recognise	-11.9214
▁Seth	-11.9219
▁celebrating	-11.9222
▁seemingly	-11.9222
▁Climate	-11.9222
▁imaging	-11.9222
▁neural	-11.9222
▁conscience	-11.9222
▁shaft	-11.9222
▁carved	-11.9222
▁undergraduate	-11.9223
▁interactive	-11.9224
6)	-11.9224
clo	-11.9224
▁sexually	-11.9226
guard	-11.9226
cious	-11.9227
▁rib	-11.9228
rif	-11.923
▁Somalia	-11.9231
finals	-11.9233
▁Yong	-11.9233
▁targeting	-11.9235
yon	-11.9238
▁Kay	-11.9239
▁wages	-11.924
▁1977,	-11.9241
▁disagree	-11.9243
nny	-11.9249
onian	-11.925
hum	-11.925
▁calculations	-11.9252
▁Rover	-11.9256
▁Eva	-11.9256
Yeah	-11.9257
▁compar	-11.9258
▁Cli	-11.9258
▁regulate	-11.9259
▁Hurricane	-11.9263
▁antenna	-11.9263
yeong	-11.9265
▁unveiled	-11.9266
▁Belle	-11.9267
▁60%	-11.9268
▁fails	-11.9268
ain	-11.9269
▁warships	-11.9269
▁Mono	-11.9269
▁writings	-11.927
▁echo	-11.9272
jer	-11.9273
▁hum	-11.9275
▁mod	-11.9277
▁WHO	-11.9277
▁Zhou	-11.9277
▁Democrats	-11.9279
▁mum	-11.9281
hat	-11.9282
SI	-11.9283
▁traded	-11.9283
▁container	-11.9283
▁storyline	-11.9285
oki	-11.9286
▁1943.	-11.9287
▁Pel	-11.9287
▁py	-11.9289
▁inspire	-11.929
{\	-11.929
ej	-11.929
arrow	-11.929
▁Homo	-11.9294
▁Khal	-11.9294
▁bias	-11.9294
▁provision	-11.9297
pic	-11.9299
▁chin	-11.9301
▁4:	-11.9302
▁Yokosuka	-11.9304
▁erosion	-11.9304
▁junction	-11.9304
▁prosecutor	-11.9304
▁Uzbekistan	-11.9304
▁Collection	-11.9305
▁(25	-11.9305
▁Amanda	-11.9305
▁volcanoes	-11.9309
ddy	-11.931
Ja	-11.9311
▁domains	-11.9311
▁Rear	-11.9313
▁blessed	-11.9314
▁develops	-11.9314
▁87	-11.9316
▁porn	-11.9317
though	-11.9319
▁bottles	-11.9319
▁Meeting	-11.9319
Hu	-11.9321
▁hammer	-11.9321
▁crushed	-11.9321
▁expenses	-11.9325
-30	-11.9326
▁Ari	-11.9327
pal	-11.9333
▁avoiding	-11.9333
▁lean	-11.9334
▁Poles	-11.9335
vian	-11.9337
▁1978,	-11.9338
▁Roma	-11.9339
▁provisional	-11.934
stor	-11.9341
▁masters	-11.9341
▁critically	-11.9343
▁Jang	-11.9343
▁strings	-11.9344
come	-11.9344
▁recruit	-11.9344
▁Statistics	-11.9345
▁Ulithi	-11.9345
▁advancing	-11.9345
▁Problem	-11.9345
▁Sumatra	-11.9345
▁Telescope	-11.9345
▁Collins	-11.9345
▁Diamond	-11.9345
▁simpler	-11.9345
▁Performance	-11.9346
▁inheritance	-11.9346
▁spike	-11.9346
▁Lor	-11.9346
▁banner	-11.9347
▁genetically	-11.9348
▁Germanic	-11.9349
▁pseudo	-11.935
TU	-11.9351
▁answering	-11.9351
▁Homs	-11.9351
.1%	-11.9352
▁Mmm	-11.9353
▁fungi	-11.9353
▁Quang	-11.9354
▁Eye	-11.9354
▁rendered	-11.9355
▁comprised	-11.9358
▁dia	-11.9358
ride	-11.9359
▁township	-11.9359
hot	-11.9359
▁invent	-11.936
▁sporting	-11.9361
▁citing	-11.9362
▁Going	-11.9363
▁venues	-11.9366
▁ashes	-11.9367
ifying	-11.9368
▁Rolling	-11.9369
▁Gam	-11.937
▁fuels	-11.937
▁viewing	-11.937
IR	-11.9374
▁negotiation	-11.9376
▁Vale	-11.9376
▁Gas	-11.9377
▁contestant	-11.9377
radi	-11.9378
▁Jose	-11.9379
▁Ng	-11.9381
developed	-11.9381
▁pest	-11.9382
▁Berg	-11.9382
▁meals	-11.9383
▁contents	-11.9385
▁Naka	-11.9386
date	-11.9386
▁delicate	-11.9387
▁liberty	-11.9387
▁prominence	-11.9387
▁speculation	-11.9387
▁dubbed	-11.9387
▁Saipan	-11.9387
▁dragged	-11.9387
▁cheek	-11.9387
▁inspection	-11.9388
▁constraints	-11.9389
▁depiction	-11.9389
▁artery	-11.939
cost	-11.9391
▁Abd	-11.9391
▁Bak	-11.9392
logical	-11.9393
qa	-11.9393
▁Keith	-11.9395
ndi	-11.9396
▁developments	-11.9396
▁portray	-11.9398
▁Beta	-11.9399
▁relieved	-11.9401
▁closure	-11.9401
▁Yama	-11.9403
▁Theory	-11.9405
▁cheating	-11.9407
▁Multi	-11.9409
▁lava	-11.9409
▁82	-11.9411
inger	-11.9411
oko	-11.9412
sign	-11.9415
▁Qi	-11.9418
▁ethical	-11.9422
▁Cool	-11.9422
thirds	-11.9423
▁contested	-11.9425
▁spectacular	-11.9428
▁Subdistrict	-11.9429
▁apology	-11.9429
▁moisture	-11.9429
▁pipeline	-11.9429
tig	-11.9431
eye	-11.9432
▁processed	-11.9434
lide	-11.9436
▁Macedonian	-11.9438
▁lethal	-11.9438
▁exhausted	-11.9438
▁wallet	-11.9439
▁Abdul	-11.9439
▁supposedly	-11.9442
▁loans	-11.9442
▁launching	-11.9445
▁substantially	-11.9445
▁Joy	-11.9445
▁25%	-11.9445
▁rode	-11.9446
Best	-11.9447
▁Add	-11.9448
Gu	-11.9451
exp	-11.9451
▁Follow	-11.9452
▁Soviets	-11.9453
▁discharge	-11.9454
▁penguins	-11.9454
▁quietly	-11.9457
▁dye	-11.9459
▁CP	-11.946
0)	-11.9461
▁manuscript	-11.9461
hang	-11.9461
▁tortured	-11.9461
▁reflects	-11.9463
▁Gua	-11.9464
▁Gui	-11.9464
people	-11.9465
▁Bull	-11.9466
Look	-11.9467
▁Que	-11.9468
▁abnormal	-11.947
▁Pull	-11.947
▁Aristotle	-11.947
▁Commerce	-11.947
▁Jennifer	-11.947
▁combining	-11.947
▁grasp	-11.947
▁Ragnar	-11.947
▁Airways	-11.947
▁beetle	-11.9471
▁Gilbert	-11.9471
▁proposition	-11.9471
▁Xu	-11.9471
▁rapper	-11.9472
▁caps	-11.9473
lig	-11.9474
▁reminded	-11.9474
▁Gothic	-11.9476
▁printer	-11.9481
▁valleys	-11.9481
phan	-11.9482
▁Speaking	-11.9483
▁78	-11.9483
yle	-11.9483
▁Warren	-11.9485
▁min	-11.9486
dec	-11.9486
nya	-11.9488
▁Scar	-11.9489
▁stain	-11.9489
–0	-11.9494
NI	-11.9497
boo	-11.9499
▁troubled	-11.9501
▁qui	-11.9502
▁Marty	-11.9502
▁diamonds	-11.9505
Je	-11.9506
▁1.2	-11.9506
ب	-11.9507
▁Bavaria	-11.9507
length	-11.9507
▁orbiting	-11.9508
▁Morris	-11.9511
▁Birmingham	-11.9512
▁Confederation	-11.9512
▁lithium	-11.9512
▁ideology	-11.9512
▁Nuclear	-11.9512
▁vapor	-11.9512
▁Bella	-11.9512
▁Utah	-11.9512
▁(1)	-11.9513
▁motto	-11.9513
▁uncertainty	-11.9514
great	-11.9517
▁Zeus	-11.9517
▁chapters	-11.9518
▁harmful	-11.9519
▁Less	-11.9523
▁Nat	-11.9523
fly	-11.9532
▁Arena	-11.9533
▁surge	-11.9535
▁evacuate	-11.9538
kō	-11.9541
▁Malaya	-11.9543
rim	-11.9544
nish	-11.9545
▁Mut	-11.9546
▁killers	-11.9546
▁Prima	-11.9547
▁dome	-11.9549
▁peasants	-11.9551
gol	-11.9554
▁Typhoon	-11.9554
▁disposal	-11.9554
▁Faith	-11.9554
▁Caledonia	-11.9555
▁Laurel	-11.9555
EM	-11.9555
▁Zhu	-11.9556
▁1947,	-11.9556
methyl	-11.9556
▁keen	-11.9557
▁conviction	-11.9557
▁westward	-11.9558
▁Chronicle	-11.9558
▁richest	-11.9559
▁accepting	-11.956
▁gro	-11.9561
▁shadows	-11.9562
▁84	-11.9565
brand	-11.9565
▁crude	-11.9566
udge	-11.9567
stro	-11.9567
▁symmetry	-11.9568
lid	-11.9568
▁peaks	-11.9569
▁constitute	-11.9573
kor	-11.9576
▁Slav	-11.9579
▁Mol	-11.958
▁pity	-11.9582
▁Cost	-11.9583
▁RE	-11.9585
▁Santos	-11.9587
▁Players	-11.9588
▁hurting	-11.959
▁jar	-11.9591
▁highlight	-11.9593
▁Mode	-11.9594
▁needle	-11.9595
▁exiled	-11.9596
▁ultra	-11.9597
▁Consequently	-11.9597
▁inaugural	-11.9597
▁leopard	-11.9597
▁telenovela	-11.9597
▁tsunami	-11.9597
▁Fernando	-11.9597
▁Crystal	-11.9597
▁infectious	-11.9597
▁Anybody	-11.9597
▁vaccination	-11.9597
▁Garcia	-11.9597
▁dynamics	-11.9597
▁Kaiser	-11.9598
▁attendance	-11.9598
▁blanket	-11.9599
▁Percy	-11.9599
▁prolonged	-11.9601
▁Vista	-11.9602
▁salts	-11.9604
▁Moses	-11.9604
▁1989.	-11.9604
▁commanding	-11.9606
▁Looking	-11.9607
rone	-11.9607
▁Lance	-11.9608
odor	-11.9609
fur	-11.9609
makers	-11.9611
▁Race	-11.9612
▁FDA	-11.9614
zin	-11.962
▁pause	-11.9621
▁Scouting	-11.9624
▁favored	-11.9625
▁pressed	-11.9626
▁torn	-11.9626
▁burnt	-11.9628
▁congress	-11.9629
▁scarce	-11.9629
▁infect	-11.9629
-22	-11.9629
▁Abe	-11.9636
▁complement	-11.9638
▁athletic	-11.9639
▁swept	-11.9639
▁Sophia	-11.9639
▁wrist	-11.964
▁chambers	-11.9642
▁layout	-11.9642
▁toxicity	-11.9642
▁Price	-11.9644
▁Luna	-11.9644
▁Cl	-11.9645
▁patrols	-11.9656
door	-11.9657
▁500,000	-11.9657
-24	-11.9661
▁considers	-11.9662
▁Ven	-11.9665
▁retrieve	-11.9665
▁projected	-11.9665
▁thermo	-11.9668
▁Stu	-11.9668
▁swords	-11.967
emon	-11.9672
▁Case	-11.9672
ann	-11.9674
ops	-11.9676
▁boarding	-11.9676
▁Ronald	-11.9678
August	-11.9678
especially	-11.9678
▁Fal	-11.9681
▁reversed	-11.9681
▁synonym	-11.9681
▁sting	-11.9681
▁Neptune	-11.9682
▁savage	-11.9682
▁Continu	-11.9682
▁Tamil	-11.9684
miya	-11.9687
▁temper	-11.9688
▁Sherman	-11.9688
▁pine	-11.9689
▁Interior	-11.969
▁tunnels	-11.9691
▁Zoo	-11.9692
▁traces	-11.9693
▁anticipated	-11.9695
▁strengthened	-11.9698
▁Yen	-11.97
▁rust	-11.9701
▁8,000	-11.9702
ibility	-11.9706
▁whales	-11.9707
▁Av	-11.9708
▁cub	-11.9711
mé	-11.9712
▁kin	-11.9714
udi	-11.9716
▁audiences	-11.9718
Roman	-11.9718
group	-11.9721
▁Russo	-11.9721
▁veteran	-11.9721
▁consul	-11.9721
English	-11.9721
▁immortal	-11.9724
ς	-11.9725
▁Adelaide	-11.9725
▁Animation	-11.9725
▁Connecticut	-11.9725
▁devastating	-11.9725
▁disadvantage	-11.9725
▁Concert	-11.9725
▁4-	-11.9725
▁Lagos	-11.9725
▁prescription	-11.9726
▁organizing	-11.9726
▁addiction	-11.9726
▁famine	-11.9727
▁Mala	-11.9729
▁Mitsu	-11.9729
▁wax	-11.9729
▁preservation	-11.973
▁yell	-11.9732
court	-11.9733
▁clusters	-11.9734
lea	-11.9734
▁Tran	-11.9734
▁1848	-11.9735
▁Yasu	-11.9735
▁modify	-11.9737
▁consistently	-11.974
bou	-11.974
aid	-11.9744
▁hunters	-11.9746
▁resemble	-11.9748
▁Louise	-11.9749
▁lobby	-11.975
▁multiply	-11.975
ending	-11.975
▁stimulate	-11.9751
▁Jet	-11.9755
▁refit	-11.9757
▁gran	-11.9758
very	-11.9761
▁valued	-11.9763
September	-11.9764
▁ambition	-11.9765
▁dinosaur	-11.9765
both	-11.9766
kra	-11.9766
▁headache	-11.9767
aru	-11.9767
▁460)}	-11.9768
▁Mikhail	-11.9768
▁fountain	-11.9768
▁Adventure	-11.9768
▁Depression	-11.9768
▁Savage	-11.9768
▁supermarket	-11.9769
▁Planning	-11.9769
▁moons	-11.977
▁NBC	-11.977
▁Evil	-11.977
▁undertaken	-11.9771
akh	-11.9771
▁closet	-11.9772
▁protesters	-11.9773
▁raped	-11.9775
▁bolt	-11.9776
▁Diana	-11.9777
▁purse	-11.9778
bun	-11.9778
▁2020.	-11.9785
▁wheels	-11.9787
▁helicopters	-11.9787
▁LG	-11.9789
▁wiped	-11.979
▁(2006)	-11.9791
▁linking	-11.9794
▁Pal	-11.9797
▁Cr	-11.9799
▁Chin	-11.9799
▁functioning	-11.98
▁incidents	-11.9801
▁evaluate	-11.9803
Not	-11.9806
▁Babylon	-11.9807
▁Survey	-11.9809
rp	-11.9809
▁neutron	-11.9809
▁mutation	-11.9809
June	-11.981
▁Professional	-11.9811
▁Ridge	-11.9811
▁lesbian	-11.9811
▁preceding	-11.9811
▁(2007)	-11.9811
▁perimeter	-11.9812
▁Madison	-11.9812
▁cardinal	-11.9812
▁Reid	-11.9812
▁supervision	-11.9812
▁cooperative	-11.9812
▁lip	-11.9813
▁Northwest	-11.9815
▁burns	-11.9816
Just	-11.9818
▁clearance	-11.9819
yuki	-11.982
▁François	-11.9821
▁skip	-11.9822
▁1500	-11.9824
aux	-11.9825
▁Kun	-11.9825
▁someplace	-11.983
▁questioning	-11.9831
▁shi	-11.9831
▁Manga	-11.9832
cate	-11.9832
▁hood	-11.9834
▁89	-11.9841
open	-11.9842
▁receiver	-11.9846
graphic	-11.9848
▁Lei	-11.9848
▁lectures	-11.985
▁intra	-11.9852
▁screens	-11.9853
[...]
