<unk>	0
<s>	0
</s>	0
<pad>	0
.	-3.23367
,	-3.45134
▁là	-4.28885
▁của	-4.29413
▁và	-4.32177
▁một	-4.53408
▁có	-4.54288
▁được	-4.67765
▁không	-4.75121
▁đã	-4.88633
▁tôi	-4.96208
▁trong	-4.96639
▁các	-4.99093
▁người	-5.09755
▁cho	-5.13667
▁với	-5.15123
▁năm	-5.21888
▁	-5.28079
▁ở	-5.29803
▁đó	-5.30286
▁ta	-5.31461
▁này	-5.32783
?	-5.34243
▁thể	-5.3862
▁những	-5.4148
▁vào	-5.50593
▁sẽ	-5.53577
▁anh	-5.55061
▁chúng	-5.59406
▁ra	-5.59593
▁đến	-5.61695
▁khi	-5.64814
▁làm	-5.64966
▁để	-5.64982
▁như	-5.71162
▁(	-5.74529
▁từ	-5.77143
▁sự	-5.77968
▁phải	-5.79801
▁nó	-5.82437
▁về	-5.82829
▁thành	-5.83735
▁Tôi	-5.8488
▁đầu	-5.87339
▁ông	-5.944
▁-	-5.96418
▁"	-5.97942
▁gì	-5.99572
▁tại	-5.99758
▁con	-6.00474
▁tháng	-6.00508
▁thế	-6.0056
▁lại	-6.01289
▁nói	-6.02063
▁bị	-6.0298
▁cô	-6.03717
▁đi	-6.06176
▁mà	-6.07158
▁biết	-6.07714
▁cũng	-6.07824
▁việc	-6.10172
▁ngày	-6.12337
▁trên	-6.14139
▁số	-6.14187
▁công	-6.1679
▁họ	-6.17065
▁nhà	-6.18829
)	-6.20174
▁Anh	-6.21098
...	-6.21291
▁cả	-6.21302
▁hơn	-6.22819
▁học	-6.23556
▁đây	-6.23968
▁nhất	-6.24231
▁chỉ	-6.24335
▁khác	-6.24377
▁đang	-6.26491
▁điều	-6.2802
▁chính	-6.2834
▁nhiều	-6.32895
▁bạn	-6.3306
▁gia	-6.33459
▁sau	-6.35772
▁thấy	-6.36557
▁thứ	-6.37788
▁mình	-6.40931
▁động	-6.41657
▁rằng	-6.418
▁cách	-6.42119
-	-6.42249
▁muốn	-6.43399
▁ấy	-6.43802
▁nào	-6.44975
▁quan	-6.45973
▁hiện	-6.47009
▁còn	-6.49101
▁nhưng	-6.49112
▁vì	-6.52196
▁em	-6.55268
▁rồi	-6.55458
:	-6.5615
▁sao	-6.56281
▁phát	-6.56489
▁cái	-6.57237
▁Và	-6.58134
▁cùng	-6.58142
▁thời	-6.5945
▁dụng	-6.59874
▁theo	-6.60304
▁hai	-6.60731
▁cuộc	-6.6083
▁1	-6.61219
▁nhân	-6.6202
"	-6.62577
▁rất	-6.62612
▁thì	-6.63087
▁thực	-6.63957
▁nghĩ	-6.65367
▁hành	-6.68093
▁sử	-6.68126
▁định	-6.68145
▁bởi	-6.68536
▁trước	-6.68816
▁Chúng	-6.69516
▁tới	-6.69958
▁bộ	-6.71018
▁hình	-6.72627
▁nhận	-6.72878
▁bản	-6.7288
▁giờ	-6.73583
▁bao	-6.7471
▁giới	-6.74747
▁chuyện	-6.75526
▁bằng	-6.75704
▁vậy	-6.78395
▁cậu	-6.78493
▁tự	-6.79135
▁nước	-6.7926
▁do	-6.7984
▁bắt	-6.80654
▁qua	-6.80683
▁cần	-6.80779
▁lớn	-6.81296
▁hợp	-6.8134
▁viên	-6.81538
▁xuất	-6.82076
▁trở	-6.8234
▁sinh	-6.82853
▁lên	-6.84147
▁chiến	-6.8484
▁kết	-6.84876
▁nên	-6.84912
!	-6.85724
▁tiên	-6.86308
▁quốc	-6.87402
▁phần	-6.88031
▁tên	-6.88151
▁tìm	-6.89108
▁đồng	-6.89668
▁tiếp	-6.9017
s	-6.9035
▁sống	-6.91789
▁hàng	-6.92037
▁mới	-6.93544
▁lý	-6.93602
▁Các	-6.94183
▁cơ	-6.94459
▁giải	-6.94919
▁hoặc	-6.95255
▁trình	-6.9559
▁Nhưng	-6.95703
▁gọi	-6.95741
▁trường	-6.96327
▁nữa	-6.97709
i	-6.97728
▁Nó	-6.97768
▁thường	-6.97814
▁tin	-6.98139
▁vị	-6.98151
▁đề	-6.99458
▁Một	-7.00111
▁Không	-7.01027
▁tạo	-7.01097
▁hay	-7.0118
▁lần	-7.01786
▁tính	-7.01941
▁tế	-7.0254
▁Có	-7.02792
▁lập	-7.02931
▁quân	-7.03409
▁thống	-7.03512
▁thông	-7.04009
▁Trong	-7.04074
▁vụ	-7.04077
▁đối	-7.04986
▁vật	-7.05237
▁đại	-7.05544
▁nhau	-7.06245
▁lượng	-7.06693
▁gian	-7.08353
▁ý	-7.08364
▁dân	-7.08964
▁hội	-7.09313
▁tiếng	-7.10007
▁nhiên	-7.10796
▁đâu	-7.10819
▁mọi	-7.11167
▁hệ	-7.11304
▁nơi	-7.11511
▁toàn	-7.12465
▁2	-7.1279
▁độ	-7.13273
▁máy	-7.13319
▁Ông	-7.14388
▁năng	-7.14465
▁bà	-7.14751
▁mặt	-7.14984
▁nếu	-7.14999
▁sản	-7.16201
n	-7.16729
▁vẫn	-7.17026
▁cao	-7.17208
▁phía	-7.17342
▁Cô	-7.17447
▁đường	-7.17716
▁đổi	-7.19305
▁diễn	-7.19387
▁bảo	-7.20091
▁chủ	-7.20234
▁khu	-7.20344
▁tất	-7.20911
▁loại	-7.20961
ng	-7.21114
▁ai	-7.21226
▁trị	-7.21351
▁quá	-7.2157
▁liên	-7.21981
▁tốt	-7.22346
▁lực	-7.22437
▁thay	-7.22633
▁đội	-7.23753
▁thật	-7.25146
▁tâm	-7.25497
▁thức	-7.25581
▁chức	-7.25596
▁cầu	-7.26864
▁thích	-7.26995
▁điểm	-7.27474
▁chuyển	-7.28242
▁quyền	-7.2825
▁hóa	-7.28942
▁tác	-7.29151
▁gồm	-7.29613
▁trung	-7.29713
▁chưa	-7.29924
▁3	-7.30644
▁Quốc	-7.31072
▁trọng	-7.32037
▁bất	-7.32344
▁cảm	-7.3253
▁đưa	-7.32924
▁sĩ	-7.34218
▁thiết	-7.34376
▁tranh	-7.34459
▁cuối	-7.34701
▁ảnh	-7.34719
▁đấy	-7.3553
▁nay	-7.35831
▁phố	-7.36
▁biệt	-7.36049
▁cứu	-7.36192
▁chết	-7.36465
▁cấp	-7.36708
▁Nếu	-7.38774
▁nghĩa	-7.38934
▁tập	-7.40051
▁vực	-7.40134
▁bỏ	-7.40337
a	-7.40631
▁chơi	-7.40789
▁bay	-7.4093
▁bố	-7.40949
▁phim	-7.40989
▁giữa	-7.41039
▁giáo	-7.41302
▁yêu	-7.41833
▁câu	-7.42424
▁triển	-7.42753
▁báo	-7.4299
▁khoảng	-7.43222
▁phân	-7.43305
▁ngoài	-7.44037
▁quả	-7.44484
▁bên	-7.449
▁đều	-7.44946
▁lúc	-7.44965
▁hoạt	-7.45271
).	-7.45394
▁ăn	-7.45418
▁tình	-7.45926
;	-7.45974
▁tay	-7.46005
▁nghiệp	-7.46072
▁giúp	-7.46123
▁tiền	-7.46418
▁hiệu	-7.47046
▁địa	-7.47231
▁kế	-7.47399
▁ba	-7.47599
▁phòng	-7.47967
▁hết	-7.4846
▁gần	-7.48695
▁hắn	-7.4895
▁sáng	-7.49879
▁nhìn	-7.49891
▁đánh	-7.49901
▁phương	-7.50306
▁nữ	-7.50384
▁từng	-7.50547
▁vấn	-7.50653
▁Trung	-7.50807
▁biến	-7.50934
▁pháp	-7.50941
▁tham	-7.51212
▁thuật	-7.51503
▁tương	-7.51756
▁giống	-7.51981
▁truyền	-7.5213
▁xem	-7.52544
▁chất	-7.52682
▁thôi	-7.52783
▁mất	-7.52826
▁đất	-7.52833
▁kinh	-7.53253
▁Sau	-7.53695
▁thị	-7.53849
▁gặp	-7.53988
▁kỳ	-7.54151
▁nhỏ	-7.54278
▁sát	-7.54358
▁tàu	-7.54369
▁khỏi	-7.54612
▁Năm	-7.54878
▁phụ	-7.55051
▁Mỹ	-7.55338
▁Đó	-7.5539
▁hoàn	-7.55495
m	-7.5562
▁Đây	-7.56048
▁dưới	-7.5607
▁trí	-7.5615
▁điện	-7.5619
▁nghe	-7.56216
▁đặc	-7.56223
▁giá	-7.56312
t	-7.56548
▁5	-7.57404
▁thuộc	-7.57423
▁liệu	-7.57795
▁mẹ	-7.58064
▁dùng	-7.58464
▁đơn	-7.59233
▁Những	-7.598
▁4	-7.60069
▁dịch	-7.60236
▁Hoa	-7.60254
),	-7.6079
▁chứ	-7.60891
▁lời	-7.6122
▁sách	-7.61469
▁đấu	-7.61557
▁văn	-7.61727
▁tử	-7.61732
▁dẫn	-7.61733
▁Em	-7.61746
▁tưởng	-7.62044
▁xác	-7.62154
▁10	-7.62189
▁chiếc	-7.63008
▁thủ	-7.63268
▁đạo	-7.63305
▁đặt	-7.63483
▁bình	-7.64452
▁nhạc	-7.64705
▁vài	-7.65463
▁vùng	-7.65613
▁bệnh	-7.66159
▁thương	-7.66566
▁chế	-7.67172
▁vô	-7.67195
▁bài	-7.6727
▁tổ	-7.67309
▁ngay	-7.67493
▁dự	-7.67646
▁ứng	-7.67947
▁dù	-7.6804
▁xe	-7.68051
▁quyết	-7.68394
▁tăng	-7.68395
▁tài	-7.69076
▁cứ	-7.69115
▁cố	-7.69487
▁thu	-7.69926
▁Họ	-7.70083
▁Vào	-7.70178
▁phẩm	-7.7053
▁tiêu	-7.70543
▁Nam	-7.708
▁viết	-7.71233
▁Khi	-7.71283
▁loài	-7.71312
▁trẻ	-7.71376
▁Vậy	-7.71444
▁kể	-7.71485
y	-7.71641
▁hỏi	-7.71687
▁gái	-7.71698
▁xảy	-7.71773
▁ban	-7.72884
▁tư	-7.7304
▁Kỳ	-7.73391
▁tục	-7.74021
▁6	-7.74095
▁đúng	-7.74506
▁mang	-7.74684
▁minh	-7.74771
▁hiểu	-7.74783
▁chứng	-7.75112
▁nhiệm	-7.75115
▁âm	-7.75568
▁tuổi	-7.7582
▁lấy	-7.75922
▁tiến	-7.76152
▁C	-7.7619
▁giết	-7.7635
▁nổi	-7.76392
▁giữ	-7.76492
▁phục	-7.76733
▁đảo	-7.77393
▁bán	-7.77631
▁cảnh	-7.77942
▁Ta	-7.78011
▁kỷ	-7.78067
▁đời	-7.7817
▁nhóm	-7.78357
▁Đại	-7.79102
▁nguyên	-7.79308
▁phép	-7.7978
▁phủ	-7.80049
▁trò	-7.80193
▁đáng	-7.80586
▁nằm	-7.80733
▁khí	-7.80934
▁mạnh	-7.8211
▁thân	-7.82302
▁đình	-7.82538
▁danh	-7.82642
▁dài	-7.82912
▁nghệ	-7.83154
▁mở	-7.83736
▁Con	-7.84069
▁7	-7.84296
'	-7.84432
▁tích	-7.84688
▁vệ	-7.85114
▁trưởng	-7.85117
▁trang	-7.85151
▁Cậu	-7.85173
▁luôn	-7.85809
▁Tây	-7.86089
▁thêm	-7.86219
▁tượng	-7.86406
▁thần	-7.8657
▁trai	-7.86909
▁đồ	-7.87046
▁mô	-7.87898
▁ít	-7.88202
▁nghiên	-7.88217
▁ty	-7.88531
▁mỗi	-7.88743
▁biển	-7.88998
▁tinh	-7.89023
▁giao	-7.89145
▁trả	-7.8961
▁Người	-7.89908
▁à	-7.9033
▁chọn	-7.90545
▁8	-7.90783
▁gây	-7.90833
▁chương	-7.90885
▁ngữ	-7.91104
▁cộng	-7.91134
▁cá	-7.91215
▁nhập	-7.91748
▁duy	-7.91934
▁hạn	-7.92011
▁di	-7.92207
▁sở	-7.92329
▁cung	-7.92466
▁nghiệm	-7.925
▁bóng	-7.93039
▁12	-7.93363
▁án	-7.93586
▁viện	-7.93595
▁dựng	-7.93756
▁rộng	-7.94011
▁xuống	-7.94416
▁mục	-7.94418
▁Nhật	-7.94524
▁yếu	-7.94619
▁phá	-7.94802
▁Vì	-7.94897
▁triệu	-7.95041
▁bé	-7.95398
▁trận	-7.95476
▁diện	-7.96326
▁xây	-7.96341
▁biểu	-7.96355
▁Đức	-7.96458
".	-7.96505
e	-7.96625
▁9	-7.96626
▁tối	-7.96737
▁tổng	-7.96972
▁hướng	-7.97032
▁châu	-7.97575
▁chi	-7.97646
▁khả	-7.98771
▁lẽ	-7.98831
▁lịch	-7.99036
▁đóng	-7.99205
▁Công	-7.9974
▁mùa	-7.99855
▁T	-8.00438
o	-8.00448
▁Pháp	-8.00509
▁phản	-8.00771
▁đủ	-8.00907
▁luật	-8.01023
▁lạc	-8.01026
▁thi	-8.01678
▁thuyết	-8.02052
▁Điều	-8.02081
▁nam	-8.02345
▁Liên	-8.02705
▁trợ	-8.02783
▁nguồn	-8.02889
."	-8.03069
▁đoàn	-8.03138
▁chí	-8.03173
▁Bản	-8.0329
▁hát	-8.03391
▁chắc	-8.03732
▁đông	-8.03832
▁cổ	-8.03969
▁kẻ	-8.04241
▁Tuy	-8.04622
▁vi	-8.04877
▁giả	-8.05397
▁lâu	-8.05465
▁Ba	-8.0554
▁hưởng	-8.05891
▁mạng	-8.06151
▁vai	-8.0647
▁sư	-8.06606
▁độc	-8.06712
▁khó	-8.06826
▁cha	-8.06875
▁dạng	-8.07454
▁tuần	-8.07904
▁giảm	-8.08214
u	-8.08306
▁11	-8.08455
▁Thế	-8.0879
▁vận	-8.09047
▁Bắc	-8.09475
▁nhớ	-8.09811
▁chú	-8.09937
▁vũ	-8.10153
▁tớ	-8.10403
▁thúc	-8.10403
▁chẳng	-8.1081
▁chống	-8.10912
▁xã	-8.11584
▁tra	-8.11838
▁cửa	-8.1201
▁đô	-8.12126
▁chung	-8.12319
▁kiện	-8.12467
▁lãnh	-8.12584
▁rõ	-8.12664
▁kiến	-8.12696
▁hãy	-8.12732
▁ký	-8.1291
▁hộ	-8.12914
▁mắt	-8.13054
▁kiểm	-8.13233
▁lỗi	-8.1356
▁cháu	-8.13789
▁đá	-8.13916
▁khoa	-8.13945
▁A	-8.14118
▁sức	-8.14139
▁mày	-8.14405
▁ngôi	-8.15182
▁khiến	-8.15476
▁hòa	-8.15938
▁tuyệt	-8.16366
▁lưu	-8.16399
▁cáo	-8.16863
▁Lan	-8.16893
▁thắng	-8.1704
▁cử	-8.17184
▁ghi	-8.17247
▁chỗ	-8.17276
▁xa	-8.17371
▁thư	-8.17576
▁đoạn	-8.17618
▁ca	-8.17685
▁riêng	-8.17686
▁chịu	-8.18087
▁cây	-8.1853
▁Bà	-8.18787
▁dụ	-8.19723
▁mặc	-8.19784
▁cư	-8.19991
▁chút	-8.20002
▁vòng	-8.20667
▁Phi	-8.20766
▁so	-8.21055
▁Do	-8.21199
▁chia	-8.21477
▁hoàng	-8.21517
▁thuốc	-8.21764
▁đàn	-8.22316
▁màu	-8.22475
▁thử	-8.22599
▁mức	-8.22777
▁B	-8.22917
▁quản	-8.23361
c	-8.23828
▁chuẩn	-8.24096
▁bọn	-8.24186
▁đôi	-8.24464
▁mua	-8.24737
▁Sao	-8.24853
▁chạy	-8.24992
▁quay	-8.25181
▁tồn	-8.25231
▁khách	-8.25457
▁vọng	-8.25468
▁K	-8.25831
▁hôn	-8.26038
▁bang	-8.2643
▁tiết	-8.26582
▁xin	-8.26706
▁an	-8.26873
▁Bộ	-8.26951
▁lợi	-8.27031
▁New	-8.27112
▁quanh	-8.27555
▁kiếm	-8.27687
▁Âu	-8.27945
▁đẹp	-8.28009
▁Chỉ	-8.28636
▁hữu	-8.28788
▁I	-8.29451
▁The	-8.2955
▁đứa	-8.2963
▁Hãy	-8.29678
▁Ý	-8.29714
▁Tại	-8.29764
▁ơn	-8.29922
▁tiểu	-8.30249
▁kích	-8.30403
▁áp	-8.30546
▁sân	-8.30964
▁đứng	-8.30986
▁Ngày	-8.31208
▁thanh	-8.31382
▁luận	-8.31432
▁dành	-8.31437
▁tội	-8.31571
▁hôm	-8.31876
▁cập	-8.31884
▁lệ	-8.31946
▁gốc	-8.32633
▁bắc	-8.33252
▁lắm	-8.33269
▁vừa	-8.3353
▁S	-8.33994
▁hậu	-8.34253
▁bức	-8.34273
▁dục	-8.34907
▁vẻ	-8.35425
▁tả	-8.35514
▁trực	-8.35813
▁kia	-8.35858
▁ngoại	-8.35967
▁đạt	-8.36306
▁hoạch	-8.36779
▁dễ	-8.36803
▁quy	-8.36981
▁sông	-8.37134
▁lo	-8.37255
▁cực	-8.37366
▁Ban	-8.37519
▁tao	-8.37646
▁nhanh	-8.38049
▁Bạn	-8.38101
▁Đông	-8.38177
▁ngài	-8.3853
▁đêm	-8.39417
▁vui	-8.39739
▁20	-8.39835
▁bầu	-8.39903
▁Thái	-8.39975
▁phạm	-8.40096
▁chị	-8.40219
▁...	-8.40276
▁bây	-8.40337
▁trái	-8.40495
▁hạng	-8.40507
▁Sự	-8.40693
▁bắn	-8.40739
▁toán	-8.40849
▁trời	-8.4091
▁thiên	-8.40951
▁khai	-8.40978
▁N	-8.41128
▁xử	-8.41129
▁doanh	-8.41352
▁vua	-8.41522
▁Ở	-8.4163
▁Từ	-8.41819
▁y	-8.4188
▁Theo	-8.41914
▁buổi	-8.42035
▁sang	-8.42036
▁La	-8.42207
▁coi	-8.42213
▁phong	-8.42241
▁ngôn	-8.42243
▁sợ	-8.42552
▁bàn	-8.42585
▁ước	-8.42796
▁nghị	-8.42855
▁thú	-8.42908
▁Được	-8.42924
▁nội	-8.42935
▁kỹ	-8.43241
▁Để	-8.43426
▁of	-8.43504
▁mấy	-8.43526
▁nền	-8.43868
▁suy	-8.43993
▁tộc	-8.44101
▁hầu	-8.44729
▁chuyên	-8.4475
▁15	-8.44861
▁phổ	-8.44925
▁lòng	-8.4521
▁mối	-8.45356
▁chiếm	-8.4563
▁mẫu	-8.46123
▁nhiệt	-8.46396
▁chân	-8.46579
▁sắc	-8.47859
▁tỉnh	-8.47935
▁thoại	-8.47951
",	-8.48072
▁giành	-8.48116
▁Tổng	-8.48137
▁bại	-8.48346
▁chấp	-8.48903
▁rời	-8.49159
▁D	-8.49283
▁Nha	-8.49467
▁đa	-8.49545
▁Nhà	-8.49712
▁ngươi	-8.49815
▁Ai	-8.50337
▁dựa	-8.51003
▁xếp	-8.51144
▁thập	-8.51547
▁phí	-8.5164
▁phiên	-8.51824
▁tuyên	-8.51935
▁đầy	-8.5196
▁núi	-8.52005
▁thất	-8.52172
▁cánh	-8.52238
▁tây	-8.5235
▁--	-8.52515
▁cụ	-8.52822
▁suốt	-8.53042
▁niên	-8.53042
▁binh	-8.53288
▁cạnh	-8.53581
▁Ấn	-8.53682
▁trúc	-8.53832
▁lệnh	-8.5415
▁bác	-8.54156
▁Nga	-8.54209
h	-8.54307
C	-8.54387
▁de	-8.54663
▁phút	-8.54799
▁hại	-8.54866
▁M	-8.55192
▁kéo	-8.55231
▁dữ	-8.55478
2	-8.55639
▁thấp	-8.55677
▁tuyến	-8.55678
▁buộc	-8.55776
▁hiểm	-8.56427
▁soát	-8.56654
▁càng	-8.56707
▁sẵn	-8.5683
▁miền	-8.57314
▁giác	-8.57791
▁khá	-8.57793
▁Tất	-8.57936
▁tố	-8.58069
▁căn	-8.58288
▁dấu	-8.5846
▁dòng	-8.58837
▁bào	-8.58856
▁hồi	-8.58929
▁Độ	-8.58932
▁băng	-8.5926
▁Cho	-8.59445
▁tòa	-8.5948
▁nhé	-8.59751
▁đoán	-8.59879
▁Chúa	-8.60046
▁hơi	-8.60327
▁huy	-8.60625
▁bước	-8.60876
▁chuyến	-8.61109
▁sắp	-8.61161
▁sai	-8.61199
▁hạt	-8.61298
▁gắng	-8.61696
▁vợ	-8.61749
▁trụ	-8.61952
▁biên	-8.62225
▁the	-8.62326
▁đổ	-8.62393
▁tạp	-8.62515
▁cấu	-8.62704
▁cuốn	-8.62927
▁tức	-8.62975
▁bốn	-8.63219
▁phi	-8.63595
▁cải	-8.64201
▁máu	-8.64459
▁trạng	-8.64648
▁kiểu	-8.64731
▁luyện	-8.65303
▁mật	-8.65413
▁Hoàng	-8.65507
▁in	-8.65515
▁hạ	-8.65526
▁Giờ	-8.65584
▁Chiến	-8.6568
▁lễ	-8.65856
▁quần	-8.65951
▁hỗ	-8.66039
▁Hắn	-8.66219
▁nối	-8.6638
▁súng	-8.66491
▁du	-8.6655
▁môi	-8.67031
▁hủy	-8.67441
▁xét	-8.67586
▁chắn	-8.67805
▁lai	-8.68071
▁đừng	-8.68403
g	-8.68616
▁Chính	-8.68637
▁trao	-8.68855
▁thái	-8.6894
▁nạn	-8.69111
▁địch	-8.69195
▁Làm	-8.69459
▁xung	-8.69574
▁Cái	-8.69944
▁nguy	-8.70244
▁Đừng	-8.7028
▁tỷ	-8.70434
▁tái	-8.70655
▁Hai	-8.70679
▁ổn	-8.70981
▁thuận	-8.71069
▁H	-8.71318
▁trừ	-8.71383
▁chứa	-8.71927
▁đau	-8.72046
▁hồ	-8.72144
▁Cộng	-8.72187
d	-8.7239
▁album	-8.72658
▁lộ	-8.72723
▁30	-8.72791
▁16	-8.73011
▁giản	-8.73201
▁ngắn	-8.73333
▁Hải	-8.73367
▁đốc	-8.73395
▁trách	-8.73424
▁ràng	-8.73485
▁ánh	-8.73781
▁Với	-8.73848
▁tôn	-8.7394
▁phóng	-8.74203
▁đài	-8.74242
▁m	-8.74275
▁Tớ	-8.74598
▁hả	-8.74615
▁nghi	-8.7464
▁giai	-8.74807
▁Cha	-8.74986
▁trải	-8.75234
▁sớm	-8.75257
▁uống	-8.75349
▁gửi	-8.75411
▁Việc	-8.75844
▁tướng	-8.75987
▁sâu	-8.76201
▁niệm	-8.76293
▁Phải	-8.76639
▁vương	-8.76667
▁ngủ	-8.76691
▁“	-8.77038
▁ko	-8.7719
▁sóng	-8.77403
▁–	-8.77635
▁cũ	-8.77644
▁cận	-8.78087
▁dung	-8.78358
▁thưởng	-8.78399
▁to	-8.78516
▁nhiễm	-8.78525
▁14	-8.78766
▁đọc	-8.78874
▁Còn	-8.79075
▁dạy	-8.79414
▁ngành	-8.79416
▁Hội	-8.79519
▁bổ	-8.7973
▁đích	-8.79881
▁ngồi	-8.79881
▁lửa	-8.80041
▁ngăn	-8.80647
▁giám	-8.80896
▁vàng	-8.80909
▁đế	-8.81034
▁Thật	-8.8108
▁thoát	-8.8129
▁trấn	-8.81322
▁đột	-8.81503
▁quý	-8.81531
▁khởi	-8.81742
▁P	-8.81747
▁xúc	-8.81872
▁km	-8.81965
▁sàng	-8.82558
▁Việt	-8.82628
▁tốc	-8.82654
▁Bây	-8.82663
er	-8.82672
▁Mẹ	-8.82966
l	-8.83042
▁khắp	-8.83209
▁tù	-8.83255
▁Mặc	-8.83444
▁ví	-8.83753
▁ngựa	-8.83844
▁'	-8.84405
▁tệ	-8.84485
▁nông	-8.84534
▁la	-8.84534
▁chữ	-8.84843
▁chiều	-8.84936
▁R	-8.85034
▁mại	-8.85036
▁lựa	-8.85133
A	-8.85155
▁thờ	-8.85309
▁vời	-8.85649
D	-8.85703
▁bảng	-8.8592
▁dương	-8.86109
▁G	-8.86165
▁bờ	-8.86354
▁chờ	-8.86449
▁13	-8.86535
▁vượt	-8.8662
▁Mọi	-8.868
▁trì	-8.86814
▁tấn	-8.87163
▁kịch	-8.87333
▁nửa	-8.87337
▁mong	-8.87407
▁nặng	-8.87436
▁sửa	-8.87607
▁da	-8.88028
thậm	-8.8818
▁nổ	-8.88306
▁khẩu	-8.88365
▁F	-8.88421
▁bí	-8.88463
▁não	-8.88542
p	-8.88814
▁khủng	-8.88889
▁ích	-8.88893
▁Xô	-8.88962
▁Á	-8.89142
▁thằng	-8.89202
▁Giải	-8.89367
▁Mã	-8.89446
▁tín	-8.89797
▁lục	-8.90323
▁II	-8.90522
▁đảm	-8.90534
▁cười	-8.90613
▁thổ	-8.90616
▁17	-8.90683
▁hoa	-8.90707
▁thiện	-8.90818
▁nghỉ	-8.91066
▁trông	-8.911
▁ma	-8.9118
▁V	-8.91441
▁nhằm	-8.91563
▁t	-8.91834
▁thăm	-8.9192
▁áo	-8.91984
▁kì	-8.92123
▁xuyên	-8.92279
▁cắt	-8.92424
▁York	-8.92735
▁thẳng	-8.92936
▁Là	-8.92965
▁khoản	-8.93891
▁tim	-8.93977
▁sơ	-8.93999
▁loạt	-8.94095
▁lĩnh	-8.94461
▁khăn	-8.95034
▁Hy	-8.95079
▁đĩa	-8.95351
▁ủng	-8.95801
▁Thành	-8.9585
▁đợi	-8.95905
▁18	-8.95947
▁O	-8.96491
▁thủy	-8.97011
▁Dương	-8.9741
▁chồng	-8.97484
S	-8.97506
▁phối	-8.97537
B	-8.97587
▁họa	-8.97591
tiếng	-8.97621
▁tịch	-8.97676
▁hải	-8.97677
▁Trái	-8.9772
▁c	-8.97831
▁U	-8.98041
▁L	-8.98137
▁nhiêu	-8.98398
▁phận	-8.98665
▁tầm	-8.98934
▁xấu	-8.99011
▁thiếu	-8.99246
▁suất	-8.99396
▁rối	-8.99473
▁Châu	-8.99789
▁E	-9.00157
▁đẩy	-9.00408
▁rút	-9.00506
▁mã	-9.00763
▁tiện	-9.00874
r	-9.01103
▁Bởi	-9.01273
▁phức	-9.01543
▁khỏe	-9.01623
▁Ngoài	-9.01703
▁rừng	-9.01863
▁đám	-9.01869
▁John	-9.01985
▁linh	-9.02024
▁Vương	-9.02107
▁Ả	-9.0215
▁nghiêm	-9.02302
▁Xin	-9.02347
▁thưa	-9.02363
▁Giáo	-9.02444
▁lính	-9.02539
▁loạn	-9.02741
▁Như	-9.02826
b	-9.0299
▁nuôi	-9.03014
▁trùng	-9.03139
▁thí	-9.03281
▁hy	-9.03669
▁nhỉ	-9.03716
k	-9.03988
▁khắc	-9.04101
▁thiệu	-9.04303
▁lạ	-9.04347
▁lá	-9.04529
▁Trước	-9.04594
▁bánh	-9.04917
▁San	-9.05009
x	-9.05067
▁món	-9.05117
▁ngờ	-9.05119
T	-9.05972
▁dần	-9.05982
▁n	-9.06034
▁đăng	-9.06356
▁Hàn	-9.06409
▁100	-9.06421
▁tầng	-9.06443
▁giấy	-9.07312
▁trại	-9.0735
▁tránh	-9.07355
▁triều	-9.07602
▁chiếu	-9.07606
▁?	-9.0798
▁kính	-9.08114
▁25	-9.08514
3	-9.08739
▁nhờ	-9.08962
▁phê	-9.08986
us	-9.09037
▁a	-9.09142
▁góp	-9.09463
▁mời	-9.09486
▁kim	-9.09784
▁thừa	-9.09978
▁lớp	-9.10198
▁bày	-9.10377
▁đỏ	-9.10499
▁chủng	-9.10645
▁Rập	-9.10711
▁sáu	-9.10889
▁mai	-9.11045
▁thơ	-9.112
▁tải	-9.11388
▁)	-9.11463
▁rượu	-9.11668
▁trắng	-9.11712
▁quên	-9.11786
▁Mặt	-9.11805
▁Nhiều	-9.11845
▁thù	-9.11855
▁chữa	-9.11883
▁trốn	-9.1213
▁làng	-9.1232
▁thảo	-9.1243
▁dầu	-9.12543
▁tuyển	-9.12676
▁khám	-9.12677
in	-9.12696
▁trữ	-9.12719
▁đỡ	-9.12763
▁Tên	-9.12837
▁Dù	-9.13094
▁dậy	-9.13161
▁Nói	-9.13387
▁dây	-9.13561
▁Đến	-9.13981
▁huấn	-9.14052
▁nhật	-9.14101
▁hút	-9.14233
▁phù	-9.14234
▁rơi	-9.14366
▁trưng	-9.14455
▁trăm	-9.145
▁lược	-9.14589
▁Mày	-9.1462
F	-9.14776
▁ô	-9.14844
▁cơn	-9.14936
▁màn	-9.15096
▁Cuộc	-9.15202
▁trục	-9.15492
▁ngân	-9.15629
▁khiển	-9.15884
▁tận	-9.16084
▁Phần	-9.16276
▁nhắc	-9.16497
▁chăm	-9.16499
▁chó	-9.167
▁đảng	-9.16729
▁Quân	-9.17055
▁24	-9.17091
▁Bọn	-9.1711
▁tai	-9.17122
▁nóng	-9.17124
▁chảy	-9.17345
▁mộ	-9.17778
▁vốn	-9.18069
▁hề	-9.18206
▁đào	-9.1821
▁19	-9.18226
▁Bố	-9.18254
▁điên	-9.18432
▁lắng	-9.18438
▁xanh	-9.18469
▁and	-9.18595
▁vẽ	-9.18766
la	-9.19021
▁Tháng	-9.19196
▁Nghe	-9.19198
▁lao	-9.19209
▁Lạp	-9.19238
▁nhảy	-9.19244
▁siêu	-9.1934
▁hấp	-9.19499
▁hạnh	-9.19986
M	-9.20299
▁mơ	-9.20444
▁Cả	-9.20489
▁Al	-9.20498
▁phúc	-9.20527
H	-9.20763
▁phán	-9.20788
▁môn	-9.20804
▁video	-9.20952
▁xâm	-9.21427
▁Chắc	-9.21534
▁xong	-9.21622
▁chỉnh	-9.21764
▁pháo	-9.21786
▁tách	-9.21857
▁tắc	-9.21959
▁đuổi	-9.22006
▁song	-9.22078
▁gã	-9.22205
1	-9.22439
▁dừng	-9.22491
sinh	-9.22709
▁Đảng	-9.22842
▁bom	-9.23006
▁tờ	-9.23088
▁thỏa	-9.23135
▁thụ	-9.23352
▁&	-9.23363
▁Chủ	-9.23508
▁miễn	-9.23572
▁Úc	-9.23621
▁sóc	-9.2406
▁chúa	-9.24251
▁tước	-9.24457
▁ngược	-9.24507
▁săn	-9.24606
▁Tao	-9.24812
▁sẻ	-9.24904
▁Nhân	-9.24917
▁cân	-9.25154
▁21	-9.25164
▁nỗ	-9.2521
▁dàng	-9.2541
▁chàng	-9.25458
▁đo	-9.25521
▁lái	-9.25823
▁Rồi	-9.25913
▁chối	-9.26107
▁quen	-9.26265
▁Y	-9.26397
▁Đúng	-9.26477
▁ẩn	-9.26551
▁Cũng	-9.26567
▁sót	-9.26612
▁lạnh	-9.26672
I	-9.26968
▁truyện	-9.27021
ch	-9.27132
▁x	-9.272
▁thuyền	-9.27325
▁Canada	-9.27334
▁đỉnh	-9.27484
▁Bảo	-9.27489
▁ly	-9.27516
▁đương	-9.27529
▁Cháu	-9.27592
▁kháng	-9.27635
▁mừng	-9.27683
▁hứng	-9.27734
▁hãng	-9.27738
▁Vâng	-9.27831
▁mềm	-9.2794
▁Hiệp	-9.28104
▁tấm	-9.28146
▁2007	-9.28285
▁Hồi	-9.28709
▁thịt	-9.28758
▁hiệp	-9.28824
▁b	-9.28932
▁Này	-9.29
▁mẽ	-9.29336
▁Na	-9.2936
▁đe	-9.29666
▁Bình	-9.29708
▁mạch	-9.29821
▁truy	-9.30071
▁nắm	-9.30225
▁J	-9.30343
–	-9.30806
▁X	-9.30829
ra	-9.30898
▁Đất	-9.3118
▁bão	-9.31341
▁cầm	-9.31602
▁Lúc	-9.31766
▁Thụy	-9.31826
Tôi	-9.31841
▁ấn	-9.31975
▁tường	-9.32031
N	-9.32128
K	-9.32357
▁hè	-9.32435
▁mãi	-9.32641
▁tàng	-9.32642
▁đáp	-9.32718
▁mắc	-9.32838
▁Bài	-9.33092
▁Ngài	-9.33125
▁Tư	-9.33186
▁hứa	-9.33267
▁khúc	-9.3343
?"	-9.33702
▁Thiên	-9.33828
▁chim	-9.33946
en	-9.34096
▁game	-9.3417
↑	-9.34247
(	-9.34402
an	-9.34476
▁50	-9.34681
▁diệt	-9.34746
▁già	-9.35016
▁cai	-9.35105
▁cưới	-9.35571
▁mười	-9.35736
▁bữa	-9.35737
▁22	-9.35832
▁Cập	-9.35853
▁mái	-9.36136
▁nguyện	-9.36182
▁cường	-9.36183
▁trào	-9.36195
4	-9.36252
ri	-9.36273
▁dọa	-9.36461
▁nâng	-9.36463
▁lẫn	-9.36573
▁hài	-9.36638
na	-9.36687
ta	-9.36736
▁họp	-9.37022
▁thao	-9.37155
▁quang	-9.37591
▁tán	-9.37627
▁Nên	-9.37714
▁♪	-9.37768
▁Truy	-9.37964
▁Cơ	-9.37972
▁hùng	-9.38044
▁quỹ	-9.38153
▁sắt	-9.38325
▁xứ	-9.38389
▁xạ	-9.3846
▁Khu	-9.38463
▁bề	-9.38504
▁Dân	-9.38675
G	-9.38714
man	-9.38821
▁chụp	-9.38839
O	-9.38951
▁Ví	-9.3897
▁quận	-9.38976
▁chặn	-9.38993
▁chạm	-9.39011
&	-9.39055
▁thuê	-9.39346
▁khảo	-9.39439
es	-9.39476
▁phỏng	-9.39528
▁tỏ	-9.39604
▁Chuyện	-9.39656
▁ạ	-9.40033
▁quyển	-9.40167
▁buồn	-9.40497
▁giỏi	-9.40576
▁dọc	-9.40631
▁tá	-9.40848
▁23	-9.40861
▁phiếu	-9.40866
▁dị	-9.40986
▁bạc	-9.41256
E	-9.4127
▁Trường	-9.41348
▁nhẹ	-9.41496
▁ngừng	-9.41512
on	-9.41728
▁Tiên	-9.41923
▁tàn	-9.42428
▁ưu	-9.42669
▁yên	-9.42708
▁Câu	-9.4277
▁Đế	-9.4301
▁s	-9.43037
▁Ngay	-9.43046
▁xu	-9.4308
▁tắt	-9.43292
▁bạo	-9.43296
▁vỡ	-9.43351
”.	-9.43483
▁Triều	-9.43654
▁dặm	-9.44556
▁À	-9.4466
ia	-9.44742
▁Thực	-9.44871
▁hàm	-9.45024
▁cặp	-9.45044
▁hẹn	-9.45164
▁xương	-9.45349
đem	-9.45451
▁hạm	-9.45525
▁vết	-9.4578
▁kênh	-9.45788
▁dối	-9.45839
ing	-9.45895
▁thước	-9.46023
▁phái	-9.462
▁Mỗi	-9.46216
▁Kinh	-9.46221
▁Đội	-9.46265
▁tỉ	-9.46325
▁ngầm	-9.46331
▁cờ	-9.46335
▁liệt	-9.46454
▁mét	-9.46478
▁giàu	-9.46613
▁sa	-9.46615
▁tống	-9.46645
▁hoang	-9.46653
▁Đã	-9.46717
P	-9.46765
▁cấm	-9.46828
▁web	-9.46833
▁lầm	-9.46893
v	-9.46904
▁chuỗi	-9.46951
▁trích	-9.47075
▁Kim	-9.47213
▁đạn	-9.47262
▁bật	-9.47387
▁giây	-9.47449
▁gió	-9.47517
▁tổn	-9.47526
▁nỗi	-9.47571
▁ngàn	-9.47643
▁Cuố	-9.47681
▁vĩ	-9.48138
▁26	-9.48143
▁lí	-9.48158
▁Thủ	-9.48544
▁kê	-9.48602
▁27	-9.48955
▁thuế	-9.49039
▁tan	-9.49093
L	-9.4954
-19	-9.49544
▁{\	-9.49552
▁thách	-9.49742
▁góc	-9.4985
z	-9.49905
▁trống	-9.50131
▁thận	-9.5017
▁l	-9.50213
▁28	-9.50395
▁League	-9.50603
▁thác	-9.5073
▁Chú	-9.50735
▁mưa	-9.50879
▁Ủ	-9.5097
▁thẩm	-9.51202
▁niềm	-9.51398
▁thánh	-9.51402
▁cà	-9.5153
▁quán	-9.51576
▁tạm	-9.51724
▁khối	-9.5193
▁Cách	-9.51935
▁đức	-9.52049
▁thiệt	-9.52377
▁ống	-9.52392
▁v	-9.52651
▁California	-9.5271
▁hiến	-9.52783
nh	-9.53103
▁gắn	-9.53215
▁khóa	-9.53298
▁ngạc	-9.53544
▁giáp	-9.53663
▁bảy	-9.5371
▁Giá	-9.53718
▁thai	-9.53768
ể	-9.53812
▁Mình	-9.54121
le	-9.54193
▁tu	-9.54219
▁vong	-9.54307
▁bãi	-9.54578
Cười	-9.54589
▁sung	-9.54751
▁cãi	-9.54766
▁tặng	-9.54833
một	-9.54968
▁hoá	-9.55236
▁cháy	-9.55372
▁một	-9.55373
▁phó	-9.55447
▁al	-9.55637
▁thăng	-9.55643
▁Thượng	-9.55789
▁thải	-9.55864
▁Chị	-9.55892
▁An	-9.55999
▁chóng	-9.56024
▁ung	-9.56026
▁chậm	-9.5605
▁tiệc	-9.56459
▁lan	-9.56556
▁bậc	-9.5667
do	-9.5685
▁ném	-9.56944
▁d	-9.57064
▁huyện	-9.57222
▁bò	-9.57225
▁Viện	-9.57226
al	-9.5735
▁29	-9.57422
▁can	-9.57561
▁giọng	-9.57565
▁lượt	-9.57628
▁nhu	-9.5775
▁lưới	-9.57766
▁hư	-9.57851
▁Đồng	-9.57863
▁gấp	-9.57907
▁tĩnh	-9.58043
▁đòi	-9.58045
▁khổ	-9.58109
re	-9.5816
▁lối	-9.58199
▁rãi	-9.58286
▁Thứ	-9.58378
▁trú	-9.58562
▁Lần	-9.58606
▁Hà	-9.58622
▁hộp	-9.5902
ne	-9.5907
▁tiêm	-9.59093
▁nhánh	-9.59161
▁lũ	-9.59253
▁Paris	-9.59256
▁ác	-9.59437
▁ơi	-9.59465
▁tuy	-9.59505
▁cứng	-9.59521
f	-9.59522
▁Sẽ	-9.59528
▁lương	-9.59726
▁Đi	-9.59844
▁viễn	-9.59867
▁Về	-9.59884
▁40	-9.6001
▁tháp	-9.60219
ma	-9.60232
▁cướp	-9.60504
▁Hiện	-9.6058
▁vườn	-9.60593
▁mũi	-9.60692
▁tóc	-9.60718
▁sạch	-9.60933
▁Hạ	-9.60942
▁thầy	-9.61074
▁miệng	-9.61082
▁hiếm	-9.61433
▁Nữ	-9.6151
▁dưỡng	-9.61576
ka	-9.61579
▁may	-9.62016
▁St	-9.6212
▁Ngươi	-9.62236
th	-9.62366
▁chấm	-9.62444
ed	-9.62493
▁2004	-9.62706
▁ngọn	-9.62838
hẳng	-9.62947
▁Hầu	-9.62953
--	-9.63035
▁chào	-9.63101
▁tùy	-9.63132
▁trồng	-9.63171
▁nghèo	-9.6339
▁thang	-9.63536
▁W	-9.63686
▁phạt	-9.63978
▁0	-9.64045
▁vinh	-9.64161
▁Hồng	-9.64255
▁nghề	-9.6457
▁đua	-9.64575
▁Đào	-9.64648
▁Cứ	-9.64952
▁hòn	-9.64971
▁James	-9.65173
▁mạc	-9.65297
▁Rất	-9.6533
▁World	-9.65347
▁Danh	-9.6535
▁chặt	-9.65687
▁bè	-9.65729
de	-9.65763
▁mỏ	-9.65821
▁thả	-9.65932
▁Ừ	-9.65947
▁đới	-9.66062
▁cựu	-9.66078
Tiếng	-9.66081
▁cảng	-9.66294
▁Trên	-9.66374
▁Thổ	-9.6661
▁kêu	-9.6663
▁hồn	-9.66697
▁đốt	-9.66902
▁George	-9.66941
▁Ma	-9.67035
V	-9.67073
▁Bồ	-9.67086
▁Nội	-9.67198
▁Đài	-9.67296
▁thua	-9.67403
▁hương	-9.67579
▁giận	-9.67731
no	-9.67747
da	-9.67795
▁dường	-9.67809
▁Thời	-9.68064
▁Cổ	-9.68133
▁nàng	-9.68277
▁Văn	-9.68842
▁ghét	-9.69066
▁khích	-9.69101
▁khái	-9.69246
▁ổng	-9.69349
▁mi	-9.69388
▁dãy	-9.69465
R	-9.69473
▁giảng	-9.6962
▁che	-9.69942
▁Chi	-9.69959
▁hoảng	-9.69979
▁khuôn	-9.70071
el	-9.70109
▁Israel	-9.70141
▁Đầu	-9.70294
▁khuẩn	-9.70453
▁Oh	-9.70471
▁ninh	-9.7076
▁liền	-9.71075
▁El	-9.71077
▁Syria	-9.7108
▁tri	-9.71171
▁Cảm	-9.71189
▁mệnh	-9.71233
▁ngang	-9.71239
▁Di	-9.71406
▁thượng	-9.71471
▁rắc	-9.71472
▁miêu	-9.71635
▁Đối	-9.71646
▁người	-9.71709
▁Hay	-9.7183
▁hẳn	-9.7185
▁tảng	-9.72402
▁Hôm	-9.72518
▁London	-9.72595
▁kém	-9.72749
▁Minh	-9.72822
▁quái	-9.72857
▁đẳng	-9.72991
▁Giố	-9.73052
▁phẫu	-9.73072
▁xứng	-9.73176
▁khứ	-9.73239
▁Tòa	-9.73322
▁^	-9.7339
▁kỉ	-9.73712
ton	-9.73723
▁hà	-9.73757
▁Số	-9.7386
▁Nhìn	-9.74064
▁Mexico	-9.74133
▁Hệ	-9.74227
▁Sinh	-9.74344
▁tám	-9.74372
to	-9.74529
▁ghế	-9.75027
▁mảnh	-9.75028
▁dõi	-9.75109
▁cản	-9.75121
▁đập	-9.75192
▁tụ	-9.75234
▁điệu	-9.75274
▁Windows	-9.75447
▁nợ	-9.75524
▁ga	-9.75645
▁Thánh	-9.75782
▁ngốc	-9.7602
▁thiểu	-9.76021
▁sổ	-9.76186
▁lâm	-9.7627
▁=	-9.76281
▁kho	-9.76994
▁Cùng	-9.77024
▁hảo	-9.77115
ên	-9.7723
▁ngại	-9.77273
▁khuyế	-9.77454
▁hào	-9.77477
▁ức	-9.77511
▁ảo	-9.77983
▁ngu	-9.78013
▁Thông	-9.78055
▁được	-9.78118
▁tồi	-9.78374
▁Địa	-9.78467
5	-9.78506
▁gen	-9.7852
▁+	-9.78544
▁Khoa	-9.78693
▁axit	-9.78721
lt	-9.79218
▁phe	-9.79541
▁mưu	-9.79658
▁sạn	-9.7966
▁phiền	-9.79746
▁ủy	-9.79767
ro	-9.79863
▁sánh	-9.79918
▁31	-9.8004
▁điệp	-9.80089
▁Tập	-9.80109
▁tròn	-9.80124
▁lỗ	-9.80256
▁Ra	-9.80291
▁chinh	-9.80307
▁thở	-9.80356
▁Tổ	-9.80391
▁giam	-9.80723
▁Dự	-9.80835
▁giấu	-9.80871
▁Trời	-9.80972
▁Điển	-9.81134
▁biện	-9.81396
▁Hình	-9.81489
is	-9.81633
displaystyle	-9.81675
▁thảm	-9.81808
▁khơi	-9.821
▁cất	-9.82101
▁ám	-9.82103
”	-9.82154
▁hỏng	-9.82573
▁vịnh	-9.82667
▁e	-9.82717
▁chuột	-9.82899
▁Tự	-9.82972
▁Cup	-9.82988
▁Sân	-9.82992
▁Bác	-9.83225
▁hiển	-9.83344
▁lừa	-9.83612
▁điển	-9.83647
▁Sa	-9.83766
▁gỗ	-9.83792
▁David	-9.83805
▁dứt	-9.83972
▁chép	-9.84062
ly	-9.84216
▁khấu	-9.84422
▁trộm	-9.84516
▁Charles	-9.84518
▁Me	-9.84569
▁Ko	-9.84786
▁tha	-9.84813
▁III	-9.84889
▁USD	-9.84966
▁2011,	-9.85088
6	-9.85201
▁nhóc	-9.8524
▁2010,	-9.85336
▁Mà	-9.85452
▁cỡ	-9.85512
▁hỗn	-9.85556
▁chu	-9.85575
▁ư	-9.85745
▁thám	-9.85789
▁bá	-9.85809
▁mê	-9.85823
▁lẻ	-9.85861
▁Lý	-9.85896
▁lành	-9.86132
▁Nhĩ	-9.86154
▁So	-9.86157
▁tung	-9.86374
▁Kết	-9.86472
▁đền	-9.86505
▁bối	-9.86506
▁William	-9.86516
▁hỏa	-9.86539
▁đồn	-9.86706
▁hi	-9.86854
te	-9.87152
▁1980	-9.87651
▁g	-9.87713
▁tiềm	-9.87732
▁căng	-9.87793
#244;	-9.87823
▁Thôi	-9.87841
▁đựng	-9.87918
▁đèn	-9.87934
▁lông	-9.87951
▁nhầm	-9.88011
▁Paul	-9.88043
▁tiếc	-9.88107
▁Phòng	-9.88118
▁De	-9.88118
▁Học	-9.88164
▁đón	-9.88288
▁2006,	-9.88448
▁dám	-9.88481
▁°	-9.88615
▁lão	-9.88766
▁TCN	-9.88965
▁Ồ	-9.89015
và	-9.89102
▁Lực	-9.89252
▁thạch	-9.8943
▁Đô	-9.89694
▁lãng	-9.89716
▁cục	-9.89815
▁Thưa	-9.89865
▁quà	-9.90019
▁huyết	-9.9007
▁2015,	-9.90089
▁chả	-9.90091
▁giấc	-9.90093
▁Cảnh	-9.90123
▁vầ	-9.90267
▁chìm	-9.90395
▁lôi	-9.90402
▁Đường	-9.90493
êu	-9.90779
▁khô	-9.9079
}	-9.90801
▁Sĩ	-9.90962
▁Bất	-9.9107
▁mùi	-9.91129
▁nhấn	-9.91256
▁khổng	-9.91447
w	-9.91541
▁lồ	-9.91541
co	-9.91632
▁Đặc	-9.91644
▁2013,	-9.91723
▁đợt	-9.9183
▁Philippines	-9.91945
▁h	-9.92021
▁vây	-9.92026
se	-9.92209
▁Tối	-9.92242
▁mát	-9.92637
▁2011	-9.92663
▁2012,	-9.92779
▁Thần	-9.93024
▁lọc	-9.93208
▁Mù	-9.93248
▁Đ	-9.93358
um	-9.93393
▁2010	-9.93497
▁nô	-9.93509
ko	-9.93665
▁tụi	-9.93709
▁lũng	-9.93801
U	-9.93992
▁hãi	-9.93994
▁thể	-9.93994
▁khán	-9.94063
▁hầm	-9.94109
▁200	-9.94289
▁lặp	-9.94294
▁tuyết	-9.94295
▁vững	-9.94393
▁protein	-9.94515
▁triết	-9.94895
gt	-9.9491
▁răng	-9.95106
▁Tiếng	-9.95186
▁Frank	-9.95317
▁đói	-9.95368
▁dao	-9.95406
▁2008	-9.95451
▁Gia	-9.95462
▁buôn	-9.95986
▁Tiểu	-9.96019
▁chôn	-9.96046
không	-9.9611
▁th	-9.96412
▁kìa	-9.96686
▁pha	-9.96909
▁liều	-9.96921
▁Khoảng	-9.96922
▁ngon	-9.96958
▁Robert	-9.97002
▁đằng	-9.97023
▁Ireland	-9.97027
▁vở	-9.97037
▁City	-9.97054
▁hổ	-9.9707
")	-9.97133
▁thẻ	-9.97134
▁mèo	-9.97333
▁ấm	-9.97359
▁Washington	-9.97438
▁cam	-9.97479
▁Internet	-9.97752
▁Phát	-9.9777
▁2014,	-9.9778
▁60	-9.97845
ya	-9.97874
▁đen	-9.97909
▁chín	-9.98093
▁Michael	-9.98165
▁Hơn	-9.98372
▁Man	-9.98399
▁trạm	-9.98468
▁quê	-9.9851
▁Trận	-9.9859
▁dư	-9.98777
▁tắm	-9.98781
▁khuyên	-9.98782
▁Luật	-9.99006
▁Vua	-9.99024
▁2002	-9.991
▁("	-9.99144
il	-9.99199
▁♫	-9.99231
▁bi	-9.9951
▁giường	-9.99515
▁nhắn	-9.9962
▁thợ	-9.99621
▁thiệp	-9.99725
▁Loài	-9.99725
▁Nguyên	-9.99735
▁trăng	-9.99833
▁bận	-9.99936
▁cột	-9.99945
▁đùa	-10.0025
▁sụp	-10.0026
lo	-10.0027
▁những	-10.0036
▁Chiếc	-10.0037
▁co	-10.005
▁ngũ	-10.0057
▁túi	-10.0059
▁dã	-10.0098
sa	-10.0108
▁hồng	-10.014
▁nhuận	-10.0142
▁cẩn	-10.0153
▁bơi	-10.0166
ni	-10.0174
▁Tin	-10.019
▁2009,	-10.0198
▁rắn	-10.0207
▁In	-10.0221
ca	-10.0222
▁Ca	-10.0226
▁tốn	-10.0227
▁Tính	-10.023
▁Bệnh	-10.0232
▁2014	-10.0234
▁ch	-10.0234
▁lỏng	-10.0239
▁chở	-10.024
▁Thống	-10.024
▁u	-10.025
W	-10.0261
▁mực	-10.0261
▁Phương	-10.0262
son	-10.027
▁dính	-10.0272
▁đàm	-10.0284
▁đồi	-10.0293
me	-10.0293
▁tia	-10.0304
▁Tình	-10.0307
▁trứng	-10.0327
▁Thanh	-10.0328
▁Nhóm	-10.0328
▁bùng	-10.033
▁xưa	-10.0337
▁nghìn	-10.0348
▁tựa	-10.0354
The	-10.0364
▁đai	-10.0365
▁Tom	-10.0366
▁gián	-10.0379
di	-10.0382
▁Đạo	-10.0383
▁kĩ	-10.0392
or	-10.0404
▁soạn	-10.0409
▁r	-10.0441
▁tô	-10.0448
▁Lee	-10.0483
▁virus	-10.0485
J	-10.0523
▁Thì	-10.0546
▁gợi	-10.0547
ba	-10.0554
▁Indonesia	-10.0581
▁2008,	-10.0585
▁Mấy	-10.0604
com	-10.0607
▁dò	-10.0619
▁2001	-10.0627
▁Mi	-10.0627
▁chừng	-10.0637
▁2009	-10.064
▁muộn	-10.0659
▁ép	-10.0663
▁dâm	-10.067
▁Scotland	-10.0671
▁Hoặc	-10.0682
▁Mary	-10.0685
▁ở	-10.0692
▁Hồ	-10.0692
▁Brazil	-10.0694
▁Tokyo	-10.0694
▁Le	-10.0696
▁với	-10.0704
ic	-10.0706
ar	-10.0716
os	-10.0725
▁lui	-10.0729
▁ngọt	-10.0738
▁2013	-10.0739
▁bia	-10.0746
▁đậu	-10.075
▁túc	-10.075
▁Ôi	-10.0769
▁huống	-10.0772
▁Argentina	-10.0773
▁quỷ	-10.0796
▁2012	-10.0801
▁va	-10.0805
▁Bằng	-10.082
▁Quan	-10.0844
▁Thị	-10.0859
▁2006	-10.0864
▁than	-10.0879
▁lặng	-10.0888
X	-10.0914
▁Chương	-10.0923
▁Thay	-10.0938
▁sếp	-10.0945
▁Ngoại	-10.0945
▁cừu	-10.0946
▁đống	-10.0947
▁Los	-10.0964
▁2014.	-10.0968
▁xóa	-10.0981
ge	-10.0985
▁mãn	-10.1022
▁treo	-10.1027
▁chấn	-10.1039
▁mươi	-10.1062
id	-10.1069
▁2015	-10.1076
▁Bên	-10.1077
▁Chào	-10.1091
bằng	-10.1093
▁No	-10.11
▁cổng	-10.1109
có	-10.1131
▁nhẫn	-10.1133
▁Đôi	-10.1133
▁gan	-10.1149
▁(19	-10.1151
7	-10.1166
▁sữa	-10.1168
▁kèm	-10.1192
▁2016,	-10.1195
land	-10.1196
▁thề	-10.1199
▁xinh	-10.1204
▁Henry	-10.1205
▁Z	-10.121
▁hô	-10.1211
▁2016.	-10.123
▁xoay	-10.124
▁p	-10.1242
▁khóc	-10.1246
ki	-10.1247
li	-10.1264
▁thuần	-10.1268
▁Ha	-10.127
▁tr	-10.1272
▁cốt	-10.1275
▁2000	-10.1302
▁mù	-10.1316
▁Vấn	-10.1326
▁vuông	-10.1336
▁thoải	-10.1338
▁biết	-10.136
▁2015.	-10.1378
▁Ben	-10.1392
▁Peter	-10.1405
▁vỏ	-10.1421
▁kh	-10.1427
▁rửa	-10.1445
▁tuân	-10.1469
at	-10.1473
▁bụng	-10.1482
▁Tiến	-10.1482
▁võ	-10.1486
▁Hàng	-10.1488
▁Sam	-10.1503
▁đoạt	-10.1506
▁1999	-10.1514
▁Iran	-10.1523
▁bội	-10.154
▁nhắm	-10.1543
ry	-10.1547
▁Thu	-10.1552
▁ft	-10.157
▁Singapore	-10.1594
▁Áo	-10.1631
▁dàn	-10.1639
#224;	-10.1642
go	-10.1642
▁mượn	-10.1643
▁sợi	-10.1646
▁Máy	-10.1658
▁Du	-10.1676
▁2013.	-10.1678
▁trầm	-10.168
▁f	-10.169
▁Cuba	-10.1701
▁Tu	-10.1713
it	-10.1715
▁dọn	-10.1717
▁Mục	-10.1718
▁hối	-10.1734
▁oxy	-10.1743
▁500	-10.1754
▁dược	-10.1755
9	-10.1761
▁lang	-10.1765
▁đuôi	-10.1767
▁Uy	-10.1799
▁Go	-10.1811
▁Điện	-10.1818
▁Nghệ	-10.182
▁Edward	-10.1827
▁mạo	-10.1831
▁hoại	-10.1859
▁Hiến	-10.187
người	-10.187
▁1960	-10.1876
▁United	-10.1883
▁no	-10.1887
ji	-10.1888
▁rác	-10.1892
▁2012.	-10.1894
▁Bỉ	-10.1895
▁Luân	-10.1907
▁đệ	-10.1915
▁TV	-10.1915
▁ương	-10.1929
é	-10.1934
▁sốt	-10.1935
▁duyệt	-10.1945
▁Quận	-10.1959
▁Malaysia	-10.1973
ter	-10.1991
▁lãm	-10.1997
▁chán	-10.1998
▁mm	-10.2011
▁2005	-10.2033
▁Cao	-10.2044
▁mạn	-10.2046
▁cú	-10.2065
▁cắp	-10.2075
▁ranh	-10.2083
▁Nghiên	-10.2088
▁ro	-10.2091
▁Quá	-10.2097
▁kí	-10.2103
▁2016	-10.2121
▁nhịp	-10.2128
▁khung	-10.2133
▁Phó	-10.2133
▁Đá	-10.2138
▁for	-10.2165
va	-10.2182
▁thôn	-10.2183
j	-10.22
em	-10.2204
▁Sư	-10.221
▁trộn	-10.2245
▁Park	-10.2257
as	-10.2268
▁Tốt	-10.2288
▁giày	-10.2295
▁Zealand	-10.2298
▁túy	-10.2299
▁Richard	-10.2301
▁lò	-10.2308
▁Saint	-10.2314
▁k	-10.2317
▁Louis	-10.2321
▁trà	-10.2328
▁1942	-10.2352
▁mì	-10.2353
▁2005,	-10.2372
▁Long	-10.2379
▁Google	-10.2392
▁hò	-10.2404
▁gỡ	-10.2405
ine	-10.241
▁khẩn	-10.2432
mi	-10.2434
▁Chile	-10.2436
▁nấu	-10.2445
▁ghép	-10.2446
▁Loan	-10.2474
▁Vũ	-10.2476
▁ngón	-10.2485
▁Ít	-10.2499
ga	-10.2503
ce	-10.2505
▁để	-10.2513
▁trúng	-10.2514
▁ẩm	-10.2514
▁Đan	-10.2538
▁Da	-10.2547
▁FC	-10.2553
▁dinh	-10.2561
▁DNA	-10.257
▁ngẫu	-10.2581
▁2011.	-10.2584
▁Đưa	-10.2596
▁voi	-10.2601
▁bền	-10.262
▁ngưỡng	-10.2622
▁Ngân	-10.2622
▁robot	-10.2623
▁kín	-10.2629
▁gương	-10.2636
▁Lãnh	-10.2651
▁viêm	-10.2652
▁phổi	-10.2666
▁80	-10.2672
▁vân	-10.2676
▁mây	-10.2678
ian	-10.2681
ek	-10.269
▁2017.	-10.2694
▁West	-10.2704
▁Toàn	-10.2707
▁mồi	-10.2712
▁sứ	-10.2727
▁2010.	-10.2731
▁ngã	-10.2733
▁1998	-10.2733
▁Nơi	-10.2735
Vỗ	-10.2736
▁tần	-10.2746
▁Tân	-10.2749
▁thoảng	-10.2763
▁sáp	-10.2774
▁Album	-10.278
▁úy	-10.2788
▁trượt	-10.2788
▁tật	-10.2788
▁Kông	-10.2789
-1	-10.2791
▁Xã	-10.2802
▁lân	-10.2802
chi	-10.2808
br	-10.281
ol	-10.2832
▁hoan	-10.2833
▁:	-10.285
ke	-10.2857
▁bạch	-10.2863
▁im	-10.2864
▁Xem	-10.2868
▁muối	-10.2872
▁Thomas	-10.2887
▁canh	-10.2897
Y	-10.2903
▁hưu	-10.2907
▁phu	-10.2911
ie	-10.2912
8	-10.2921
Bắt	-10.2925
▁2008.	-10.2939
▁phun	-10.2961
▁2017,	-10.2964
▁say	-10.297
▁khẳng	-10.2972
ur	-10.2983
▁lộn	-10.2985
▁Ni	-10.2997
▁Phật	-10.3001
▁Co	-10.3006
▁nút	-10.3014
▁tị	-10.3015
▁Maria	-10.3026
▁mệt	-10.3028
gi	-10.3031
▁trần	-10.3043
▁ngập	-10.3057
▁trễ	-10.3057
▁Phụ	-10.3065
▁Vùng	-10.3103
▁Hợp	-10.3115
▁Lịch	-10.3117
lin	-10.3126
▁Texas	-10.3143
▁đến	-10.3143
ja	-10.3144
▁Microsoft	-10.3144
▁Gần	-10.3144
▁Se	-10.3155
▁Mạch	-10.3187
▁Iraq	-10.3188
▁Wales	-10.3202
▁khía	-10.3204
▁You	-10.3231
wa	-10.3231
trong	-10.3232
▁!	-10.3242
▁Kế	-10.3257
▁(18	-10.3265
▁trưa	-10.3274
▁Thiết	-10.3276
▁nhạy	-10.3303
▁thung	-10.3304
▁nhãn	-10.3305
st	-10.3306
▁Angeles	-10.3318
▁xuân	-10.3333
▁lây	-10.3333
▁Tiếp	-10.3334
▁1943	-10.3336
et	-10.3338
▁đeo	-10.3357
▁bụi	-10.3377
▁Vụ	-10.3381
▁Martin	-10.3387
▁hoãn	-10.3407
▁Nghị	-10.3407
ina	-10.3422
▁300	-10.343
▁táo	-10.3431
▁đực	-10.3437
▁Lục	-10.3438
▁tân	-10.345
ti	-10.3457
▁chúc	-10.3462
▁ưa	-10.3465
▁Hungary	-10.3468
▁tí	-10.3479
▁Chưa	-10.3483
▁Mark	-10.3491
▁cương	-10.3497
▁He	-10.3499
ví	-10.3535
-2	-10.354
▁tràn	-10.3542
▁thoái	-10.3572
▁cậy	-10.3572
▁huynh	-10.3576
▁móc	-10.3588
▁cám	-10.3602
cho	-10.3602
/	-10.3611
▁Hi	-10.3621
ir	-10.3639
▁leo	-10.364
▁thịnh	-10.3644
za	-10.3651
▁Thư	-10.3672
▁đạp	-10.3693
▁huyền	-10.3696
▁hâm	-10.3709
▁Phân	-10.3709
▁Cục	-10.3709
▁Ch	-10.371
▁Ga	-10.3714
▁Su	-10.3718
▁thùng	-10.3719
▁nhượng	-10.3739
▁Phong	-10.3773
ron	-10.3789
▁trừng	-10.3794
▁70	-10.3794
▁vay	-10.3807
con	-10.381
▁phấn	-10.3816
▁đâm	-10.3832
Anh	-10.3847
▁ruột	-10.3863
▁35	-10.3864
▁cụm	-10.3865
▁quét	-10.3878
▁khiếp	-10.3882
▁chợ	-10.3892
▁đụng	-10.3894
▁rồi	-10.3894
▁vú	-10.3906
▁khỉ	-10.3925
▁Francisco	-10.3926
▁san	-10.393
▁thế	-10.3941
▁ngực	-10.3942
▁Brasil	-10.3956
ve	-10.3958
▁cm	-10.3967
▁màng	-10.397
▁hẹp	-10.3972
▁2,	-10.3987
▁Ar	-10.3992
ha	-10.4002
▁lật	-10.4004
▁Đôn	-10.4015
hiếp	-10.403
▁rào	-10.4036
▁lợn	-10.4036
▁Mar	-10.4038
▁1991	-10.4044
▁dáng	-10.4052
▁2009.	-10.4067
▁South	-10.4069
▁ngư	-10.4079
▁Tác	-10.4086
▁kg	-10.4092
▁Thủy	-10.4094
▁Nigeria	-10.4099
▁dày	-10.4114
ll	-10.4115
▁Colombia	-10.4115
19	-10.4116
▁Tương	-10.4116
den	-10.4117
▁Đảo	-10.4117
▁đếm	-10.4124
hỉnh	-10.4125
▁Hành	-10.4143
▁dũng	-10.4146
▁bột	-10.4149
Không	-10.4159
▁Star	-10.4163
!"	-10.417
êm	-10.419
▁khôi	-10.4194
▁cự	-10.4209
▁cát	-10.421
▁Cám	-10.421
▁tóm	-10.421
▁Lễ	-10.4229
▁on	-10.4246
Chúng	-10.4257
▁1944	-10.426
▁Ki	-10.4267
▁—	-10.4275
▁Dưới	-10.4275
▁nấm	-10.4275
▁thổi	-10.4285
▁hang	-10.4317
▁miếng	-10.4324
▁2017	-10.4339
▁cài	-10.4348
ov	-10.435
▁mòn	-10.4361
▁cỏ	-10.4363
▁cóc	-10.4365
▁rủi	-10.4374
▁Jo	-10.4374
▁Quản	-10.4377
ần	-10.4379
▁Quảng	-10.438
▁mũ	-10.4396
▁Florida	-10.4405
▁#	-10.4409
được	-10.442
▁ho	-10.4432
▁tháo	-10.4438
▁Biển	-10.4439
▁hoà	-10.4446
▁ngợi	-10.4455
▁Nước	-10.4458
▁Super	-10.4459
▁Quần	-10.446
▁Hỏa	-10.4471
▁đáo	-10.4472
am	-10.4473
pa	-10.4478
▁chẽ	-10.4488
▁sàn	-10.4501
▁Afghanistan	-10.4505
▁lạm	-10.4509
▁kiệm	-10.4521
▁Tàu	-10.4523
▁Phim	-10.4534
▁chìa	-10.4557
▁béo	-10.4562
▁lõi	-10.4571
00	-10.4571
▁Re	-10.4576
▁rồng	-10.4597
si	-10.4597
gu	-10.4604
▁Cực	-10.4605
▁1993	-10.4606
▁khát	-10.4622
mo	-10.4637
▁Liệu	-10.464
les	-10.4647
ley	-10.4654
▁Tiền	-10.4656
cha	-10.4661
▁Serie	-10.4662
▁thô	-10.4665
▁rẻ	-10.4672
▁bông	-10.4675
▁nh	-10.4676
▁45	-10.4689
▁Nghĩa	-10.4691
▁Tài	-10.4691
▁bồi	-10.4693
▁nộp	-10.4706
▁1940	-10.4723
▁Pro	-10.4726
▁ghé	-10.4732
—	-10.4739
▁xích	-10.474
▁kiên	-10.474
so	-10.474
▁vang	-10.4753
▁IV	-10.4754
▁gọn	-10.4773
▁nát	-10.4773
▁vĩnh	-10.4775
▁trôi	-10.479
▁lắp	-10.4807
▁Red	-10.481
▁bọc	-10.4826
▁khoan	-10.4835
▁Australia	-10.4835
▁$	-10.4839
▁chẩn	-10.4841
▁Pakistan	-10.4843
▁Báo	-10.4847
▁phẳng	-10.4859
▁Berlin	-10.4861
▁lệch	-10.4867
▁ấy	-10.4882
▁Q	-10.4887
▁Tới	-10.4895
như	-10.4904
▁hằng	-10.4909
▁Entertainment	-10.491
▁muốn	-10.491
▁kịp	-10.491
▁1990,	-10.4911
▁8,	-10.4939
hằng	-10.4942
▁tươi	-10.4962
▁Ka	-10.498
▁lùng	-10.4981
▁buýt	-10.4997
▁sự	-10.4997
▁Ngôi	-10.5003
▁Mông	-10.5004
ah	-10.5004
▁My	-10.5007
▁Peru	-10.5009
▁dịp	-10.5018
▁chai	-10.502
▁32	-10.5027
▁đớn	-10.5032
▁xưởng	-10.5032
▁Li	-10.5045
▁Dubai	-10.5049
▁Hòa	-10.5051
▁bớt	-10.5067
▁Sáng	-10.5067
▁Victoria	-10.5089
▁1990	-10.5091
▁2007.	-10.5094
▁1989	-10.5101
▁đẻ	-10.5102
Z	-10.5108
ấp	-10.5108
▁1987	-10.5111
▁lọt	-10.5121
▁Cầu	-10.5123
po	-10.5131
▁đáy	-10.5132
▁mỹ	-10.5137
ion	-10.5146
▁Ho	-10.5148
be	-10.5149
▁chăn	-10.5153
▁thép	-10.5155
▁Sáu	-10.5156
▁Cúp	-10.5158
▁Music	-10.5169
▁ngừa	-10.5191
▁nghiện	-10.5208
ul	-10.5216
▁cong	-10.5236
▁về	-10.5261
10	-10.5262
▁quát	-10.5278
▁Latinh	-10.5299
▁Trang	-10.5301
ner	-10.5304
▁gấu	-10.5315
▁hung	-10.5317
▁Ne	-10.5331
bo	-10.5338
▁Bill	-10.5352
▁tọa	-10.5369
un	-10.5385
▁Thậm	-10.5405
▁Seoul	-10.5405
▁Harry	-10.5407
▁non	-10.5419
0	-10.542
▁Loại	-10.5424
▁nồng	-10.5424
▁90	-10.5427
▁ổ	-10.5433
▁2003	-10.5441
▁One	-10.5457
▁Song	-10.5471
▁Campuchia	-10.5479
▁Love	-10.5489
▁mờ	-10.5506
▁ong	-10.5516
▁Giáng	-10.5517
▁sơn	-10.5517
▁Tướng	-10.5533
▁Olympic	-10.556
▁trinh	-10.5572
▁Vị	-10.5574
bi	-10.5577
▁giãn	-10.559
▁Thuật	-10.5607
▁ngưng	-10.5615
▁2000,	-10.5633
▁cạn	-10.5643
ở	-10.5685
▁2018	-10.5689
▁mò	-10.5689
▁cốc	-10.5691
▁Đệ	-10.5702
▁Pan	-10.5702
▁Venezuela	-10.5718
▁rạp	-10.5719
▁lỡ	-10.5719
▁May	-10.5721
▁su	-10.5721
▁đ	-10.5727
▁4,	-10.573
ers	-10.5744
▁6,	-10.5747
▁King	-10.5755
▁nhựa	-10.5756
▁sỹ	-10.5756
▁Chicago	-10.5757
▁củng	-10.5759
▁1920	-10.5768
\	-10.5788
▁phú	-10.5789
▁Uganda	-10.5794
yl	-10.5803
▁Vi	-10.5812
▁House	-10.5817
der	-10.582
▁xỉ	-10.5822
▁Lo	-10.583
▁Grand	-10.5835
▁mỏi	-10.5836
▁top	-10.5837
▁dắt	-10.5851
▁Kẻ	-10.5857
▁Si	-10.5862
▁rã	-10.5867
▁bẫy	-10.5869
▁Van	-10.5876
▁nha	-10.588
▁ngụ	-10.5886
▁Kitô	-10.5888
▁To	-10.5897
ze	-10.5905
▁quãng	-10.5907
▁trương	-10.5908
▁Định	-10.5908
▁cưng	-10.5912
▁long	-10.5913
▁Trông	-10.5927
▁lăng	-10.5928
▁Yeah	-10.5928
sen	-10.5931
hiếu	-10.5934
▁#273;	-10.5945
▁mồ	-10.5947
▁Hoàn	-10.5949
▁CD	-10.5954
▁5,	-10.5957
▁vắc	-10.5965
▁Pa	-10.5972
▁Vườn	-10.5984
▁rồ	-10.5986
hoặc	-10.5997
▁Be	-10.6005
]	-10.6009
▁ngoan	-10.6022
▁Vẫ	-10.6032
▁kem	-10.6033
▁Sử	-10.6034
▁tuệ	-10.6042
▁chốt	-10.6042
▁Joseph	-10.6043
▁Quỹ	-10.6044
▁400	-10.6067
▁nướng	-10.6081
các	-10.6088
▁diệu	-10.61
▁thấy	-10.61
▁rẽ	-10.61
shi	-10.6105
▁1972	-10.6118
▁vượng	-10.612
▁150	-10.6125
ten	-10.6127
▁sắm	-10.6139
▁anime	-10.6139
▁Jean	-10.6142
vi	-10.6143
▁10,	-10.6149
▁Lu	-10.6149
▁dải	-10.6159
▁North	-10.6164
▁Chu	-10.6166
▁2003,	-10.6167
▁Rõ	-10.6178
▁{	-10.6205
▁Times	-10.6205
tôi	-10.6206
▁Latin	-10.6215
▁Hướng	-10.6239
▁Smith	-10.6241
▁Hóa	-10.6257
▁Muốn	-10.6257
▁dĩ	-10.627
▁nêu	-10.6279
▁Tìm	-10.628
▁điêu	-10.6285
▁gi	-10.6296
▁Cá	-10.6297
hay	-10.6306
12	-10.631
▁tang	-10.6326
▁ngoái	-10.6356
▁1988	-10.6357
11	-10.6364
▁ha	-10.6368
▁Âm	-10.637
▁Vịnh	-10.6376
pe	-10.638
ad	-10.6385
30	-10.6386
▁Ổ	-10.6395
▁2018,	-10.6395
▁Cảng	-10.6407
▁Thê	-10.6413
▁Arthur	-10.6417
▁Bo	-10.6424
▁Ukraina	-10.6437
▁pin	-10.6445
▁lưỡi	-10.6456
▁Nào	-10.6456
ran	-10.6474
ph	-10.6479
▁Gi	-10.6486
▁óc	-10.6495
▁bẩn	-10.6517
▁nét	-10.6518
▁bê	-10.6532
▁đắt	-10.6557
▁Trò	-10.6573
▁Động	-10.6575
▁lặn	-10.6576
▁Santa	-10.6577
▁Disney	-10.6577
▁Virginia	-10.6579
▁2006.	-10.6583
▁Video	-10.6589
▁ven	-10.6596
▁Truyền	-10.6599
▁bốc	-10.6605
ana	-10.6614
▁9,	-10.6615
▁lưỡng	-10.6618
20	-10.6636
ho	-10.6639
▁mọc	-10.6639
▁3,	-10.6646
▁\	-10.6652
▁Tỉnh	-10.666
▁Bob	-10.666
▁ngơi	-10.6661
▁Pe	-10.6662
▁gà	-10.6668
▁li	-10.6676
▁Nintendo	-10.6681
ler	-10.6686
rin	-10.671
á	-10.6719
▁cống	-10.6722
▁Armenia	-10.6742
▁gác	-10.6742
▁Lai	-10.6743
▁1986	-10.6755
▁cưỡng	-10.6763
▁Han	-10.6775
▁1976	-10.6775
▁kỵ	-10.6784
▁cuộn	-10.6784
ê	-10.6784
▁Apple	-10.6784
▁nhi	-10.6802
▁Alexander	-10.6804
ci	-10.6809
▁côn	-10.6812
▁Khả	-10.6813
san	-10.6814
những	-10.6817
▁Don	-10.6818
▁dời	-10.6825
▁Sơn	-10.683
▁nghịch	-10.6835
▁Game	-10.6845
▁vắng	-10.6846
▁Dịch	-10.6847
▁khoáng	-10.6849
▁del	-10.6866
▁bút	-10.6869
ger	-10.6871
▁7,	-10.6884
▁inch	-10.6885
▁Rome	-10.6888
▁kiệt	-10.6888
▁Điểm	-10.689
-3	-10.6896
▁Cung	-10.6898
bu	-10.6904
▁Jim	-10.6904
▁mập	-10.691
per	-10.6913
▁tùng	-10.6915
▁(1	-10.6924
▁Division	-10.6927
▁dốc	-10.6931
▁Biết	-10.6932
Bức	-10.6939
▁ion	-10.695
gan	-10.6954
ku	-10.6955
xin	-10.6975
ngày	-10.6985
▁Air	-10.699
▁1968	-10.6992
▁Chà	-10.7011
▁Thương	-10.7015
▁gãy	-10.7035
▁dạ	-10.7036
▁khử	-10.7037
▁múa	-10.7037
▁Lưu	-10.7038
▁1970	-10.7043
▁khen	-10.7047
▁sói	-10.7058
▁xóm	-10.706
▁1941	-10.7066
by	-10.7071
▁Bá	-10.7071
▁Bu	-10.7072
▁cấy	-10.708
ny	-10.7085
▁van	-10.7093
one	-10.7106
▁lát	-10.7107
▁Ross	-10.7119
▁Diego	-10.7122
+	-10.7123
Q	-10.7133
▁Mac	-10.7136
▁nè	-10.7144
▁Mike	-10.7165
▁Lấy	-10.7166
▁Te	-10.717
lan	-10.718
▁Tam	-10.7189
▁ái	-10.7193
▁11,	-10.7199
▁Columbia	-10.7209
▁lường	-10.721
▁từ	-10.724
▁Anna	-10.7251
▁thâm	-10.7252
▁điều	-10.7257
uổi	-10.7258
▁Hey	-10.7265
▁Bang	-10.7266
▁Daniel	-10.7267
▁bó	-10.727
▁mắn	-10.7272
▁Tuần	-10.7276
▁thèm	-10.7296
▁2018.	-10.7297
-4	-10.7301
▁1985	-10.7316
▁Thể	-10.7319
▁Dan	-10.7323
▁Xa	-10.7327
▁móng	-10.7328
su	-10.7332
anh	-10.7337
kh	-10.7339
▁vậy	-10.734
q	-10.7345
▁Hawaii	-10.7345
▁ốc	-10.7356
▁bù	-10.7359
▁dẹp	-10.7362
▁Nobel	-10.7362
▁Quyền	-10.7364
▁Phổ	-10.7366
▁Lời	-10.7366
▁Tụ	-10.7374
men	-10.738
sau	-10.7383
▁viếng	-10.7384
▁Sông	-10.7387
ster	-10.7405
▁Tr	-10.7408
▁Max	-10.7417
▁Town	-10.7429
▁dạo	-10.7432
ham	-10.7434
▁Po	-10.7447
▁gũi	-10.745
▁Sở	-10.7455
▁ân	-10.7466
▁nắng	-10.7473
▁Shin	-10.7473
▁thuẫn	-10.7474
▁Th	-10.7476
▁Bulgaria	-10.7497
Con	-10.75
▁36	-10.7509
▁mảng	-10.7518
▁Mười	-10.7518
▁gánh	-10.7518
zi	-10.7534
▁En	-10.7534
▁Bao	-10.7537
▁Guinea	-10.754
▁cậu	-10.754
▁hét	-10.7541
▁1939	-10.7558
hờ	-10.757
we	-10.7583
▁manga	-10.7596
▁1967	-10.7596
ver	-10.7597
▁bám	-10.7598
▁khớp	-10.7607
▁nảy	-10.7608
▁nâu	-10.7608
▁cởi	-10.7608
▁Ảnh	-10.7612
jo	-10.7616
18	-10.7616
▁cỗ	-10.7621
▁Lâu	-10.763
▁Giao	-10.7638
▁[	-10.764
▁cuồng	-10.7653
▁Tử	-10.7654
▁vành	-10.7654
▁Quả	-10.7665
▁ả	-10.7671
▁rũ	-10.7675
▁Elizabeth	-10.7676
▁von	-10.7683
▁nho	-10.7699
▁khói	-10.7701
the	-10.7702
▁chục	-10.7721
▁thọ	-10.7742
▁Vật	-10.7744
tin	-10.7752
▁1975	-10.7757
▁Cape	-10.7757
▁mộng	-10.7758
▁1970,	-10.7763
í	-10.7766
▁trật	-10.7767
▁Ottoman	-10.7767
▁Đang	-10.7777
▁Hán	-10.7783
io	-10.7792
▁Cuốn	-10.7793
▁2019	-10.7801
▁Trừ	-10.7829
▁hãm	-10.7836
▁đứt	-10.7836
gen	-10.7845
khoảnh	-10.7851
▁bar	-10.7852
sh	-10.7855
▁Scott	-10.7857
▁Joe	-10.7858
▁Kỹ	-10.7859
▁Phục	-10.7863
▁vải	-10.7865
▁Am	-10.7869
ber	-10.7873
từ	-10.7881
▁ph	-10.7882
▁Ước	-10.7882
han	-10.7889
▁Ấu	-10.7906
▁Billboard	-10.7906
▁nề	-10.7907
lu	-10.791
▁uy	-10.7914
ius	-10.7927
▁Xe	-10.7929
);	-10.7929
▁xoáy	-10.7931
sha	-10.7941
▁hước	-10.7952
▁khôn	-10.7974
▁Albert	-10.7975
▁1000	-10.7975
▁nở	-10.7977
est	-10.7978
▁Kiểu	-10.7978
▁Kenya	-10.7979
▁men	-10.7996
▁Well	-10.7998
’	-10.7999
▁Sun	-10.7999
▁tiệm	-10.7999
▁at	-10.8001
▁vờ	-10.8014
▁đắn	-10.8045
▁Lào	-10.8045
▁Warsaw	-10.8048
du	-10.8058
15	-10.8058
▁Alice	-10.8075
▁Chris	-10.808
▁Đa	-10.8085
▁Manchester	-10.8094
▁Thường	-10.8094
▁tẩy	-10.8094
2,	-10.8096
▁México	-10.8118
▁mến	-10.8118
▁ghê	-10.8141
▁Lại	-10.8146
je	-10.8147
▁Top	-10.8149
▁ấu	-10.8156
▁hận	-10.8168
▁hydro	-10.817
▁Young	-10.8178
▁Bi	-10.818
▁Ngôn	-10.8183
▁châm	-10.8189
ino	-10.8191
ea	-10.8192
▁Rio	-10.8195
▁Quy	-10.821
▁Panama	-10.8213
▁Boston	-10.8213
▁Oliver	-10.8217
huyến	-10.8219
▁Mô	-10.8222
▁Alex	-10.8225
▁33	-10.8227
▁dì	-10.8232
line	-10.8238
▁Big	-10.8243
▁Ali	-10.8244
▁1992	-10.8244
▁điền	-10.8248
off	-10.8257
ville	-10.8261
ard	-10.8263
mer	-10.8265
▁tông	-10.8273
▁cắn	-10.8285
▁electron	-10.8286
▁nạp	-10.8287
▁Dòng	-10.8287
▁2001,	-10.8292
▁tủ	-10.83
▁lấp	-10.831
▁2005.	-10.8314
▁sườn	-10.8323
sk	-10.8323
▁mau	-10.8325
▁mỏng	-10.8333
▁manh	-10.8343
▁It	-10.835
▁nhục	-10.8358
▁dâu	-10.8358
▁Bay	-10.8362
▁eo	-10.8368
▁Giả	-10.8372
don	-10.8375
▁Bốn	-10.8376
60	-10.8378
▁BBC	-10.8383
▁Đêm	-10.8385
ts	-10.8404
▁Jordan	-10.8406
▁cắm	-10.8407
▁giật	-10.8407
▁Đơn	-10.8408
▁Chuẩn	-10.8409
▁Brown	-10.8409
▁ồn	-10.8419
tra	-10.8429
▁War	-10.8429
▁bắp	-10.8432
▁Football	-10.8435
▁hiếp	-10.8437
▁radio	-10.8442
ty	-10.8449
uấn	-10.8454
▁Hitler	-10.8456
▁chòm	-10.8456
▁1955	-10.8458
▁Roma	-10.8467
14	-10.848
▁vẹn	-10.8481
▁xướng	-10.8481
▁Thuyền	-10.8481
▁1945,	-10.8484
90	-10.8495
với	-10.8504
▁Nguồn	-10.8508
17	-10.8513
La	-10.8516
▁Inc	-10.8526
▁nhạt	-10.853
▁Yu	-10.8533
▁Bảy	-10.8533
▁Carl	-10.8535
▁Il	-10.8537
▁Vô	-10.8537
▁tò	-10.8548
▁dội	-10.8555
▁thấu	-10.8555
▁xăng	-10.8555
▁Mai	-10.8559
▁As	-10.8563
▁Ok	-10.858
▁camera	-10.858
▁Car	-10.8585
▁kẹt	-10.8605
▁nguyền	-10.8605
▁carbon	-10.8609
▁Boy	-10.8618
▁lụt	-10.863
▁Đỏ	-10.863
Có	-10.8631
▁lưng	-10.8631
còn	-10.8659
▁tam	-10.8664
▁1950	-10.8666
nay	-10.8671
▁All	-10.8673
25	-10.868
▁giờ	-10.868
▁;	-10.8681
▁38	-10.8683
mar	-10.8689
▁Bị	-10.8702
▁Thầy	-10.8705
cy	-10.8705
▁súc	-10.873
▁mâu	-10.8731
▁ng	-10.8766
▁Trăng	-10.8781
▁dỡ	-10.8781
▁DVD	-10.8783
▁Mu	-10.8788
ban	-10.8797
▁toà	-10.88
▁Rachel	-10.8807
▁Bar	-10.8808
▁ngai	-10.8809
▁1974	-10.882
ấn	-10.8826
▁Căn	-10.8833
▁quyến	-10.8834
ó	-10.8848
▁Nhất	-10.8858
▁Mo	-10.8859
ak	-10.886
berg	-10.8873
▁hệt	-10.8878
▁FBI	-10.8883
▁thiêu	-10.8892
▁thắt	-10.8909
ru	-10.8912
▁International	-10.8913
zo	-10.8914
ết	-10.8919
▁Ver	-10.892
ud	-10.892
▁Khá	-10.8932
▁đúc	-10.8935
▁Chất	-10.8936
▁1951	-10.8938
ez	-10.8944
▁khuyết	-10.8951
▁TED	-10.8963
▁heo	-10.8964
▁On	-10.8964
▁1981	-10.8968
tan	-10.897
▁48	-10.8976
").	-10.8984
▁feet	-10.8986
▁Vợ	-10.8987
▁trùm	-10.8989
sự	-10.899
▁1979	-10.8992
35	-10.9001
▁1973	-10.9007
ắc	-10.9011
#243;	-10.9012
▁chuyện	-10.9012
Người	-10.9014
▁Nhiệm	-10.9017
▁Johnson	-10.9018
bao	-10.9029
▁thứ	-10.9038
▁Rằng	-10.9038
▁Trắng	-10.9038
trợ	-10.904
▁Cây	-10.9041
▁ôm	-10.9043
▁(17	-10.9045
ker	-10.9062
▁rưỡi	-10.9065
▁sét	-10.9065
▁NGC	-10.9065
▁Sara	-10.9084
ate	-10.9096
▁National	-10.9099
▁báu	-10.91
ü	-10.9105
▁xá	-10.9107
▁Is	-10.9111
án	-10.9111
▁việc	-10.9117
▁Covid	-10.9117
▁Okay	-10.9119
▁Ti	-10.9123
▁ngột	-10.9148
▁(5	-10.9154
▁Carolina	-10.917
▁1978	-10.9183
ey	-10.9184
"),	-10.9188
ok	-10.9195
▁enzyme	-10.9201
▁Pi	-10.9205
▁Cố	-10.9211
▁bọ	-10.9215
▁Hall	-10.922
▁đuối	-10.9223
▁nạ	-10.9223
▁Records	-10.9224
▁chăng	-10.9225
wi	-10.9232
▁xoắn	-10.9249
▁Palestine	-10.9251
▁Kh	-10.9259
-18	-10.9261
ang	-10.9266
▁vội	-10.9276
▁Oscar	-10.9276
tên	-10.928
ish	-10.9286
▁Hill	-10.9296
▁lùn	-10.9302
▁hoài	-10.9318
▁Francis	-10.932
▁bách	-10.9327
ene	-10.9329
▁nén	-10.9333
▁1995	-10.9334
▁Jan	-10.9337
ist	-10.9342
▁nhị	-10.9347
16	-10.9349
▁rỗng	-10.9356
▁chọc	-10.9357
ung	-10.9358
▁Bỏ	-10.9358
ica	-10.9361
ini	-10.9366
az	-10.9374
▁ván	-10.9378
▁VI	-10.9381
Những	-10.9386
▁Thi	-10.9401
▁10.000	-10.9407
▁Charlie	-10.9413
▁tráng	-10.9418
idae	-10.9421
▁Fox	-10.9436
▁khoẻ	-10.9438
▁bổng	-10.9447
ity	-10.9451
▁rau	-10.9465
kin	-10.9468
▁mìn	-10.9485
▁Thấy	-10.9492
▁Hiệu	-10.9492
▁phiêu	-10.9524
fa	-10.9525
▁1983	-10.9533
24	-10.9539
▁Tim	-10.954
▁gối	-10.9547
▁chuông	-10.9547
pi	-10.9548
net	-10.9549
▁ngộ	-10.9549
▁Jones	-10.955
▁nghiêng	-10.9555
2.	-10.9563
▁thiêng	-10.9568
ức	-10.9569
▁rung	-10.9582
▁HIV	-10.9602
▁1994	-10.9603
ou	-10.9606
):	-10.9611
▁Tony	-10.9619
▁1996	-10.9619
▁o	-10.9621
▁piano	-10.9629
▁rỉ	-10.9629
▁Wilson	-10.9629
▁Giới	-10.9631
▁bìa	-10.9632
▁Tạng	-10.9632
▁Phí	-10.9646
▁Vò	-10.9651
▁sọ	-10.9665
▁Ja	-10.9683
▁Dĩ	-10.9686
▁đấm	-10.9686
▁Đoàn	-10.9687
▁đc	-10.9689
▁Or	-10.9691
ano	-10.9697
tu	-10.9699
▁Port	-10.9701
▁nhì	-10.9704
▁phế	-10.9707
▁ngắm	-10.9712
▁American	-10.9723
▁Che	-10.9738
▁lãi	-10.9741
▁1997	-10.9742
age	-10.9749
▁Ji	-10.9751
27	-10.9759
▁cacbon	-10.9762
▁váy	-10.977
▁Samsung	-10.9771
▁Ken	-10.9776
▁Green	-10.9781
▁uh	-10.9793
ren	-10.9796
▁Năng	-10.9798
▁xám	-10.9803
▁you	-10.9804
ão	-10.9819
▁ướt	-10.9827
▁Anne	-10.9846
▁tê	-10.9852
▁rất	-10.9853
▁khốn	-10.9854
▁is	-10.9857
▁Fa	-10.9858
que	-10.9866
hi	-10.987
▁Steve	-10.9874
▁me	-10.9874
ella	-10.9881
▁nhiễu	-10.9881
▁vâng	-10.9887
▁Tour	-10.9907
▁bướm	-10.991
▁bếp	-10.991
▁hưng	-10.9912
▁bể	-10.9918
▁lũy	-10.9928
▁tro	-10.9929
▁2004.	-10.9931
▁nôn	-10.9931
▁Hot	-10.9942
▁Bell	-10.9948
▁Facebook	-10.9967
▁FIFA	-10.9967
▁nữa	-10.9968
▁phiến	-10.9968
dan	-10.9988
▁lê	-10.9992
▁Juan	-10.9994
▁đấy	-10.9995
▁1918	-10.9997
che	-11.0001
▁News	-11.0004
▁Ray	-11.0004
▁12,	-11.001
tes	-11.0011
1,	-11.0019
▁YouTube	-11.0024
▁nghiệt	-11.0024
▁Lẽ	-11.0024
▁Tiêu	-11.0025
▁mầm	-11.0025
▁hạch	-11.0034
▁Adam	-11.004
ite	-11.0046
là	-11.0051
▁Premier	-11.0054
▁Serbia	-11.0057
▁Coi	-11.0067
Ma	-11.0077
▁bệ	-11.0078
▁OK	-11.0083
▁Tuyến	-11.0084
ý	-11.0086
▁50%	-11.0089
▁pop	-11.0092
▁64	-11.0094
▁Uh	-11.0095
▁NASA	-11.0111
▁thói	-11.0112
▁nốt	-11.0112
▁Chờ	-11.0117
ris	-11.012
▁Matt	-11.0124
▁bả	-11.0133
▁Sydney	-11.014
▁kẹo	-11.014
ương	-11.0141
▁with	-11.0142
▁đòn	-11.0143
▁GDP	-11.0144
-5	-11.0157
▁triệ	-11.016
▁(2	-11.0169
▁Moskva	-11.0169
▁vạch	-11.0169
▁suối	-11.0169
▁Amazon	-11.017
▁Barry	-11.0171
▁Linh	-11.0175
Một	-11.0178
▁vỗ	-11.018
▁hôi	-11.0192
ac	-11.0195
ốc	-11.0196
xem	-11.0196
▁đầm	-11.0198
▁sừng	-11.0199
▁Jane	-11.0201
▁We	-11.0201
▁bơm	-11.0202
▁cụt	-11.0203
nd	-11.0205
▁1.000	-11.0213
dy	-11.0225
▁Tri	-11.0233
▁Time	-11.0236
48	-11.0237
▁hố	-11.0239
ura	-11.0242
▁Chúc	-11.0243
▁chua	-11.0248
▁ti	-11.0249
▁miện	-11.0256
▁COVID	-11.0258
▁MTV	-11.0259
▁Qua	-11.0263
yo	-11.0266
▁CO	-11.0268
ria	-11.0276
▁Live	-11.0278
39	-11.0285
▁duệ	-11.0287
ation	-11.0294
▁Can	-11.0296
đ	-11.0299
▁Sản	-11.0299
▁CA	-11.0308
ông	-11.0312
▁kiềm	-11.0316
▁nhũng	-11.0318
▁cúp	-11.032
▁Media	-11.0328
▁vợt	-11.0345
▁Android	-11.0346
▁website	-11.0346
▁vòm	-11.0347
▁Marie	-11.0348
▁Street	-11.0348
▁nhát	-11.0348
▁Sức	-11.0349
▁bến	-11.035
▁Real	-11.0359
▁dê	-11.0359
▁Show	-11.0362
ling	-11.0366
ara	-11.0367
▁(4	-11.0371
▁1962	-11.0376
ase	-11.0378
op	-11.0379
▁sôi	-11.0382
ns	-11.0392
▁65	-11.0405
▁Hollywood	-11.0406
▁Khmer	-11.0409
ide	-11.041
▁thính	-11.0411
ita	-11.0413
▁Gu	-11.0416
ai	-11.0417
▁Madrid	-11.0436
▁vé	-11.0441
▁Costa	-11.0444
▁Kiến	-11.0446
▁Vệ	-11.045
▁tour	-11.045
▁Ya	-11.0453
▁dâng	-11.0463
▁Khách	-11.047
▁37	-11.0471
▁(3	-11.0477
▁10%	-11.0479
▁Vai	-11.0483
▁tím	-11.0506
ếm	-11.0513
ium	-11.0518
▁Gọi	-11.0526
▁Jimmy	-11.0526
▁Trân	-11.0526
▁Taylor	-11.0528
99	-11.0538
▁White	-11.0539
len	-11.0543
▁75	-11.0553
-6	-11.0553
▁rộn	-11.0556
▁Viết	-11.0556
▁Thử	-11.0558
▁nụ	-11.056
▁Christian	-11.056
▁Bóng	-11.0561
▁khiết	-11.0567
ut	-11.0568
▁duyên	-11.0569
▁Simon	-11.0575
▁1954	-11.0578
▁vần	-11.058
95	-11.0584
ev	-11.0586
▁gởi	-11.0587
▁tỏa	-11.0588
▁Tay	-11.0594
▁thỏ	-11.0601
▁Sri	-11.0603
▁2003.	-11.0608
▁1952	-11.061
▁Will	-11.0611
▁email	-11.0617
van	-11.0617
▁Tưởng	-11.0617
▁lúa	-11.0618
▁Bảng	-11.0624
▁Đồ	-11.0625
▁tựu	-11.0626
▁man	-11.063
▁Club	-11.0644
▁internet	-11.0648
▁Chỗ	-11.0648
▁Viên	-11.0648
▁Đĩa	-11.0649
iểm	-11.0652
khoảng	-11.0658
đã	-11.0658
▁Khí	-11.067
▁PC	-11.0676
▁xé	-11.0678
▁đính	-11.0678
▁râu	-11.0678
▁cưỡi	-11.0679
▁Phản	-11.068
▁tứ	-11.0707
▁Lincoln	-11.071
▁cáp	-11.0711
85	-11.0714
bin	-11.0714
▁nàn	-11.0737
▁Nhớ	-11.0741
▁Lâm	-11.0741
ow	-11.0745
▁Sal	-11.0746
Nếu	-11.0751
ất	-11.0755
field	-11.076
64	-11.0762
amp	-11.0765
▁tiễn	-11.0771
▁quật	-11.0771
▁bấy	-11.0771
▁600	-11.0773
▁1921	-11.0775
▁*	-11.0778
up	-11.0779
kan	-11.0784
▁thầu	-11.0802
▁gạo	-11.0802
▁Thuốc	-11.0802
▁Quý	-11.0805
▁Giữa	-11.0807
ven	-11.081
▁bỏng	-11.0814
▁1938	-11.0819
▁Ge	-11.082
Ta	-11.0837
▁đoan	-11.0838
▁Hậu	-11.0865
▁sương	-11.0865
▁nãy	-11.0867
▁phím	-11.087
tic	-11.0875
▁1990.	-11.0878
▁Tuyên	-11.088
▁1961	-11.0881
▁1977	-11.0883
▁1945	-11.0884
▁thự	-11.0894
▁soái	-11.0896
▁á	-11.0906
ani	-11.0911
▁Ku	-11.0913
▁nhàng	-11.0915
▁trá	-11.0915
▁1953	-11.0918
▁hàn	-11.0922
▁mốc	-11.0929
▁Claire	-11.0929
▁Tinh	-11.0941
▁Za	-11.0942
▁Fe	-11.0945
▁đà	-11.0955
▁Ju	-11.0957
▁vứt	-11.0959
▁xưng	-11.0959
▁Queen	-11.0959
▁Thân	-11.0961
▁mổ	-11.0963
▁1925	-11.0964
▁1997,	-11.0971
Bạn	-11.0971
▁19,	-11.0976
▁xà	-11.0978
▁cần	-11.099
▁Sarah	-11.1
▁pho	-11.1
ell	-11.1002
α	-11.1003
▁Island	-11.1013
▁nhiều	-11.1022
▁Nhiệ	-11.1034
▁khoang	-11.1042
▁42	-11.1042
#7871;	-11.1054
▁UEFA	-11.1054
▁Alaska	-11.1054
▁đạc	-11.1054
▁mỡ	-11.1055
▁Ô	-11.1069
ải	-11.107
mu	-11.1076
▁Jamaica	-11.1086
▁Stalin	-11.1086
▁Séc	-11.1087
▁chổi	-11.1089
nia	-11.109
ski	-11.1115
▁Ly	-11.1116
▁Ah	-11.1116
▁huỷ	-11.1118
▁Group	-11.1118
ena	-11.1126
tr	-11.1135
▁Per	-11.1141
ường	-11.115
▁Viễn	-11.115
▁Mĩ	-11.1151
▁Ru	-11.1155
▁bồn	-11.1156
▁Art	-11.1156
▁Robin	-11.1159
▁Mal	-11.1163
▁1994,	-11.1166
▁Linux	-11.1186
55	-11.1189
▁đệm	-11.1195
▁dịu	-11.1199
ju	-11.1209
▁(6	-11.121
Ba	-11.1214
▁Puerto	-11.1215
▁Bueno	-11.1215
▁Gã	-11.1215
▁Bán	-11.1216
ł	-11.1233
▁láng	-11.1241
▁kép	-11.1247
▁hụt	-11.1247
▁chéo	-11.1247
▁Blue	-11.1273
▁Ed	-11.1276
▁guitar	-11.128
▁đầu	-11.128
▁Philadelphia	-11.128
▁Đấy	-11.1282
▁Aires	-11.1283
▁lb	-11.1291
▁khe	-11.13
▁Jersey	-11.1312
▁đậm	-11.1312
▁cược	-11.1313
▁bóp	-11.1314
▁Liban	-11.1315
▁Mau	-11.1316
▁Brian	-11.132
ford	-11.132
▁be	-11.1321
▁Ng	-11.1324
69	-11.1327
▁1996,	-11.1329
13	-11.1332
▁1930	-11.1333
ô	-11.1334
▁39	-11.1343
▁rằng	-11.1345
▁Khối	-11.1346
▁dở	-11.1346
▁CIA	-11.1346
▁Núi	-11.1347
▁Georgia	-11.1351
▁120	-11.1372
▁Phá	-11.138
40	-11.1381
▁neo	-11.1383
▁Min	-11.1383
qui	-11.1384
▁qu	-11.1407
▁1937	-11.1409
ola	-11.141
#225;	-11.1411
▁Walter	-11.1417
▁quyên	-11.142
ero	-11.1427
▁Day	-11.1436
ốt	-11.1438
▁radar	-11.1444
▁Trẻ	-11.1444
▁34	-11.1451
fi	-11.1452
âm	-11.1452
▁buồng	-11.1454
cũng	-11.1461
▁Sha	-11.1462
tis	-11.1462
▁East	-11.1464
45	-11.1475
▁Huy	-11.1476
▁Bruce	-11.1478
▁Croatia	-11.1482
▁ngục	-11.1482
▁Màu	-11.1489
▁1950,	-11.1499
▁1900	-11.1501
▁Karl	-11.1503
▁Shi	-11.1504
▁bit	-11.1504
▁Trump	-11.1507
88	-11.151
▁Siêu	-11.1515
▁Chí	-11.1522
▁file	-11.1523
83	-11.1528
▁Thập	-11.1544
▁Marshall	-11.1544
▁Macedonia	-11.1544
ờ	-11.1545
▁Mộc	-11.1545
▁Chung	-11.1564
▁−	-11.1565
▁chì	-11.1566
79	-11.1577
mon	-11.1578
▁chuyền	-11.1578
▁Joey	-11.1584
▁Miến	-11.1596
ì	-11.1597
▁SS	-11.1597
▁khoai	-11.1602
ff	-11.1608
▁Mang	-11.1609
nes	-11.1618
▁Khan	-11.163
▁Nền	-11.1647
▁Diễn	-11.1647
▁US	-11.165
Hãy	-11.1662
ent	-11.1666
ot	-11.1666
▁fan	-11.1678
▁College	-11.168
▁Java	-11.1681
▁Giai	-11.1684
▁Congo	-11.1692
lon	-11.1692
tz	-11.1693
har	-11.1705
▁Nàng	-11.1716
▁khao	-11.1716
▁logic	-11.1716
▁(16	-11.1725
▁kilômét	-11.1747
▁thầm	-11.1747
▁rải	-11.1748
▁Phu	-11.1748
▁Mở	-11.1751
▁lam	-11.1762
50	-11.1765
▁Tai	-11.1766
im	-11.1769
▁Haiti	-11.177
▁Trưởng	-11.1781
▁suýt	-11.1782
а	-11.1782
▁Bạch	-11.1783
sky	-11.1785
▁Wi	-11.1785
jin	-11.179
-17	-11.1791
au	-11.1792
▁Fu	-11.1792
77	-11.1802
▁tản	-11.1807
▁điếm	-11.1808
▁Yo	-11.1815
▁Iceland	-11.1816
▁thật	-11.1816
▁Sen	-11.1816
he	-11.1818
78	-11.1821
▁dỗ	-11.1824
tor	-11.1826
ep	-11.1827
▁800	-11.1829
dong	-11.1829
om	-11.1829
21	-11.183
▁Pat	-11.1836
▁hoạ	-11.184
ken	-11.1843
▁opera	-11.1845
▁Tham	-11.1848
28	-11.185
▁nòng	-11.1851
▁lót	-11.1852
▁43	-11.1854
▁Wa	-11.1857
▁trọn	-11.1858
31	-11.186
▁cán	-11.1867
▁Andrew	-11.1869
87	-11.188
▁cu	-11.1885
▁bùn	-11.1896
▁Chó	-11.19
▁Sir	-11.1902
▁Night	-11.1905
-7	-11.1912
▁Tỷ	-11.192
gược	-11.1922
▁z	-11.1923
▁VII	-11.1926
▁vầy	-11.1936
46	-11.1948
▁Xê	-11.1953
res	-11.1954
▁lận	-11.1955
▁Trần	-11.1955
▁nhất	-11.1955
▁Ghana	-11.1955
▁khuất	-11.1957
▁Rico	-11.1959
▁Đánh	-11.1991
ong	-11.1993
▁Yêu	-11.1996
▁Val	-11.1998
▁Har	-11.2
▁Hama	-11.2008
▁Ghi	-11.2014
34	-11.2017
▁Far	-11.2018
▁gói	-11.2025
▁dập	-11.2025
▁Lão	-11.2027
▁→	-11.2028
76	-11.2038
▁2000.	-11.2042
▁Mr	-11.2042
-15	-11.2047
wan	-11.2048
nhưng	-11.2059
▁Pennsylvania	-11.206
▁rìa	-11.206
▁rễ	-11.206
▁luồng	-11.206
▁nhở	-11.206
min	-11.2065
▁xôi	-11.2067
▁Norman	-11.2068
▁Sang	-11.2082
ada	-11.2089
▁Pu	-11.209
▁Guatemala	-11.2096
▁Tạp	-11.2097
26	-11.2098
▁thiếp	-11.2099
▁55	-11.2105
zu	-11.2108
▁Đề	-11.2112
Các	-11.2114
°	-11.2118
▁Oregon	-11.213
oc	-11.213
▁Sudan	-11.2133
▁series	-11.2135
dia	-11.2149
thường	-11.2152
ö	-11.216
▁Ro	-11.2165
▁gạt	-11.2167
▁Einstein	-11.2168
▁bực	-11.2168
ếch	-11.2168
▁Biên	-11.217
▁Rose	-11.2174
98	-11.2181
▁dại	-11.2182
▁khiếu	-11.2185
ik	-11.219
▁phơi	-11.2202
47	-11.2204
▁Euro	-11.221
▁Hu	-11.2211
tal	-11.2224
ua	-11.2226
ếu	-11.2228
▁giềng	-11.2238
▁hít	-11.2238
▁Lanka	-11.2238
▁Jin	-11.224
▁Abu	-11.2247
▁bồ	-11.2249
yan	-11.2263
▁re	-11.2269
▁khuynh	-11.2274
▁Nepal	-11.2274
▁luân	-11.2274
▁rổ	-11.2275
▁Eric	-11.2278
tsu	-11.2287
gon	-11.2291
tháng	-11.2295
▁Ecuador	-11.2311
▁Games	-11.2313
▁1992,	-11.2315
ula	-11.2315
▁80%	-11.2317
ae	-11.2319
▁Kong	-11.2327
▁des	-11.2331
▁250	-11.2337
bar	-11.2337
▁Las	-11.2344
▁Nông	-11.2351
val	-11.2353
38	-11.2375
sta	-11.2379
22	-11.2389
▁Awards	-11.239
▁Nhanh	-11.2394
▁FA	-11.2396
▁chớ	-11.2401
▁Cu	-11.2409
ến	-11.2411
Đ	-11.2415
▁lăn	-11.2418
▁đắm	-11.2419
ting	-11.2419
▁Gar	-11.2422
▁sống	-11.2424
-10	-11.2425
▁1926	-11.2425
▁1949	-11.2434
▁2020	-11.2436
od	-11.2438
▁táng	-11.244
33	-11.2446
ー	-11.2455
ata	-11.2457
▁Batman	-11.2458
▁nọ	-11.2462
▁Life	-11.2467
▁Phố	-11.2479
▁mẻ	-11.2493
▁Harvard	-11.2493
▁bư	-11.2497
о	-11.2499
▁Nh	-11.2502
▁Mor	-11.2505
▁bin	-11.2511
▁đinh	-11.2512
▁gai	-11.2514
ập	-11.2514
▁(15	-11.2516
ser	-11.2521
▁phô	-11.2521
▁Jerusalem	-11.2529
▁Caesar	-11.253
ure	-11.2536
▁Chân	-11.2537
23	-11.254
65	-11.2547
▁xít	-11.2547
ida	-11.2558
▁Mạng	-11.2567
ab	-11.2567
▁Oxford	-11.2568
▁Tâm	-11.257
2)	-11.2573
86	-11.2574
▁Royal	-11.2588
mm	-11.2589
▁Ana	-11.2592
ros	-11.2599
#7843;	-11.2603
▁Kepler	-11.2603
▁Twitter	-11.2603
▁Tháp	-11.2603
uk	-11.2606
▁Allen	-11.2607
▁diễ	-11.2608
▁đàng	-11.261
▁1928	-11.2611
▁Ri	-11.2617
и	-11.2618
▁tệp	-11.2619
▁1936	-11.262
96	-11.2625
▁bong	-11.2626
▁Sơ	-11.2628
▁Mố	-11.2634
▁bàng	-11.2637
▁Giữ	-11.2639
▁Norfolk	-11.2641
▁ngẩn	-11.2641
-20	-11.2641
▁lầy	-11.2643
▁Albania	-11.2645
▁Miller	-11.2647
uri	-11.2649
ا	-11.2652
tus	-11.2657
▁chóc	-11.2662
ằm	-11.2674
▁Okinawa	-11.2678
▁Nguyễn	-11.2679
▁Ash	-11.268
sch	-11.2683
▁chiết	-11.2683
▁Im	-11.2684
▁Tuyệt	-11.2684
ā	-11.269
▁).	-11.2698
ây	-11.2709
▁1995,	-11.2709
▁Solomon	-11.2716
▁ghen	-11.2716
▁chằm	-11.2716
und	-11.2719
66	-11.2724
TV	-11.2726
▁Ke	-11.2727
ột	-11.2742
▁Giang	-11.2744
▁Sea	-11.2749
▁clorua	-11.2753
Và	-11.2754
▁High	-11.2755
▁trừu	-11.2756
▁Ờ	-11.2756
ala	-11.2759
▁Par	-11.2766
low	-11.2776
tt	-11.2777
▁Rica	-11.278
#236;	-11.2791
▁Trọng	-11.2791
▁José	-11.2791
▁chày	-11.2793
▁Great	-11.2796
ment	-11.2797
▁thơm	-11.2799
▁Dr	-11.28
▁Alan	-11.2806
-8	-11.2807
▁1934	-11.2813
▁Victor	-11.2815
Th	-11.2822
▁ngặt	-11.2829
▁Stephen	-11.2829
▁laser	-11.2831
▁Monica	-11.2831
▁lều	-11.2832
44	-11.2833
▁en	-11.2838
ous	-11.2838
▁hit	-11.2839
▁Je	-11.284
gar	-11.2853
▁Hong	-11.2856
▁Del	-11.2857
năm	-11.2857
sin	-11.2858
▁ngự	-11.2859
▁Arizona	-11.2867
▁Carlos	-11.2876
wood	-11.2879
▁Bush	-11.2882
pan	-11.2889
▁Santiago	-11.2906
▁Biểu	-11.2906
▁Huân	-11.2906
▁Ph	-11.2909
▁bóc	-11.2911
▁Lao	-11.2916
▁xí	-11.2917
▁Er	-11.2917
ơ	-11.2918
ary	-11.292
▁hèn	-11.2927
chúng	-11.2933
dar	-11.2937
▁j	-11.2937
rat	-11.2938
-12	-11.2941
▁natri	-11.2944
ens	-11.2945
}}	-11.2945
▁School	-11.2946
▁Italia	-11.2947
▁trán	-11.2951
din	-11.2961
▁44	-11.2964
▁1930,	-11.2968
▁Darwin	-11.2983
▁Ngựa	-11.2984
▁tới	-11.2986
▁Tôn	-11.2986
khi	-11.2993
▁Men	-11.2998
▁chiên	-11.2999
CO	-11.3014
▁Hoạ	-11.3018
▁Airlines	-11.3022
▁trước	-11.3022
▁Mẫu	-11.3022
▁Sếp	-11.3022
57	-11.3023
▁British	-11.3024
▁ôn	-11.3025
▁Bờ	-11.3027
▁et	-11.3044
▁kề	-11.305
▁00	-11.3051
32	-11.3055
▁1931	-11.3063
▁Wikipedia	-11.3063
▁ngô	-11.3063
▁Up	-11.3063
▁Ê	-11.3066
▁20,	-11.3067
▁Sách	-11.3068
▁100.000	-11.3069
▁cơm	-11.3079
ú	-11.3082
▁chứ	-11.3089
aceae	-11.3091
▁đắp	-11.31
▁Sol	-11.31
▁nhường	-11.31
▁Miami	-11.31
▁Sar	-11.3106
à	-11.3112
75	-11.3113
▁amin	-11.3128
▁Ethiopia	-11.3139
▁Chart	-11.3141
▁1929	-11.3144
rus	-11.3147
mina	-11.316
▁ham	-11.3161
ela	-11.3165
▁sê	-11.3172
07	-11.3173
▁Mới	-11.3179
▁Kevin	-11.3179
▁1927	-11.318
HMS	-11.3188
ắt	-11.3195
▁dán	-11.3204
bit	-11.3205
▁Dave	-11.321
▁Milan	-11.3216
▁cồn	-11.3217
▁Houston	-11.3218
▁Chuyển	-11.3218
▁nhốt	-11.3218
▁Chelsea	-11.3219
▁nương	-11.3219
▁Gì	-11.3219
▁Ford	-11.3221
fo	-11.3227
▁Stone	-11.3232
▁Cal	-11.3236
▁rò	-11.3256
▁kiếp	-11.3257
▁Chồng	-11.3258
▁Pedro	-11.3258
ón	-11.3258
▁Emily	-11.3258
▁Catherine	-11.3258
▁Lập	-11.3259
▁Radio	-11.3263
▁bát	-11.3283
ấm	-11.3284
80	-11.3288
▁Stark	-11.329
▁0.	-11.3296
▁Os	-11.3297
▁gục	-11.3297
▁41	-11.3299
▁tủy	-11.3305
▁Biến	-11.3306
▁20%	-11.3306
▁xen	-11.333
ble	-11.3334
▁lấn	-11.3338
▁Lewis	-11.3339
▁Nu	-11.3351
▁Chữ	-11.3359
sia	-11.3367
▁trội	-11.3377
▁from	-11.3378
▁ngọc	-11.3378
▁Bước	-11.3379
▁90%	-11.3383
▁lánh	-11.3385
▁(7	-11.3396
ống	-11.3398
▁Davis	-11.3398
▁USS	-11.34
▁cay	-11.3401
..."	-11.3403
▁Cam	-11.3405
Đó	-11.3409
▁Dar	-11.3418
rd	-11.3422
▁Litva	-11.3424
II	-11.3432
▁Va	-11.3433
ef	-11.3434
▁DC	-11.3445
huyên	-11.3448
▁Bor	-11.3458
▁Xbox	-11.3459
▁bầy	-11.3459
▁chuộc	-11.3459
phát	-11.346
▁lén	-11.3461
▁1933	-11.3468
▁hoạn	-11.3474
▁Đám	-11.3475
vin	-11.3485
▁toa	-11.3489
▁vả	-11.3492
▁xế	-11.3497
#250;	-11.3499
▁Corporation	-11.3499
▁tăm	-11.3499
Cl	-11.3501
▁Fort	-11.3509
well	-11.3517
illa	-11.3529
cười	-11.353
nam	-11.3532
▁1958	-11.3537
▁America	-11.3539
▁giặt	-11.354
06	-11.354
▁Binh	-11.3542
ism	-11.3542
▁Philip	-11.3543
vo	-11.3547
ay	-11.3553
▁Jon	-11.3555
▁Sin	-11.3558
▁Môi	-11.3567
▁xả	-11.3573
▁Bí	-11.3578
▁blog	-11.358
?)	-11.358
▁Bangladesh	-11.3581
▁Manhattan	-11.3581
▁Sicilia	-11.3581
▁giọt	-11.3581
▁Howard	-11.3581
▁Belarus	-11.3582
▁Cấu	-11.3583
▁khoái	-11.3587
37	-11.3589
▁mu	-11.3598
▁1970.	-11.36
▁Nhạc	-11.3605
ي	-11.3609
93	-11.3615
*	-11.3621
▁Moscow	-11.3622
ec	-11.3622
▁Gordon	-11.3622
▁rét	-11.3622
▁Danny	-11.3622
▁Đợi	-11.3624
▁ngớ	-11.3626
́	-11.3627
▁01	-11.3628
▁show	-11.3632
▁beta	-11.3633
▁Môn	-11.3634
97	-11.3638
ä	-11.3641
ân	-11.3645
gh	-11.3648
ensis	-11.3663
▁PlayStation	-11.3663
▁Caribe	-11.3664
▁taxi	-11.367
▁thà	-11.3677
▁Ted	-11.3679
-9	-11.3682
▁Leo	-11.3687
▁lơ	-11.3687
▁At	-11.3705
▁Marcus	-11.3706
met	-11.3709
ew	-11.371
▁xộn	-11.371
▁giáng	-11.3712
▁Sh	-11.3715
Re	-11.372
lus	-11.3728
▁1,5	-11.373
▁46	-11.3741
▁chước	-11.3747
yn	-11.3748
ram	-11.3753
▁2002.	-11.3754
▁Studios	-11.3755
▁Billy	-11.3758
1.	-11.3758
▁47	-11.376
NG	-11.3761
▁phàn	-11.3761
▁w	-11.3761
▁thoả	-11.3772
▁đỗ	-11.3779
▁Ve	-11.3788
▁Liverpool	-11.3788
▁Franklin	-11.3789
▁(12	-11.3793
▁ủi	-11.3794
▁For	-11.3796
cô	-11.3801
▁1957	-11.3805
▁Ag	-11.3815
▁tơ	-11.3817
▁by	-11.382
▁gene	-11.3821
67	-11.3826
ăn	-11.3827
42	-11.383
▁Guadalcanal	-11.383
▁nuốt	-11.383
▁trói	-11.383
▁ngắt	-11.383
▁cạo	-11.3831
▁rể	-11.3833
▁lô	-11.3835
▁ADN	-11.384
▁nhã	-11.3844
tha	-11.3849
68	-11.3851
▁Ham	-11.3853
ō	-11.3856
▁Dùng	-11.3859
▁Nghĩ	-11.3866
Al	-11.387
▁Barcelona	-11.3872
▁Colorado	-11.3872
mann	-11.3873
▁ngào	-11.3874
hara	-11.3874
500	-11.3874
▁Wayne	-11.3874
▁Luôn	-11.3876
▁Chết	-11.3878
▁1924	-11.3878
▁Wall	-11.3884
▁Den	-11.3886
▁chiêu	-11.3887
▁Sony	-11.3897
lis	-11.3901
and	-11.3905
▁tởm	-11.3915
▁Đốc	-11.3915
▁Độc	-11.3916
▁Phúc	-11.3916
▁Kai	-11.3926
▁as	-11.3927
▁Bel	-11.3931
▁Mong	-11.3936
▁1922	-11.3946
▁Đàn	-11.3955
▁Estonia	-11.3957
▁dệt	-11.3957
▁Lớn	-11.3957
▁rèn	-11.3958
rt	-11.3959
way	-11.396
▁Vegas	-11.396
▁Little	-11.3964
lla	-11.3974
▁solo	-11.3976
era	-11.3977
▁Un	-11.399
73	-11.3991
58	-11.3996
▁Giúp	-11.4
▁chùa	-11.4001
▁Web	-11.4004
▁30%	-11.4012
eta	-11.4023
▁Roy	-11.4025
▁Roman	-11.4025
▁1980.	-11.4033
trước	-11.4035
▁Cử	-11.4037
▁Cambridge	-11.4043
▁Jay	-11.4043
▁Company	-11.4043
▁Andy	-11.4047
xi	-11.4049
lia	-11.4054
▁52	-11.4054
▁Kho	-11.4055
▁mãnh	-11.4058
▁khánh	-11.4064
eo	-11.4065
▁72	-11.4073
▁EP	-11.4075
▁đè	-11.4075
▁Đâu	-11.4086
hân	-11.4088
▁Út	-11.4089
▁Lá	-11.4094
▁1982	-11.4094
29	-11.4095
iêm	-11.4098
▁ớt	-11.4099
mp	-11.4099
54	-11.4101
▁ri	-11.4102
▁khoác	-11.4111
▁1917	-11.4114
▁Ram	-11.4118
▁Free	-11.412
eb	-11.4123
71	-11.4124
▁đắc	-11.413
▁thuỷ	-11.413
▁lầu	-11.4132
▁UNESCO	-11.4133
▁đố	-11.4135
theo	-11.4141
▁58	-11.4143
mus	-11.4144
▁Gen	-11.4146
3.	-11.4151
eh	-11.4161
ré	-11.4163
3,	-11.4166
Ông	-11.4167
▁lượn	-11.4171
$	-11.4172
▁khùng	-11.4173
▁Beach	-11.4173
▁Hãn	-11.4201
MA	-11.4202
▁Hạt	-11.4205
Em	-11.4206
▁Ukraine	-11.4216
▁Lượng	-11.4217
▁Ăn	-11.422
▁or	-11.4222
▁Thỏ	-11.4229
▁Tha	-11.4235
▁củ	-11.4238
▁Ber	-11.4238
▁lề	-11.4258
▁vươn	-11.4259
#432;	-11.426
▁lướt	-11.426
▁Của	-11.4262
▁Nè	-11.4262
▁Bur	-11.4265
▁(11	-11.4265
của	-11.4265
▁Point	-11.4267
ài	-11.4274
▁Gold	-11.4278
kiêm	-11.4283
▁Model	-11.4291
▁99	-11.4292
▁(8	-11.4293
▁gay	-11.4294
▁Nova	-11.4296
▁mụ	-11.4302
▁Libya	-11.4305
▁Vận	-11.4305
▁Mất	-11.4305
▁Jacob	-11.4306
▁Tunisia	-11.4307
▁40%	-11.4312
▁Trả	-11.4313
49	-11.4342
▁Bàn	-11.4343
#7845;	-11.4348
▁Lawrence	-11.4349
▁giếng	-11.4349
▁xăm	-11.4349
▁1905	-11.4351
▁Chan	-11.4353
▁General	-11.4353
▁Lucas	-11.4356
chỉ	-11.4364
▁doạ	-11.4365
▁Tra	-11.4368
▁Đoạ	-11.4373
▁2.000	-11.4374
fer	-11.4383
▁Var	-11.4387
56	-11.4388
▁Walt	-11.4388
Ho	-11.4389
Nó	-11.4391
▁Sierra	-11.4393
▁nhện	-11.4393
▁Douglas	-11.4394
▁tạ	-11.4395
▁vòi	-11.4396
▁Williams	-11.44
▁Old	-11.44
▁She	-11.4413
my	-11.4416
91	-11.4417
ách	-11.4421
Cô	-11.4432
▁Kraków	-11.4438
▁Chandler	-11.4438
▁(10	-11.4448
▁mồm	-11.445
▁Grant	-11.445
ichi	-11.4451
▁Vàng	-11.4453
▁Cole	-11.4455
ric	-11.447
▁Pra	-11.4472
▁lờ	-11.4474
để	-11.4478
_{	-11.4482
ấy	-11.4482
#7879;	-11.4482
▁Đứa	-11.4483
▁Chiều	-11.4483
▁nếu	-11.4484
▁chớp	-11.4484
▁nhúng	-11.4487
▁51	-11.4497
▁bơ	-11.451
▁vớ	-11.4513
▁CH	-11.4518
cin	-11.4518
▁gốm	-11.4528
▁sùng	-11.4528
▁ngủi	-11.453
▁trơn	-11.453
61	-11.4531
▁XX	-11.4537
chủ	-11.4546
iya	-11.4557
ika	-11.4568
▁000	-11.4569
52	-11.457
▁Mon	-11.4571
yama	-11.4572
▁chay	-11.4572
▁Thẩm	-11.4573
▁Dữ	-11.4573
▁Jason	-11.4574
▁hormone	-11.4575
▁1923	-11.4577
▁lội	-11.4581
pp	-11.4584
tro	-11.4586
ier	-11.459
▁ki	-11.4599
е	-11.4599
▁Ab	-11.4599
thành	-11.4603
41	-11.4608
▁Nhậ	-11.461
ray	-11.4611
▁Roger	-11.4612
▁ruồi	-11.4618
▁thực	-11.4618
▁cẩu	-11.4619
▁Băng	-11.462
▁1912	-11.4624
▁sảnh	-11.4625
01	-11.4633
▁Ron	-11.4648
▁xô	-11.4653
zer	-11.4655
▁pa	-11.4655
▁Morgan	-11.4658
94	-11.4659
▁Alfred	-11.4661
kov	-11.4661
▁God	-11.4664
▁Huyện	-11.4664
▁Cairo	-11.4664
▁mẩu	-11.4665
▁Zimbabwe	-11.4665
▁Cruz	-11.4665
ye	-11.4666
04	-11.4667
▁Cánh	-11.4668
89	-11.4669
▁khinh	-11.4679
▁lu	-11.4682
aya	-11.4683
ney	-11.4684
▁hở	-11.4685
▁Home	-11.4688
ale	-11.469
ret	-11.4692
▁CLB	-11.471
▁kệ	-11.4711
▁Ohio	-11.4711
74	-11.4712
▁Athens	-11.4712
▁đốm	-11.4715
▁Mc	-11.4717
ap	-11.472
▁Pha	-11.472
▁Her	-11.4721
▁rập	-11.4724
▁sq	-11.4728
▁Inter	-11.4729
town	-11.473
sy	-11.4734
ona	-11.474
▁Ur	-11.4741
▁Pop	-11.4745
ub	-11.4746
▁Hã	-11.4747
▁Paulo	-11.4749
▁thạc	-11.4754
#7853;	-11.4756
▁Đặt	-11.4756
▁lứa	-11.4756
▁Dean	-11.4758
▁tự	-11.4758
▁vạn	-11.4765
▁côi	-11.477
▁Shu	-11.4776
▁Son	-11.4777
tion	-11.4777
hắc	-11.4785
▁lau	-11.4798
▁Bangkok	-11.4802
▁Kennedy	-11.4802
▁Kyoto	-11.4802
▁XIX	-11.4802
▁Central	-11.4805
▁hái	-11.4806
tức	-11.4806
▁State	-11.4807
ant	-11.4807
▁100%	-11.4809
▁Ryan	-11.481
▁Au	-11.4815
▁Chế	-11.4818
▁len	-11.4822
▁nơ	-11.4835
▁Jong	-11.4842
▁Galaxy	-11.4849
▁khéo	-11.4849
▁Donald	-11.4849
▁Leon	-11.485
▁Khó	-11.4852
▁1911	-11.4853
▁1915	-11.4854
▁Pierre	-11.4857
▁Sky	-11.4858
▁Newton	-11.4863
▁Villa	-11.4868
08	-11.4876
▁Good	-11.4889
▁1960.	-11.4891
#7889;	-11.4895
▁Xuất	-11.4895
▁NATO	-11.4899
▁(9	-11.49
▁Alpha	-11.4901
▁Amy	-11.4906
làm	-11.4907
ss	-11.4912
ag	-11.4913
ane	-11.492
ise	-11.4926
tar	-11.4933
-11	-11.4937
▁Trụ	-11.494
▁thắn	-11.4941
▁Gruzia	-11.4942
▁Clinton	-11.4942
▁Xưởng	-11.4943
▁Japan	-11.4945
hai	-11.4948
dis	-11.4949
dra	-11.4949
nin	-11.4956
▁Ánh	-11.4959
;/	-11.496
út	-11.4962
tel	-11.4964
▁rực	-11.4968
▁nhậ	-11.4969
DS	-11.4972
▁(13	-11.4977
▁Pre	-11.4978
ẩm	-11.4983
▁Lạ	-11.4983
▁1984	-11.4984
▁Bolivia	-11.499
▁Cameron	-11.499
▁Trinidad	-11.499
▁tambon	-11.499
▁chùm	-11.499
▁ă	-11.499
▁lắc	-11.4991
▁Byzantine	-11.4991
aba	-11.4993
ato	-11.4994
ning	-11.4995
▁đày	-11.4996
▁Chứng	-11.4997
▁Ten	-11.4999
rie	-11.5004
let	-11.5014
84	-11.5015
▁Post	-11.5019
des	-11.502
▁tảo	-11.5021
▁×	-11.5023
In	-11.5023
zy	-11.5025
▁Miss	-11.5029
lic	-11.503
Đây	-11.5034
▁Quay	-11.5034
hu	-11.5034
▁1919	-11.5036
▁Kênh	-11.5037
▁Uruguay	-11.5037
▁Kazakhstan	-11.5037
▁nhuộm	-11.5037
▁Manila	-11.5038
▁dẻo	-11.5038
▁IBM	-11.5038
ora	-11.504
▁Sultan	-11.5041
IS	-11.5045
-16	-11.5045
▁xi	-11.5046
▁tể	-11.5047
▁Món	-11.5047
ys	-11.505
our	-11.5052
ska	-11.5056
out	-11.506
59	-11.5061
▁Fo	-11.5062
▁liêng	-11.5064
▁TH	-11.5066
▁Slav	-11.507
▁Babylon	-11.5075
▁bã	-11.5077
▁56	-11.5081
▁Boeing	-11.5085
▁rệt	-11.5085
▁Champions	-11.5086
▁hoành	-11.5093
cal	-11.5093
▁Final	-11.5094
▁run	-11.5094
▁Dã	-11.5097
ránh	-11.5114
▁1914	-11.5119
▁1997.	-11.512
09	-11.5126
▁tụng	-11.5128
▁uốn	-11.5131
▁1971	-11.5132
▁rạn	-11.5132
▁iPhone	-11.5132
▁Khắc	-11.5136
▁1946	-11.5136
▁xíu	-11.5136
pur	-11.5137
burg	-11.5137
qu	-11.5138
▁se	-11.5145
ome	-11.5155
▁19.	-11.5157
▁lọ	-11.5161
▁hiếu	-11.5165
▁Bra	-11.5169
▁700	-11.5171
▁Bank	-11.5174
▁Key	-11.5176
▁xơ	-11.5176
70	-11.5179
▁Wilhelm	-11.518
▁hắn	-11.5181
▁quầy	-11.5181
▁bắt	-11.5181
▁lậu	-11.5181
ū	-11.5182
▁Sahara	-11.5183
▁Myanmar	-11.5183
▁họng	-11.5187
eu	-11.5189
▁1996.	-11.5195
eg	-11.5198
▁Chả	-11.5202
uma	-11.5205
ex	-11.5211
9%	-11.5213
▁Jung	-11.5219
▁Land	-11.5219
▁Yi	-11.5222
ben	-11.5224
og	-11.5225
▁Napoleon	-11.5229
▁Tommy	-11.5229
▁Walker	-11.523
▁coronavirus	-11.523
▁Phạm	-11.523
▁giơ	-11.5234
ette	-11.5234
▁vớt	-11.5235
▁cớm	-11.5235
▁chip	-11.5235
▁tạng	-11.5237
▁Chàng	-11.5248
▁Mari	-11.5248
▁Bre	-11.5251
▁Ivan	-11.5254
▁sô	-11.5256
mà	-11.5258
aria	-11.526
▁3.000	-11.5261
▁el	-11.5272
Sa	-11.5277
▁Arsenal	-11.5277
▁Cameroon	-11.5277
▁Roosevelt	-11.5277
▁Tanzania	-11.5277
▁ngửi	-11.5277
▁Yemen	-11.5277
▁vất	-11.5278
▁Seung	-11.5278
▁Earth	-11.528
▁đê	-11.5287
ps	-11.5298
51	-11.5306
▁Sur	-11.5307
ito	-11.5309
ies	-11.531
ori	-11.5315
hẳng	-11.5325
▁nghênh	-11.5326
▁đẽ	-11.5326
▁sướng	-11.5326
▁María	-11.5327
▁trân	-11.5327
▁bẻ	-11.5327
▁Nathan	-11.5327
ee	-11.5333
▁1916	-11.5333
▁Es	-11.5333
=	-11.5336
▁1913	-11.534
▁má	-11.5342
▁nộ	-11.5348
▁Dong	-11.5359
▁lột	-11.5364
▁âu	-11.5365
▁Studio	-11.5365
▁Thí	-11.5368
rk	-11.5369
đặc	-11.5374
▁Illinois	-11.5375
▁trèo	-11.5375
▁1910	-11.5375
▁thối	-11.5376
▁Gặp	-11.5376
▁vụn	-11.5379
▁Kan	-11.538
▁Cửa	-11.5385
ựu	-11.5385
▁mông	-11.5387
ele	-11.5399
tri	-11.5408
▁le	-11.541
▁Bond	-11.5412
▁Khoan	-11.5414
▁1999.	-11.5421
▁nã	-11.5421
▁Venice	-11.5424
▁rảnh	-11.5425
▁vẩn	-11.5425
▁Play	-11.5434
▁bọt	-11.5434
-21	-11.544
side	-11.5442
pha	-11.5447
63	-11.5447
▁River	-11.5455
▁Col	-11.5462
▁sụ	-11.5465
▁gìn	-11.5469
▁Atlanta	-11.5474
▁Charlotte	-11.5474
▁Missouri	-11.5474
iv	-11.5474
▁Michigan	-11.5474
▁bẩm	-11.5475
▁tốt	-11.5475
▁xách	-11.5476
▁Antonio	-11.5477
oli	-11.5484
▁Com	-11.5487
tter	-11.5489
▁Cor	-11.5492
▁ah	-11.55
rs	-11.5501
▁Ol	-11.5508
▁Chim	-11.5508
nan	-11.551
▁1945.	-11.5518
▁Anderson	-11.5524
▁Giết	-11.5524
▁Lin	-11.5525
4,	-11.5526
▁1909	-11.5529
▁49	-11.553
▁Open	-11.5541
ight	-11.5551
▁xó	-11.5555
▁Ừm	-11.5566
▁der	-11.5567
▁Madagascar	-11.5574
vì	-11.5575
▁Luke	-11.5575
▁vách	-11.5576
▁Ter	-11.5579
▁Cat	-11.558
▁Zo	-11.5581
▁cớ	-11.5581
▁Um	-11.5581
▁na	-11.5585
53	-11.5586
▁Bou	-11.5595
▁Moon	-11.5603
ima	-11.561
▁Tế	-11.562
▁Mag	-11.5621
▁góa	-11.5624
▁Tokugawa	-11.5624
▁xuôi	-11.5624
▁County	-11.5625
▁lùi	-11.5626
▁1906	-11.5626
▁Baltic	-11.5626
▁Kính	-11.5626
▁rủa	-11.5626
▁Hạng	-11.5627
ose	-11.5628
▁loa	-11.5631
thi	-11.5637
▁cúm	-11.5644
▁nang	-11.5646
ét	-11.5651
▁it	-11.5653
las	-11.5659
▁Dark	-11.5661
▁Award	-11.5666
▁53	-11.5668
hiện	-11.5672
▁Apollo	-11.5674
▁thấm	-11.5675
▁Chức	-11.5677
▁Cooper	-11.5677
▁Center	-11.568
EC	-11.568
rio	-11.5683
zen	-11.5685
▁Les	-11.5689
▁cúng	-11.5704
▁Hans	-11.5709
ras	-11.5713
rum	-11.5714
gun	-11.5721
kar	-11.5722
▁HD	-11.5723
▁1965	-11.5723
▁Florence	-11.5725
▁cuộc	-11.5725
ice	-11.5726
▁Nỗ	-11.5726
▁Malta	-11.5726
81	-11.5727
rình	-11.5728
▁Johnny	-11.5731
ins	-11.5735
ử	-11.5735
fu	-11.5749
▁mớ	-11.5756
bra	-11.5757
▁Jr	-11.5762
▁Sch	-11.5764
82	-11.5764
▁Leyte	-11.5776
▁Lữ	-11.5777
▁Trạm	-11.5777
▁Lady	-11.578
▁Kỷ	-11.5782
▁Bánh	-11.5782
▁Vol	-11.5799
ền	-11.5802
hr	-11.5804
▁Hal	-11.5813
ặp	-11.5823
ls	-11.5826
▁Algérie	-11.5827
▁lỵ	-11.5828
▁Maroc	-11.5828
Nhật	-11.5828
▁dùm	-11.5829
36	-11.583
▁70%	-11.5832
▁Mel	-11.5835
▁xông	-11.5837
OS	-11.584
▁nón	-11.5841
lar	-11.5847
▁Wars	-11.5848
ib	-11.5855
▁Ak	-11.5863
PS	-11.5872
▁rỡ	-11.5879
Điều	-11.588
▁xì	-11.588
▁sáo	-11.5881
▁Titan	-11.5881
▁Tầm	-11.5881
▁Ad	-11.5882
▁proton	-11.5883
nik	-11.5897
bal	-11.59
nhà	-11.5901
▁Cứu	-11.5901
én	-11.5912
ax	-11.5917
▁TP	-11.5919
▁Kara	-11.593
▁Muhammad	-11.5931
▁Melbourne	-11.5931
▁vitamin	-11.5931
▁Vincent	-11.5931
▁chết	-11.5932
aw	-11.5932
▁Đứng	-11.5934
▁MiG	-11.5935
chu	-11.5935
ring	-11.5939
▁Gor	-11.594
▁2001.	-11.594
nis	-11.5947
org	-11.5957
▁Mer	-11.5959
MS	-11.5963
▁Xác	-11.5968
▁Kì	-11.5981
▁Clark	-11.5982
▁Alexandria	-11.5983
▁Anthony	-11.5983
▁Idlib	-11.5983
▁Bengal	-11.5983
stone	-11.5986
▁CEO	-11.5989
nus	-11.5989
pin	-11.599
▁chặng	-11.5998
CH	-11.5998
ễ	-11.6001
▁tôm	-11.6008
▁Metro	-11.6009
del	-11.6012
▁ni	-11.6015
AS	-11.6017
▁tràng	-11.6018
▁pH	-11.6019
iz	-11.602
▁1948	-11.6021
▁1964	-11.6021
pro	-11.6024
▁1907	-11.6025
cu	-11.6028
▁Swift	-11.6035
▁Raymond	-11.6036
▁rãnh	-11.6037
▁Trại	-11.6037
▁60%	-11.604
▁Mali	-11.6043
▁phôi	-11.6049
qua	-11.6057
▁Rosa	-11.6058
if	-11.6071
hởi	-11.6074
ami	-11.6077
▁Ren	-11.6085
▁Channel	-11.6088
▁Xuân	-11.6088
▁quấy	-11.6088
▁chênh	-11.6088
▁cọ	-11.6089
▁Slovakia	-11.6089
▁rụng	-11.6089
▁Tăng	-11.6091
▁Tám	-11.6092
▁First	-11.6094
▁5.000	-11.6105
"?	-11.6105
ín	-11.6111
▁nản	-11.6111
ive	-11.6115
▁pro	-11.6119
ĩ	-11.6128
ese	-11.6129
▁my	-11.6132
oạt	-11.6132
▁(14	-11.6135
43	-11.6139
▁Ltd	-11.6141
▁Margaret	-11.6141
▁kẹp	-11.6141
▁chén	-11.6141
▁Carter	-11.6142
▁nến	-11.6143
▁số	-11.6144
Nhưng	-11.6145
▁Bernard	-11.6145
aki	-11.6146
yu	-11.6147
▁Gary	-11.6151
▁Lord	-11.6153
62	-11.6154
▁Cơn	-11.6161
var	-11.6161
óc	-11.6162
4%	-11.6172
)}	-11.6181
▁EU	-11.6181
▁Para	-11.6185
ther	-11.6186
▁Cụ	-11.619
ềm	-11.6194
▁Vừa	-11.6194
▁nhận	-11.6194
▁Samuel	-11.6194
▁Caroline	-11.6195
▁Dấu	-11.6195
▁chui	-11.6196
pop	-11.6203
ach	-11.6219
▁Ci	-11.6224
▁0,	-11.6228
▁Your	-11.6234
▁68	-11.6236
uc	-11.624
▁Cher	-11.6241
▁cối	-11.6242
Na	-11.6245
▁France	-11.6246
bon	-11.6246
#7875;	-11.6247
Hẳn	-11.6247
▁Salvador	-11.6247
▁rỗi	-11.6248
▁thạo	-11.6248
▁Eddie	-11.6248
▁ngây	-11.6248
▁Augustus	-11.6248
▁gõ	-11.6249
▁trêu	-11.625
▁động	-11.625
▁thệ	-11.6253
can	-11.6253
▁Gil	-11.6254
▁Tông	-11.626
▁bu	-11.6263
▁Die	-11.6273
all	-11.6273
ậu	-11.6282
eng	-11.6288
▁mặn	-11.6301
▁Hiểu	-11.6301
▁Qatar	-11.6302
▁Cleopatra	-11.6302
▁Ninh	-11.6305
ear	-11.6329
▁thê	-11.6329
▁96	-11.6333
▁Lũ	-11.6348
▁Carthage	-11.6355
▁Kuwait	-11.6355
▁huỳnh	-11.6355
▁Toronto	-11.6355
▁Emma	-11.6355
▁Triển	-11.6355
▁Ngành	-11.6356
▁căm	-11.6356
▁kiê	-11.6356
▁Pokémon	-11.6357
▁chuồng	-11.6357
▁1904	-11.6358
Ch	-11.636
▁1998.	-11.6372
ding	-11.6374
▁Eu	-11.6375
▁Matthew	-11.6401
▁Girl	-11.6402
▁Sai	-11.6403
▁Namibia	-11.641
▁Cận	-11.6412
▁Tor	-11.6418
los	-11.642
▁Thỉnh	-11.6421
▁Romania	-11.6431
gin	-11.6433
▁End	-11.6444
fe	-11.6448
▁bộc	-11.6449
sz	-11.6455
ig	-11.6459
ft	-11.646
Ka	-11.646
LA	-11.6461
▁Aaron	-11.6464
▁nitơ	-11.6464
▁khỏa	-11.6464
▁Đủ	-11.6464
▁súp	-11.6465
▁am	-11.6466
ụ	-11.6469
▁túng	-11.6472
red	-11.6476
▁Qu	-11.648
of	-11.6483
car	-11.649
ole	-11.6495
▁Phil	-11.6496
▁Dạ	-11.6496
kai	-11.6507
▁micro	-11.6511
▁tà	-11.6511
dal	-11.6514
▁Mas	-11.6516
▁Rwanda	-11.6519
▁jazz	-11.6519
▁buồm	-11.6519
▁Foundation	-11.6519
▁đậy	-11.6519
▁Queensland	-11.6519
▁Warner	-11.652
▁Síp	-11.652
▁Kích	-11.652
▁Harrison	-11.652
oma	-11.6531
nic	-11.6534
▁RNA	-11.6538
▁Hunter	-11.6541
▁ex	-11.6549
ính	-11.655
tte	-11.6552
▁bo	-11.6558
▁2:	-11.6561
▁OS	-11.6564
mun	-11.6564
▁AS	-11.6564
▁Maya	-11.6573
▁Sho	-11.6573
#7841;	-11.6574
▁Mississippi	-11.6574
▁cằn	-11.6574
▁thoáng	-11.6574
▁vẫn	-11.6574
▁Christopher	-11.6575
▁Kelly	-11.6575
▁chuối	-11.6575
▁đọng	-11.6576
ix	-11.6577
▁Dì	-11.6578
▁Luis	-11.658
▁Are	-11.6581
▁1901	-11.6586
▁Power	-11.6593
▁20.000	-11.6597
ei	-11.6598
▁Press	-11.6605
%)	-11.6607
▁hổng	-11.6615
stra	-11.6619
▁Kha	-11.6628
▁Edo	-11.6629
▁phì	-11.663
▁Borneo	-11.663
▁Sarawak	-11.663
▁mới	-11.663
▁trắc	-11.6631
▁Story	-11.6631
tạm	-11.6635
Tại	-11.6635
▁1956	-11.6635
▁vã	-11.6637
▁Mad	-11.6655
gg	-11.6659
▁bự	-11.666
aj	-11.6664
▁Sound	-11.6677
rah	-11.6677
ữa	-11.6681
▁Way	-11.6684
▁Ward	-11.6684
▁gán	-11.6685
▁5%	-11.6685
▁Napoléon	-11.6686
▁lằn	-11.6686
▁vặt	-11.6686
▁Vienna	-11.6686
▁trướng	-11.6686
▁Ngọc	-11.6688
Tr	-11.6689
war	-11.669
end	-11.6691
▁tú	-11.6693
less	-11.6693
▁soi	-11.6694
▁Tar	-11.6703
▁ướp	-11.6705
▁1940.	-11.6705
è	-11.6707
▁1935	-11.6707
▁57	-11.671
No	-11.6713
▁Wolf	-11.6713
▁Khai	-11.6715
ste	-11.6718
▁Bal	-11.672
▁độn	-11.6734
nu	-11.6743
▁Perry	-11.6743
▁Tiệp	-11.6743
▁Ze	-11.6744
▁út	-11.6747
Sự	-11.6748
▁Gra	-11.6748
▁Bão	-11.6749
▁Shah	-11.675
▁95	-11.6768
ile	-11.6769
▁1950.	-11.6784
aku	-11.6792
tia	-11.6794
▁Sống	-11.6797
▁quỳ	-11.6799
▁Grammy	-11.6799
72	-11.6799
▁Wright	-11.6799
▁quạt	-11.6803
eth	-11.6813
ath	-11.6818
cus	-11.6826
tas	-11.6829
▁1969	-11.6832
US	-11.6832
▁Des	-11.6836
ms	-11.6839
ator	-11.684
▁360	-11.6842
▁Nevada	-11.6855
▁Harold	-11.6855
hl	-11.6856
▁Suốt	-11.6856
▁đần	-11.6856
▁vùi	-11.6856
▁Lương	-11.6858
▁VIII	-11.6858
▁Tín	-11.6861
uro	-11.6872
▁khan	-11.6875
Pa	-11.6876
▁50.000	-11.6878
▁66	-11.6879
▁Từng	-11.6881
▁Ty	-11.6885
▁Quang	-11.6891
đi	-11.6893
▁Jun	-11.6894
stein	-11.6894
▁1959	-11.6897
bel	-11.6899
ira	-11.69
▁Championship	-11.6902
▁phác	-11.6908
▁Dylan	-11.6913
▁Janeiro	-11.6913
▁gắt	-11.6913
▁sút	-11.6914
▁Thất	-11.6914
▁lốc	-11.6916
▁phụng	-11.6919
▁UFO	-11.692
▁alpha	-11.6921
▁Doanh	-11.6921
▁Light	-11.693
▁Kor	-11.6934
▁pi	-11.6934
▁Cy	-11.6937
▁Monte	-11.6967
▁muội	-11.697
▁Lake	-11.697
▁muỗi	-11.697
▁Office	-11.697
▁Angola	-11.697
▁choàng	-11.697
▁hiền	-11.6971
▁sưởi	-11.6971
▁Lạnh	-11.6971
▁câm	-11.6972
▁Manuel	-11.6974
gal	-11.6978
▁Giọng	-11.698
▁Sung	-11.6988
ỗ	-11.699
▁180	-11.6995
Li	-11.6996
▁hoán	-11.6996
▁54	-11.6997
▁101	-11.7
▁Bé	-11.7002
▁Kane	-11.7003
ám	-11.7008
bor	-11.7009
pu	-11.7009
▁SC	-11.7021
▁Khán	-11.7021
▁Gabriel	-11.7021
▁Kal	-11.7021
▁Ex	-11.7021
▁Benjamin	-11.7028
▁Nicholas	-11.7028
▁gậy	-11.7028
▁Bon	-11.7029
ở	-11.703
▁Lily	-11.7031
▁1902	-11.7032
▁Kate	-11.7034
sar	-11.7037
ali	-11.7049
ks	-11.7049
▁hao	-11.7053
Do	-11.7054
▁vu	-11.7058
02	-11.7058
▁77	-11.7064
form	-11.7067
Mo	-11.7071
▁Jeff	-11.7071
▁nai	-11.7075
▁trù	-11.7078
ois	-11.708
▁bì	-11.7081
▁Explorer	-11.7086
▁ốm	-11.7086
▁Madonna	-11.7086
▁gộp	-11.7086
▁Toán	-11.7086
▁nghiền	-11.7088
▁niêm	-11.7088
▁Russell	-11.7089
▁1890	-11.7089
▁Wood	-11.7092
ich	-11.7099
▁Đền	-11.7099
Ha	-11.7103
▁xài	-11.7104
sson	-11.711
▁Pri	-11.7111
▁bộ	-11.7116
▁lữ	-11.7116
ước	-11.7118
–18	-11.7121
nó	-11.7122
ari	-11.7124
05	-11.7127
7%	-11.7128
rr	-11.7131
▁Wil	-11.7133
▁Hank	-11.7137
Le	-11.714
▁Iberia	-11.7144
▁okay	-11.7144
▁bấm	-11.7146
▁Tùy	-11.7146
▁khốc	-11.7148
▁Sta	-11.7149
▁hăng	-11.7156
▁play	-11.7169
Cha	-11.717
▁Series	-11.718
▁59	-11.7191
▁Jose	-11.7191
▁Ann	-11.72
▁Latvia	-11.7203
▁Phoebe	-11.7203
▁hiện	-11.7203
▁1880	-11.7205
▁Dừng	-11.7209
▁Kar	-11.721
pt	-11.721
{	-11.7211
elle	-11.7211
Vâng	-11.7211
▁Tức	-11.7213
▁110	-11.7213
ối	-11.7216
▁Pete	-11.7217
▁And	-11.7222
▁Jam	-11.7227
▁Athena	-11.7234
▁1971,	-11.7239
▁Mars	-11.7239
▁cua	-11.724
▁140	-11.7243
DP	-11.7243
▁900	-11.7246
▁63	-11.7247
mura	-11.7253
▁Hung	-11.7253
▁tỉa	-11.7262
▁lụa	-11.7262
▁Rừng	-11.7263
▁Lang	-11.7267
▁xáo	-11.7271
▁1965,	-11.7277
▁1994.	-11.7279
▁1991.	-11.7286
▁Cap	-11.7289
▁mộc	-11.7297
▁18,	-11.7301
▁1949,	-11.7303
▁1984,	-11.7304
▁Best	-11.7304
gia	-11.7304
▁Opera	-11.7306
▁Mill	-11.7307
win	-11.731
▁cò	-11.7314
▁Hôn	-11.7318
▁Azerbaijan	-11.7322
▁giới	-11.7322
ila	-11.7322
▁Grace	-11.7323
uda	-11.7324
▁Somalia	-11.7324
▁ao	-11.7325
▁Julia	-11.7326
8,	-11.7327
uz	-11.7328
▁Adams	-11.7328
SS	-11.7331
▁đam	-11.7337
▁per	-11.7341
▁Guam	-11.735
▁Chang	-11.7352
▁Dance	-11.7355
▁Suy	-11.7355
over	-11.7356
4.	-11.7359
ư	-11.736
▁Lên	-11.7373
▁Trị	-11.7381
▁Seattle	-11.7382
▁Beatles	-11.7382
▁Lợi	-11.7382
▁chèo	-11.7384
tre	-11.7395
tính	-11.7397
▁Pin	-11.7404
▁1%	-11.7417
OH	-11.7424
cer	-11.7426
▁Win	-11.7431
▁Enterprise	-11.7432
▁DS	-11.7435
▁(20	-11.7435
▁clo	-11.7436
▁Out	-11.7437
▁hán	-11.744
▁Hawk	-11.7441
▁}	-11.7442
▁Tennessee	-11.7442
▁Brooklyn	-11.7442
▁chém	-11.7442
.”	-11.7443
▁AIDS	-11.745
▁Tuổi	-11.7451
Trong	-11.7452
▁buông	-11.7452
ama	-11.7469
▁líu	-11.7472
AM	-11.7474
▁1969,	-11.7478
oid	-11.749
ui	-11.7497
sp	-11.7499
▁chuồn	-11.7501
▁gươm	-11.7503
▁novel	-11.7503
▁Dàn	-11.7506
-23	-11.7507
▁quí	-11.7508
▁Kra	-11.7512
▁cứ	-11.7513
mel	-11.7514
nghĩa	-11.7514
▁Road	-11.7515
rac	-11.7516
▁Hiro	-11.7519
▁điếu	-11.7523
▁lít	-11.7526
▁mg	-11.7534
▁Santo	-11.754
row	-11.755
▁Lê	-11.7551
Mi	-11.7553
oni	-11.7553
▁System	-11.7555
stan	-11.7556
▁Orleans	-11.7564
▁thỉu	-11.7564
▁Delhi	-11.7564
▁Cậu	-11.7564
▁rớt	-11.7564
▁Timor	-11.7565
▁tấu	-11.7565
▁Otto	-11.7567
▁Digital	-11.7568
▁Đà	-11.757
ển	-11.7573
▁Mont	-11.758
▁Hòn	-11.7581
▁1982,	-11.7586
▁1992.	-11.7586
▁UK	-11.7586
Ra	-11.7587
thế	-11.7587
▁Rob	-11.7588
ặc	-11.7589
▁Henri	-11.759
yer	-11.7591
young	-11.7592
▁khăng	-11.7592
▁Kang	-11.7605
▁Cờ	-11.7609
port	-11.7609
▁qui	-11.7614
▁Doug	-11.7624
▁Paraguay	-11.7625
▁Jesus	-11.7625
▁Osaka	-11.7626
▁University	-11.7626
▁rốt	-11.7626
▁canxi	-11.7626
▁1896	-11.7627
▁dồn	-11.763
▁Global	-11.7631
ith	-11.7633
▁Prince	-11.7634
▁Fire	-11.7652
▁1995.	-11.7653
khu	-11.7654
▁chanh	-11.7656
▁thủng	-11.7656
▁Network	-11.7677
▁bố	-11.7677
▁Sy	-11.7678
▁poly	-11.7679
ctor	-11.7682
▁Wii	-11.7684
ue	-11.7685
▁Mun	-11.7686
▁Junior	-11.7687
▁iOS	-11.7687
▁vuốt	-11.7687
▁lăm	-11.7687
▁Quyết	-11.7687
▁Bobby	-11.7687
▁nồi	-11.7688
▁nhọn	-11.7689
▁bôi	-11.769
▁1860	-11.7691
▁ATP	-11.7696
Đừng	-11.7698
ugh	-11.7698
Làm	-11.7699
ves	-11.7703
▁Sp	-11.7704
▁nại	-11.7709
lam	-11.7711
▁ếch	-11.7713
▁3:	-11.7719
tos	-11.772
▁85	-11.772
▁1946,	-11.7724
ật	-11.7724
▁Tae	-11.7734
cher	-11.7735
cia	-11.7749
▁Bahrain	-11.7749
▁Nancy	-11.7749
▁Munich	-11.7749
▁nhét	-11.7749
▁România	-11.775
▁Xiêm	-11.775
lit	-11.7752
▁nhôm	-11.7753
ò	-11.7754
▁Cụm	-11.7755
▁Hindu	-11.7757
▁Mobile	-11.7759
nica	-11.776
shima	-11.7764
▁Cấp	-11.7764
AT	-11.7767
▁si	-11.7769
▁bón	-11.7773
ăng	-11.7773
ado	-11.7776
▁đun	-11.7777
công	-11.7777
92	-11.7783
▁Heart	-11.7788
link	-11.7794
▁China	-11.7795
▁khoá	-11.7795
▁Union	-11.7796
▁Maha	-11.7799
▁Stan	-11.7799
▁ve	-11.78
ct	-11.7804
ít	-11.7805
▁Minnesota	-11.7811
▁bỗng	-11.7811
▁Nixon	-11.7811
▁Reagan	-11.7811
▁Barbara	-11.7812
▁Potter	-11.7812
▁Carey	-11.7814
▁nếm	-11.7814
non	-11.7816
▁ngh	-11.7823
▁1800	-11.7825
ston	-11.7826
ów	-11.7831
▁Carol	-11.7833
họ	-11.7836
▁rô	-11.7836
phi	-11.784
▁Cát	-11.7852
▁Pol	-11.7856
tron	-11.7859
ck	-11.7861
▁3000	-11.7862
ỡ	-11.7867
▁euro	-11.7875
▁gân	-11.7875
▁Tội	-11.7876
▁Hỗ	-11.7876
▁nung	-11.788
▁Ngô	-11.7882
▁Baker	-11.7882
▁Lam	-11.7882
ã	-11.7883
▁quạ	-11.7894
nếu	-11.7894
GA	-11.7895
▁CS	-11.7896
▁Linda	-11.7897
oku	-11.7903
nie	-11.7905
▁khoe	-11.7909
aga	-11.791
▁ào	-11.7911
bus	-11.7912
Man	-11.7914
▁that	-11.7914
ẩn	-11.7924
▁kẽ	-11.7932
▁urani	-11.7937
-0	-11.7937
▁Hudson	-11.7938
▁Nicaragua	-11.7938
▁dặn	-11.7938
▁golf	-11.7938
▁gieo	-11.7938
▁Trương	-11.7938
▁Dược	-11.7939
hwa	-11.7942
NH	-11.7942
▁Tạo	-11.7942
▁2,5	-11.795
shu	-11.7955
▁Bad	-11.7962
Vi	-11.7982
▁Justin	-11.7985
▁um	-11.799
So	-11.7998
▁gặp	-11.8001
▁single	-11.8001
▁ngạo	-11.8001
▁Castle	-11.8002
▁tầu	-11.8002
▁gạch	-11.8002
AR	-11.8002
▁Súng	-11.8003
▁foot	-11.8004
▁Giấy	-11.8005
nit	-11.8007
▁vôi	-11.8007
▁gamma	-11.8008
▁khống	-11.8011
▁88	-11.8021
▁pound	-11.8023
▁2.0	-11.8026
0%	-11.8028
▁muôn	-11.8029
iko	-11.8029
▁q	-11.8031
▁Parker	-11.8031
▁Ay	-11.8035
ds	-11.8045
▁Nổ	-11.8051
star	-11.8053
▁(0,	-11.8055
yi	-11.8059
osa	-11.8061
▁phà	-11.8061
▁Sean	-11.8062
▁Hamilton	-11.8065
▁giết	-11.8065
▁Ngồi	-11.8065
▁Nghi	-11.8066
▁Tyler	-11.8066
Constantinopolis	-11.8066
▁ừm	-11.8072
thời	-11.808
▁30.000	-11.8084
▁bus	-11.8085
art	-11.8087
SC	-11.8088
▁Ball	-11.8106
uyển	-11.8106
tô	-11.8108
sti	-11.811
won	-11.8122
An	-11.8122
▁rạc	-11.8128
#7897;	-11.813
▁nhặt	-11.813
▁hẻm	-11.813
▁lần	-11.813
▁léo	-11.813
▁Harris	-11.8131
▁chiến	-11.8135
ọc	-11.8143
▁Áp	-11.8155
▁Kent	-11.8156
Khi	-11.8162
ời	-11.8164
dine	-11.8169
cùng	-11.8171
▁1966,	-11.8187
▁Ger	-11.8187
▁Mạc	-11.8194
▁Virgin	-11.8194
▁Kansas	-11.8195
▁Brunei	-11.8195
▁nhạo	-11.8195
▁Balkan	-11.8195
▁lở	-11.8195
▁chuộng	-11.8195
Me	-11.8195
▁sẹo	-11.8195
▁dai	-11.8195
▁lẩn	-11.8196
▁Turner	-11.8196
▁búp	-11.8196
▁Dream	-11.8197
▁Maryland	-11.8197
▁Đấu	-11.8198
▁trọt	-11.82
▁Yên	-11.8202
▁1870	-11.8205
▁1966	-11.8209
FC	-11.8211
hy	-11.8217
ọ	-11.8231
▁1993.	-11.8234
ợ	-11.8241
▁Susan	-11.8254
ầy	-11.8255
▁đặn	-11.826
▁pizza	-11.826
▁sỉ	-11.8261
▁Chơi	-11.8261
▁Xây	-11.8262
▁Gregory	-11.8264
▁1963,	-11.8266
▁Ngọ	-11.8275
▁Seth	-11.8275
▁Ser	-11.828
▁chợt	-11.8282
▁25%	-11.8282
Ro	-11.8286
▁1947	-11.8288
▁kìm	-11.829
▁Mat	-11.8291
▁Age	-11.8295
▁tụy	-11.8296
▁Liga	-11.8296
are	-11.8302
4)	-11.8311
▁Thú	-11.8324
▁Cổng	-11.8324
▁Thạc	-11.8324
▁Vatican	-11.8326
▁hươu	-11.8326
▁Vân	-11.8326
▁Martha	-11.8327
▁Xét	-11.8327
600	-11.8333
▁Steven	-11.8334
▁rách	-11.8337
▁UTC	-11.8338
âu	-11.8344
ill	-11.8344
shin	-11.8345
▁Girls	-11.8345
pl	-11.8356
pol	-11.8358
▁Chun	-11.8358
▁Axi	-11.8361
▁Than	-11.8366
▁Fi	-11.8366
inus	-11.8368
ẻ	-11.8369
▁cúi	-11.8374
1:	-11.839
▁Amsterdam	-11.8392
▁Churchill	-11.8392
▁Julius	-11.8392
▁Lệnh	-11.8392
▁Một	-11.8393
▁1948,	-11.8393
ă	-11.8393
▁Kỵ	-11.8393
▁Snow	-11.8393
▁Valley	-11.8395
PP	-11.8395
▁Fantasy	-11.8395
▁Op	-11.8396
chan	-11.8401
head	-11.8408
▁Gaga	-11.8414
▁Mariana	-11.8416
2%	-11.8418
sus	-11.8418
▁Wells	-11.8421
▁160	-11.8424
ER	-11.8426
▁Nan	-11.8428
▁Rad	-11.8429
PD	-11.8436
ểm	-11.8447
elli	-11.845
▁1930.	-11.8455
▁Shaw	-11.8455
▁giục	-11.8459
▁hết	-11.8459
▁Nelson	-11.8459
▁Khẩu	-11.846
▁việt	-11.846
▁Pictures	-11.8461
▁Pho	-11.8462
▁Bayern	-11.8462
▁Mắt	-11.8462
▁Khác	-11.8464
air	-11.8465
▁xót	-11.8466
onia	-11.8467
▁Vui	-11.8471
▁ròng	-11.8471
Trung	-11.8475
hem	-11.8477
▁pe	-11.8477
▁Grande	-11.8478
ture	-11.848
mặc	-11.8481
▁chảo	-11.8483
▁Mus	-11.8483
ST	-11.8483
tương	-11.8487
TA	-11.849
iềm	-11.8492
▁hoi	-11.8498
▁130	-11.8512
ore	-11.8523
▁Festival	-11.8526
▁Luxembourg	-11.8526
▁Kiev	-11.8527
▁Who	-11.8528
▁sòng	-11.8529
▁mất	-11.853
▁kẽm	-11.8532
▁Palmer	-11.8535
▁350	-11.8535
▁Lành	-11.8541
Co	-11.8542
▁By	-11.8545
▁1944.	-11.8558
sẽ	-11.8562
▁Yoshi	-11.8563
▁Fred	-11.8564
sur	-11.8564
cent	-11.8568
amine	-11.8568
▁CN	-11.857
▁cửu	-11.8582
▁gram	-11.8582
iro	-11.8585
Se	-11.8588
▁Ul	-11.8593
_	-11.8593
▁Bhutan	-11.8593
▁Italy	-11.8593
▁neutron	-11.8593
▁studio	-11.8594
▁huân	-11.8594
▁quặc	-11.8594
▁Daily	-11.8594
▁Tượng	-11.8595
▁Bầu	-11.8595
▁keo	-11.8596
▁kèn	-11.8597
-29	-11.8599
▁Hè	-11.8605
▁Marco	-11.861
▁Gaul	-11.8613
De	-11.8614
woo	-11.862
ồng	-11.8621
▁Kirk	-11.8621
PA	-11.8625
3)	-11.8628
▁1908	-11.8631
▁MP	-11.8631
▁Mãn	-11.8634
▁Ara	-11.8636
▁1500	-11.8638
ago	-11.8648
▁62	-11.8651
▁Gro	-11.8652
Br	-11.8653
▁rợ	-11.8654
▁Newfoundland	-11.8662
▁Square	-11.8662
▁Stewart	-11.8662
▁Murray	-11.8662
▁Flash	-11.8662
▁Mega	-11.8662
▁Chừng	-11.8662
▁giun	-11.8662
▁đề	-11.8665
▁Siberia	-11.8665
▁Space	-11.8667
▁Ari	-11.8668
▁dơi	-11.867
▁giang	-11.8673
▁1932	-11.8674
▁Mori	-11.8676
aka	-11.8685
▁Camp	-11.8691
▁Malaya	-11.8693
sei	-11.8695
▁Mao	-11.8705
▁1958,	-11.8715
số	-11.8723
▁Lega	-11.8724
400	-11.8728
▁LGBT	-11.873
▁Vancouver	-11.873
▁luyến	-11.873
▁pharaon	-11.873
▁Jessica	-11.873
▁đùi	-11.873
▁bằng	-11.873
▁rùa	-11.873
▁Friedrich	-11.8731
▁SM	-11.8731
▁sập	-11.8732
Bo	-11.8734
▁Tứ	-11.8734
▁Delta	-11.8741
▁Tần	-11.8742
League	-11.8748
-14	-11.8749
";	-11.8754
ude	-11.8757
▁Moore	-11.8758
▁tem	-11.876
▁Taka	-11.8764
▁hông	-11.8768
able	-11.8773
Qu	-11.8776
▁1956,	-11.8779
▁Ngư	-11.8779
RI	-11.8779
ses	-11.8784
▁chốn	-11.8798
▁Abraham	-11.8799
▁Honduras	-11.8799
▁Jonathan	-11.8799
▁thẳm	-11.8799
▁thời	-11.8799
▁Calvin	-11.8799
▁lẫy	-11.8799
▁Society	-11.8799
▁tiệt	-11.8799
▁liễu	-11.8799
▁Gòn	-11.88
▁mấu	-11.88
▁Tranh	-11.8801
▁Pascal	-11.8802
Sắp	-11.8807
▁Lip	-11.8807
ere	-11.8808
mbi	-11.881
iga	-11.881
IC	-11.8813
▁mini	-11.8817
▁nhá	-11.8818
▁Mario	-11.8819
Âm	-11.882
1)	-11.8822
bị	-11.8826
▁ừ	-11.8831
nen	-11.8832
▁1:	-11.8835
SE	-11.8837
lio	-11.8839
▁5000	-11.8839
ếu	-11.8844
▁1898	-11.8845
ug	-11.8848
St	-11.885
ES	-11.886
▁quặng	-11.8868
▁nhược	-11.8869
▁Zambia	-11.8869
▁Line	-11.8869
▁German	-11.8872
ky	-11.8878
SO	-11.8879
▁ka	-11.8883
▁kiêng	-11.8885
rid	-11.8885
▁Zero	-11.8886
▁Shan	-11.8887
▁IX	-11.8893
mba	-11.8894
king	-11.8895
▁mạ	-11.8899
▁Mua	-11.8907
isa	-11.8907
ance	-11.8908
▁PS	-11.891
▁sin	-11.8911
lat	-11.8916
ip	-11.8921
À	-11.8923
▁AI	-11.8927
▁Fan	-11.8931
ias	-11.8931
▁tát	-11.8932
#7873;	-11.8938
▁Ferdinand	-11.8938
▁chĩa	-11.8939
▁Miễn	-11.8939
▁nhồi	-11.8939
▁dồi	-11.8939
▁Barney	-11.8939
sel	-11.8941
▁MIT	-11.8946
▁Kon	-11.8953
ote	-11.8958
▁cố	-11.8959
ừng	-11.896
▁go	-11.8964
▁Gun	-11.8964
SP	-11.8969
cái	-11.897
▁ủ	-11.8974
▁Ce	-11.8976
▁1959,	-11.8977
▁Ste	-11.898
▁oxit	-11.898
▁Wal	-11.8981
▁α	-11.8981
▁Angel	-11.8981
adi	-11.8983
CC	-11.8985
6.	-11.8988
▁(1)	-11.8999
▁Harvey	-11.9009
▁Heinrich	-11.9009
▁Miguel	-11.9009
▁Stuart	-11.9009
▁Watson	-11.9009
▁Jerry	-11.9009
▁Lou	-11.901
zan	-11.9011
▁Xanh	-11.9014
▁Lucy	-11.9015
▁Tuyết	-11.9018
▁êm	-11.902
▁84	-11.9022
pper	-11.9024
sho	-11.9024
Đại	-11.9029
▁thoa	-11.9031
▁Kháng	-11.9031
hee	-11.9032
ova	-11.9033
▁1989.	-11.9042
▁Ap	-11.9046
ello	-11.905
▁lầ	-11.9059
▁Palm	-11.9063
▁4:	-11.9074
▁Vậy	-11.908
▁khép	-11.908
ral	-11.908
▁nắp	-11.908
▁Greenland	-11.9081
▁Ye	-11.9081
▁CPU	-11.9081
▁tưới	-11.9082
▁Obama	-11.9083
▁búa	-11.9086
▁Tường	-11.9087
▁Mah	-11.909
▁Dragon	-11.9103
ple	-11.9105
▁Two	-11.9106
ller	-11.9116
▁Eun	-11.9117
▁trọ	-11.9118
▁Ian	-11.9118
her	-11.9119
▁nan	-11.9121
ash	-11.9124
▁Pen	-11.9128
▁Ny	-11.9135
▁Palau	-11.9139
▁Chase	-11.9145
ić	-11.915
▁Uzbekistan	-11.9151
▁vướng	-11.9151
▁Samoa	-11.9151
▁náo	-11.9152
▁Lối	-11.9153
▁Franz	-11.9155
oka	-11.9156
▁Đổi	-11.9156
▁Jake	-11.9156
▁st	-11.9157
▁Gió	-11.9159
)"	-11.9161
▁cành	-11.9161
▁Castro	-11.9164
▁lung	-11.9165
đun	-11.9173
▁Vo	-11.9173
с	-11.9176
▁Reid	-11.9176
We	-11.9177
moto	-11.918
▁Phú	-11.9182
▁Turk	-11.9183
house	-11.9184
Be	-11.9186
III	-11.9187
mir	-11.9188
mont	-11.9192
-13	-11.9197
hủng	-11.9203
▁Jesse	-11.9204
hal	-11.9204
lot	-11.9209
▁Yoo	-11.921
▁1947,	-11.9212
worth	-11.9222
#234;	-11.9223
▁Đình	-11.9223
▁quỵ	-11.9223
▁Isaac	-11.9223
▁lời	-11.9223
▁tẩu	-11.9224
ùa	-11.9224
▁sờ	-11.9225
▁cẩm	-11.9225
▁Mật	-11.9225
▁Thompson	-11.9225
▁Cro	-11.9226
ios	-11.9227
▁nháy	-11.9228
uni	-11.9231
5)	-11.9233
tur	-11.9235
▁báng	-11.9244
▁MS	-11.9244
▁MI	-11.9246
cht	-11.9246
chin	-11.9248
oon	-11.9249
old	-11.9259
Công	-11.9261
una	-11.9283
ij	-11.9286
iếc	-11.9291
5%	-11.9292
▁SA	-11.9293
▁Chạy	-11.9296
▁Sẵn	-11.9296
▁Voivodeship	-11.9296
▁ngoặt	-11.9296
gram	-11.9297
▁Yale	-11.9299
▁1895	-11.93
▁Càng	-11.9302
▁vãn	-11.9302
▁Take	-11.9302
▁khoán	-11.9304
bur	-11.9305
mos	-11.9305
▁Kurd	-11.9315
vit	-11.9317
×	-11.9317
use	-11.9318
viết	-11.9318
eda	-11.9319
▁nano	-11.932
chính	-11.932
tự	-11.9324
▁Tạ	-11.9327
▁2019.	-11.9329
illo	-11.9335
tta	-11.9336
wo	-11.9348
−	-11.9348
nos	-11.9348
▁Zi	-11.9359
frac	-11.9359
mat	-11.9365
enberg	-11.9365
▁Knight	-11.9369
▁chẵn	-11.9369
▁vectơ	-11.9369
▁ngậm	-11.9369
▁rậm	-11.9369
▁Louisiana	-11.9369
▁Larry	-11.9369
▁nứt	-11.9369
▁thắp	-11.9369
▁Huynh	-11.937
▁Võ	-11.9373
sto	-11.9373
▁đắng	-11.9374
▁1964,	-11.9374
▁Ung	-11.9375
▁73	-11.9379
▁chánh	-11.938
▁Bros	-11.9383
▁Bridge	-11.9394
▁AC	-11.9409
▁tấ	-11.942
03	-11.9425
▁Sim	-11.9431
kha	-11.9432
▁ấp	-11.9437
▁Hor	-11.9437
8%	-11.944
▁Edinburgh	-11.9442
▁plasma	-11.9442
▁quăng	-11.9442
▁trặc	-11.9443
▁nguyệt	-11.9443
cz	-11.9443
▁Chứ	-11.9444
cả	-11.9446
▁moi	-11.9451
▁Màn	-11.9451
▁Manga	-11.9453
dom	-11.9457
▁Chín	-11.9458
ute	-11.9458
▁Wol	-11.9458
▁Neu	-11.9461
▁Cur	-11.9463
Chiến	-11.9466
▁gu	-11.9467
Sao	-11.9471
huyết	-11.9472
och	-11.9475
▁he	-11.9475
rim	-11.9482
▁Wy	-11.9484
SA	-11.9499
▁Toà	-11.9509
▁Rama	-11.9512
zh	-11.9512
▁giùm	-11.9516
▁nghẽn	-11.9516
▁Damascus	-11.9516
▁Triệu	-11.9516
▁Nokia	-11.9517
▁hãnh	-11.9517
ology	-11.9518
vel	-11.9518
▁Quên	-11.9519
▁đều	-11.952
ness	-11.9521
▁Tre	-11.9523
▁Golden	-11.9524
ico	-11.9525
▁Store	-11.9528
▁Holmes	-11.9529
▁Tan	-11.953
ans	-11.953
▁né	-11.9535
ù	-11.9538
#	-11.954
6,	-11.954
Fi	-11.9544
osaurus	-11.9545
FA	-11.9558
▁78	-11.956
CA	-11.9566
▁Gla	-11.9569
▁Cook	-11.9573
▁Yuri	-11.9581
▁Andrea	-11.9587
▁Montenegro	-11.9591
▁Austin	-11.9591
▁đục	-11.9591
▁ngạt	-11.9591
▁ôxy	-11.9591
▁Hannah	-11.9591
▁Tro	-11.9592
▁biếm	-11.9592
▁Dầu	-11.9592
▁Hổ	-11.9592
▁Anime	-11.9593
▁Western	-11.9594
▁Abdul	-11.9594
▁Lisa	-11.9596
uga	-11.9602
▁Lạc	-11.9613
▁Seo	-11.9614
Được	-11.9615
về	-11.9616
▁fu	-11.9621
▁61	-11.9637
sie	-11.9639
▁lanh	-11.9641
rở	-11.9645
5,	-11.9647
▁Act	-11.9652
Hoa	-11.9653
▁Guy	-11.9664
▁England	-11.9666
▁Quỷ	-11.9666
▁Parthia	-11.9666
▁Bosnia	-11.9666
▁Luzon	-11.9666
▁Gotham	-11.9667
▁Ang	-11.9667
▁phiện	-11.9668
▁Broadway	-11.9668
▁Đột	-11.9668
▁kết	-11.9669
▁Cẩn	-11.9671
▁Tờ	-11.9674
ava	-11.9674
▁MV	-11.9677
▁Page	-11.9678
▁DJ	-11.968
▁81	-11.9683
set	-11.9686
▁Chen	-11.969
Ồ	-11.9691
Thế	-11.9691
Âu	-11.9692
ổ	-11.9695
▁gài	-11.9701
ob	-11.9713
Ai	-11.9717
ớm	-11.9719
▁98	-11.9723
sing	-11.9726
▁Az	-11.9733
mes	-11.9734
ửa	-11.9734
▁Phù	-11.9734
Á	-11.9739
▁Niger	-11.974
▁Đỉnh	-11.9742
▁Giêsu	-11.9742
▁Thám	-11.9742
▁gớm	-11.9742
▁Boris	-11.9743
▁Bin	-11.9746
▁Helena	-11.9747
▁bành	-11.9749
▁photon	-11.9749
eri	-11.9752
▁1850	-11.9755
▁FDA	-11.9757
▁Bella	-11.9757
heim	-11.9758
▁Asia	-11.9758
AP	-11.976
▁Oman	-11.9762
}}}	-11.9764
▁Coast	-11.9765
▁Trí	-11.9767
Cái	-11.9767
▁nham	-11.9768
owski	-11.9776
▁Greg	-11.9781
uff	-11.9784
▁App	-11.9787
ỉ	-11.979
ớ	-11.9792
Di	-11.9798
etti	-11.98
▁Sei	-11.9805
▁67	-11.9808
▁mo	-11.9808
▁Philippine	-11.9809
vào	-11.981
lle	-11.9811
▁Hand	-11.9813
▁Carr	-11.9815
▁Len	-11.9816
Ga	-11.9816
▁Marvel	-11.9818
▁vật	-11.9819
▁đẫm	-11.9819
tto	-11.9819
▁Terry	-11.982
▁Hết	-11.9823
▁1888	-11.9823
▁Johann	-11.9823
▁200.000	-11.9826
iana	-11.9828
▁2016)	-11.9828
▁chót	-11.9828
zar	-11.9829
▁còi	-11.9831
▁Dallas	-11.9835
▁Master	-11.9842
fin	-11.9842
â	-11.9847
▁tre	-11.9848
▁Laura	-11.9853
áo	-11.9856
▁Rôma	-11.9857
▁Mk	-11.9863
gue	-11.9866
dor	-11.9872
oi	-11.9873
▁Hàm	-11.9876
zz	-11.9885
#7869;	-11.9895
▁Sumatra	-11.9895
▁giỡn	-11.9895
▁Ragnar	-11.9895
▁Felix	-11.9895
▁phần	-11.9895
▁tưởng	-11.9895
▁(2006)	-11.9895
▁Istanbul	-11.9895
▁Utah	-11.9895
▁car	-11.9896
▁Kiếm	-11.9896
▁Andes	-11.9897
▁1885	-11.9904
nat	-11.9904
▁Marty	-11.9905
▁Wow	-11.9905
▁Đấ	-11.9908
▁Leone	-11.9912
dale	-11.9917
via	-11.9922
day	-11.9922
▁Juliet	-11.9926
▁Sparta	-11.9927
rov	-11.9931
▁Dae	-11.9937
▁chà	-11.994
3.000	-11.9945
▁Ou	-11.9945
log	-11.9945
▁Auto	-11.9946
ess	-11.9946
zin	-11.9948
CD	-11.9949
▁13,	-11.9949
''	-11.9955
6.000	-11.9958
▁sưng	-11.9962
▁Saud	-11.9963
▁Abe	-11.9964
▁Garden	-11.9967
▁Tur	-11.9967
ẩy	-11.9967
▁1963	-11.9971
▁Aleppo	-11.9972
▁Bolshevik	-11.9972
▁Slovenia	-11.9972
▁đũa	-11.9972
▁Chaplin	-11.9972
▁nới	-11.9973
▁sấu	-11.9973
▁Spears	-11.9973
nk	-11.9974
▁Busan	-11.9974
▁cõi	-11.9974
oe	-11.9974
▁Mũi	-11.9975
▁1871	-11.9976
▁USA	-11.9976
▁1887	-11.9978
BC	-11.9979
tam	-11.9979
ôn	-11.9981
▁Lima	-11.9985
ido	-11.9987
▁Blood	-11.9988
▁Mia	-11.9992
▁Robot	-11.9995
oo	-11.9997
▁See	-11.9997
Mỹ	-12
▁bế	-12.0003
ía	-12.0008
▁Nai	-12.001
PO	-12.0019
phê	-12.0025
▁17,	-12.0032
Ư	-12.0033
▁Wei	-12.0035
▁Stefan	-12.0037
mic	-12.0047
▁Alabama	-12.0051
▁Ontario	-12.0051
▁Lennon	-12.0051
▁Ngũ	-12.0051
▁(2007)	-12.0051
▁Papua	-12.0051
▁Miền	-12.0051
▁ngần	-12.0053
▁1889	-12.0053
▁Caribbean	-12.0053
▁1899	-12.0054
▁Child	-12.0066
▁nạt	-12.0067
▁mịn	-12.0067
▁Dor	-12.0068
sai	-12.0072
▁Vel	-12.0072
pho	-12.0076
▁te	-12.0079
MP	-12.0081
▁Shō	-12.009
,6%	-12.0091
bat	-12.0101
more	-12.0104
inae	-12.0104
Ca	-12.0106
chẳng	-12.0107
▁banh	-12.0114
sey	-12.0119
ule	-12.0119
#227;	-12.0129
▁Cừu	-12.0129
▁lớn	-12.0129
▁đạm	-12.0129
▁náu	-12.0129
▁Adolf	-12.0129
▁đường	-12.0129
▁Shakespeare	-12.0129
▁lửng	-12.0129
▁Nahiyah	-12.013
▁chướng	-12.013
▁Hỏi	-12.013
▁ngoạn	-12.013
▁vựng	-12.013
▁Berkeley	-12.0131
▁Team	-12.0132
▁Women	-12.0133
▁Express	-12.0134
▁1868	-12.0135
▁Cross	-12.0136
▁USB	-12.0138
▁Gates	-12.0139
▁Jacques	-12.0139
▁Karen	-12.0139
ern	-12.0143
▁Tell	-12.0144
▁AU	-12.0145
▁Marc	-12.0145
▁Thor	-12.0146
sil	-12.0148
▁que	-12.0149
CR	-12.0151
huộc	-12.0152
▁nhào	-12.0157
AC	-12.0158
Love	-12.0159
▁ru	-12.0161
▁Magic	-12.0162
▁Sub	-12.017
He	-12.0175
▁dưa	-12.0176
▁Dung	-12.0186
▁Down	-12.0193
hat	-12.0195
▁cafe	-12.0197
▁Cư	-12.0199
ree	-12.0201
▁Edition	-12.0209
▁Algeria	-12.0209
▁Danube	-12.0209
▁Chester	-12.0209
▁Sóng	-12.021
▁Nạn	-12.0211
▁2020.	-12.0212
▁Indiana	-12.0213
▁1.5	-12.0214
▁Finch	-12.022
far	-12.022
▁Hẹ	-12.022
▁74	-12.0221
par	-12.0222
▁Ran	-12.0223
▁Tạm	-12.0226
▁15%	-12.0228
▁lách	-12.0229
ire	-12.0231
▁Thơ	-12.0237
thực	-12.0238
▁té	-12.0247
af	-12.0249
▁Mil	-12.025
bb	-12.0252
bạn	-12.0255
To	-12.0259
yang	-12.026
▁69	-12.0263
▁sp	-12.0264
6)	-12.0264
atus	-12.0264
ost	-12.0277
Khán	-12.0283
#7913;	-12.0289
▁Brussels	-12.0289
▁Mozambique	-12.0289
▁Underwood	-12.0289
▁băn	-12.0289
▁Saipan	-12.0289
▁Pablo	-12.0289
▁Malawi	-12.0289
▁phước	-12.0289
▁Uỷ	-12.0289
▁trâu	-12.0289
▁chạp	-12.0289
mathb	-12.029
▁Fiji	-12.029
▁API	-12.0291
▁thiền	-12.0294
▁gom	-12.0296
▁Dẫ	-12.0297
▁Kay	-12.0297
nor	-12.0299
▁Ellen	-12.0301
ille	-12.0305
▁Just	-12.0307
ets	-12.0309
▁Dai	-12.0312
▁khoăn	-12.0314
Su	-12.0315
▁86	-12.0322
▁tạc	-12.0327
jan	-12.0327
▁đan	-12.033
inger	-12.033
Lớp	-12.0334
ert	-12.0335
▁Nile	-12.0338
▁Hat	-12.0339
▁dơ	-12.0345
▁Pink	-12.0351
Da	-12.0358
▁Vin	-12.0363
esh	-12.0367
▁Ramesses	-12.0369
▁gặm	-12.0369
▁lấy	-12.037
▁găng	-12.037
▁Xuyên	-12.037
▁Hugo	-12.037
▁Trinh	-12.0372
UN	-12.0373
▁ISO	-12.0375
▁Clarke	-12.0375
▁Jang	-12.0375
▁Trans	-12.0385
.300	-12.0385
nce	-12.0389
▁Lev	-12.039
▁/	-12.0395
▁đu	-12.0396
▁logo	-12.0399
▁40.000	-12.0401
ãi	-12.0404
▁Kei	-12.0405
tai	-12.0406
▁Nin	-12.041
rop	-12.041
▁~	-12.0413
▁Ant	-12.0418
▁Poly	-12.0423
ận	-12.0423
▁hu	-12.043
ade	-12.0438
▁LA	-12.0447
IP	-12.0447
▁1.0	-12.0449
▁sạc	-12.0449
▁Luther	-12.045
▁un	-12.045
▁Alexandros	-12.0451
▁Jennifer	-12.0451
▁Seleukos	-12.0451
▁cặn	-12.0451
▁truất	-12.0451
▁(2005)	-12.0451
▁Chăm	-12.0451
▁nguội	-12.0451
▁Triết	-12.0451
▁chắc	-12.0451
▁kị	-12.0452
▁Stein	-12.0453
▁Hưng	-12.0453
▁ال	-12.0455
▁Bruno	-12.0456
pre	-12.0457
ough	-12.0459
▁Nord	-12.0459
▁Dead	-12.046
bach	-12.0464
▁Micro	-12.0465
▁Br	-12.0465
▁1946.	-12.0467
▁Giảm	-12.0468
gas	-12.0472
▁Now	-12.0474
uýt	-12.0478
▁Yang	-12.0485
rak	-12.0489
▁Gal	-12.049
▁nhô	-12.0493
tti	-12.0495
▁Qui	-12.0497
ings	-12.0499
▁xoa	-12.0501
Cho	-12.0501
ries	-12.0504
pen	-12.0508
▁76	-12.0509
▁bú	-12.0511
▁Rey	-12.0513
▁Helen	-12.0514
▁89	-12.0515
▁Char	-12.0518
▁Movie	-12.0523
▁TR	-12.0528
▁Birmingham	-12.0533
▁Nacional	-12.0533
▁Rượu	-12.0533
▁Stanford	-12.0533
▁nước	-12.0533
▁vọt	-12.0533
▁quấn	-12.0533
▁Portland	-12.0535
▁Dal	-12.0536
▁Doctor	-12.0537
▁Christmas	-12.0538
▁Diana	-12.0538
ship	-12.0538
▁Grey	-12.0539
▁125	-12.054
▁xảo	-12.054
▁Gene	-12.0542
dō	-12.0546
▁1848	-12.0547
ges	-12.0548
▁cộ	-12.055
rz	-12.0551
▁heli	-12.0551
100	-12.0554
▁chư	-12.0562
tana	-12.0569
▁4.000	-12.057
hn	-12.0573
try	-12.0575
▁Hunt	-12.0575
▁Santos	-12.0578
oh	-12.059
olo	-12.0599
ấu	-12.06
▁Zu	-12.0601
▁Empire	-12.0605
▁Julie	-12.0607
SD	-12.0608
▁450	-12.0609
▁Napoli	-12.0615
▁hiểu	-12.0615
▁nhớ	-12.0615
phy	-12.0616
▁Percy	-12.0616
▁két	-12.0616
▁XVIII	-12.0616
▁Máu	-12.0617
▁Major	-12.0618
▁Limited	-12.0618
▁1893	-12.0619
OC	-12.062
-25	-12.062
▁Tái	-12.0623
▁Run	-12.0631
▁CBS	-12.0632
▁ABC	-12.0632
▁phông	-12.0633
▁(25	-12.0633
▁Gray	-12.0634
▁Ama	-12.0635
amide	-12.0636
▁Mur	-12.0638
chia	-12.0638
▁Bryan	-12.0639
ave	-12.0641
▁Oz	-12.0644
điều	-12.0648
Đức	-12.0648
▁Cr	-12.0649
tại	-12.065
5.000	-12.066
▁NH	-12.066
▁1957,	-12.0664
rot	-12.0665
▁giàn	-12.0668
mark	-12.0669
▁Fab	-12.0672
▁Intel	-12.0676
ề	-12.0678
▁Tech	-12.0681
▁Woo	-12.0681
▁''	-12.0687
át	-12.069
▁oxi	-12.0691
-40	-12.0694
-22	-12.0694
TC	-12.0696
#7885;	-12.0699
▁Adelaide	-12.0699
▁Sebastian	-12.0699
▁trỗi	-12.0699
▁ngõ	-12.0699
▁Chánh	-12.0699
▁Europa	-12.0699
▁04	-12.0699
▁Robinson	-12.07
▁Gan	-12.07
▁thùy	-12.07
▁bới	-12.0701
▁Battle	-12.0701
▁Nhập	-12.0701
▁Khánh	-12.0704
▁1867	-12.0705
▁nọc	-12.0706
▁Maine	-12.0707
CN	-12.0708
▁Hang	-12.0718
▁Tiger	-12.0719
▁Pla	-12.0722
▁spin	-12.0725
DF	-12.0726
▁Us	-12.0731
▁15.000	-12.0734
ated	-12.0738
ỏ	-12.0744
New	-12.076
▁Bả	-12.0761
▁trệ	-12.0762
ines	-12.0763
lli	-12.0765
bot	-12.0766
▁Barb	-12.0767
ầm	-12.0772
▁Mare	-12.0782
▁Malcolm	-12.0783
▁Dakota	-12.0783
▁phẫn	-12.0783
▁Amanda	-12.0783
▁Weekly	-12.0783
▁chật	-12.0783
▁Sherman	-12.0783
▁Lòng	-12.0786
▁Sắt	-12.0788
▁ơ	-12.0789
▁đồng	-12.079
▁Wat	-12.079
▁Luna	-12.0791
mis	-12.0792
bol	-12.0795
▁08	-12.0796
▁khiên	-12.0798
▁AFC	-12.0803
▁ngó	-12.0803
▁Sợ	-12.0806
▁Angela	-12.0809
▁po	-12.081
ốn	-12.0813
ress	-12.0815
▁Kit	-12.0816
NO	-12.0823
▁Kin	-12.0826
ị	-12.0829
▁Over	-12.0831
oth	-12.0832
▁71	-12.0833
▁Michel	-12.0834
▁EA	-12.0835
Họ	-12.0837
oul	-12.084
▁phách	-12.0844
gor	-12.0851
7.	-12.0851
dr	-12.0853
ech	-12.0855
▁Book	-12.0857
sol	-12.0858
kawa	-12.0861
RP	-12.0862
▁vượn	-12.0866
#7911;	-12.0867
▁Oklahoma	-12.0867
▁Kosovo	-12.0867
▁Laurel	-12.0867
▁Campbell	-12.0867
cHFF	-12.0867
▁Euler	-12.0868
▁gầm	-12.0868
▁Christina	-12.0868
▁Warren	-12.0868
▁nếp	-12.0868
▁mép	-12.0868
▁nhức	-12.0869
▁dấy	-12.0869
▁Montana	-12.087
▁GPS	-12.087
Bu	-12.0872
▁Owen	-12.0873
bia	-12.0877
▁Ros	-12.0878
ệ	-12.0878
OR	-12.088
ố	-12.0881
▁nhủ	-12.0882
▁500.000	-12.0883
▁quark	-12.0887
▁Jae	-12.0893
EN	-12.0894
ghề	-12.0896
▁What	-12.0897
▁tua	-12.0897
▁Nina	-12.0903
dos	-12.0904
▁xay	-12.0906
đó	-12.0907
-30	-12.0915
sal	-12.0915
uli	-12.0915
Lo	-12.0918
▁1979.	-12.0925
▁1.1	-12.0925
▁Won	-12.0926
▁lố	-12.0931
ien	-12.0934
▁AR	-12.0936
gy	-12.0936
▁Arts	-12.0939
▁Naga	-12.0941
▁Hae	-12.0943
▁That	-12.0943
▁Last	-12.0944
▁was	-12.0948
▁Wan	-12.095
▁xoá	-12.095
▁Montgomery	-12.0953
▁Fernando	-12.0953
▁Secret	-12.0953
ovich	-12.0953
▁ngâm	-12.0953
▁Princeton	-12.0954
▁Biệt	-12.0954
▁tặc	-12.0955
▁Bò	-12.0957
▁Tamil	-12.0957
▁miên	-12.0959
▁thức	-12.0962
▁zero	-12.0962
int	-12.0969
huỗi	-12.0969
▁Mir	-12.0969
▁1861	-12.0969
time	-12.0987
Nhạc	-12.0988
Tất	-12.0989
PDF	-12.099
▁Tel	-12.099
ode	-12.099
▁Wang	-12.0991
iva	-12.1004
▁methyl	-12.1006
av	-12.1008
▁(30	-12.1014
PC	-12.1029
▁enzym	-12.1031
▁Call	-12.1033
▁Ir	-12.1038
▁Wisconsin	-12.1039
▁Bắn	-12.1039
▁Leopold	-12.1039
▁Ptolemy	-12.1039
▁ruộng	-12.1039
▁giống	-12.1039
▁Garcia	-12.1039
▁Petersburg	-12.1039
▁ráp	-12.1039
▁khâu	-12.104
▁dào	-12.104
▁phồng	-12.104
▁Phép	-12.1043
▁Gửi	-12.1044
▁1864	-12.1044
▁sục	-12.1044
▁Thịnh	-12.1045
▁thoi	-12.1046
▁khoát	-12.1047
cH	-12.1047
▁Cưng	-12.105
▁Ổn	-12.1052
▁Sel	-12.1055
▁Ry	-12.1055
▁tẻ	-12.1056
▁Force	-12.1056
▁Like	-12.1057
▁Sand	-12.1062
▁Kat	-12.1064
suke	-12.1064
▁Xu	-12.1067
▁Forest	-12.1069
CI	-12.1071
▁AT	-12.1073
▁1903	-12.1075
▁Beth	-12.1075
tuần	-12.1076
sis	-12.1077
▁2014)	-12.1078
rab	-12.1082
▁rapper	-12.1085
▁Cà	-12.1087
▁Louise	-12.1088
ể	-12.11
▁Rus	-12.1103
▁nhú	-12.1112
▁Bru	-12.1117
▁Hamburg	-12.1125
▁Morris	-12.1125
▁Arkansas	-12.1126
▁Budapest	-12.1126
▁Sophia	-12.1126
▁lắm	-12.1126
▁Normandy	-12.1126
▁Savage	-12.1126
▁XVI	-12.1127
▁Hơi	-12.1127
▁Chống	-12.1127
▁Lagos	-12.1128
▁Thạch	-12.1129
▁Phoenix	-12.113
▁Joan	-12.113
▁FM	-12.1136
▁Oak	-12.1139
▁Josh	-12.1146
▁bùa	-12.1152
▁code	-12.1156
CS	-12.1156
bert	-12.1162
Cuộc	-12.1164
tum	-12.1176
xe	-12.1177
gawa	-12.1178
▁pre	-12.1183
▁Ker	-12.1184
▁02	-12.1185
▁ồ	-12.1188
▁Beta	-12.119
ique	-12.1192
das	-12.1195
▁Nguy	-12.1196
had	-12.12
▁(23	-12.1201
▁đồ	-12.1212
9,	-12.1212
▁Aristotle	-12.1214
▁Naples	-12.1214
▁Mecca	-12.1214
▁Graham	-12.1214
▁Monaco	-12.1214
▁online	-12.1215
▁NBC	-12.1216
▁vịt	-12.1216
▁English	-12.1217
▁Party	-12.1217
▁chèn	-12.1219
▁(24	-12.1219
▁nấp	-12.122
rn	-12.1224
vis	-12.1225
yon	-12.1225
RS	-12.1226
▁Marx	-12.1231
▁Hood	-12.1231
trung	-12.1236
hen	-12.1237
hei	-12.1238
imi	-12.1239
▁Aki	-12.1249
gate	-12.125
Vì	-12.1253
▁Soo	-12.1253
thông	-12.1253
▁thềm	-12.1253
PR	-12.126
▁Por	-12.1265
▁This	-12.1266
▁Wu	-12.1267
enko	-12.1267
▁1935,	-12.1273
▁khố	-12.1275
cum	-12.1276
▁dưng	-12.1277
alis	-12.1284
iki	-12.1287
eau	-12.1293
▁Ronald	-12.1299
▁Bali	-12.13
▁nhăn	-12.1301
#226;	-12.1302
▁Forbes	-12.1302
▁Jefferson	-12.1302
▁(2008)	-12.1302
▁(2011)	-12.1302
▁nitrat	-12.1302
▁Creek	-12.1302
▁Jump	-12.1303
▁Kịch	-12.1304
▁Set	-12.1305
▁Journal	-12.1306
▁chói	-12.1307
▁Silver	-12.1307
▁Masa	-12.1311
▁Bohemia	-12.1316
▁1971.	-12.1321
▁Georges	-12.1323
lum	-12.1325
nt	-12.1325
▁Sid	-12.1326
▁Ac	-12.1332
▁Mach	-12.1335
▁Kam	-12.1336
▁nhí	-12.1338
2.000	-12.1338
▁Neo	-12.1341
▁Silva	-12.1345
▁Bro	-12.1348
▁1920.	-12.1348
▁thục	-12.1351
AL	-12.1358
quang	-12.1358
▁Singh	-12.136
aza	-12.1365
ED	-12.1371
▁Stra	-12.1372
▁oh	-12.1374
▁09	-12.1378
▁Bas	-12.1385
▁Sc	-12.1386
▁Marcel	-12.1387
ất	-12.1388
▁Bristol	-12.1391
▁Mercury	-12.1391
▁Turkmenistan	-12.1391
▁Fujiwara	-12.1392
▁tiền	-12.1392
▁Gilbert	-12.1392
▁mặt	-12.1392
▁Viking	-12.1392
▁Geneva	-12.1392
▁thét	-12.1392
▁xiếc	-12.1393
▁rà	-12.1393
▁chốc	-12.1393
ạch	-12.1393
▁Tầng	-12.1394
▁háo	-12.1395
▁1863	-12.1396
▁Ocean	-12.1396
▁Universal	-12.1397
▁Collins	-12.1403
▁acid	-12.1403
AF	-12.1407
▁Iron	-12.1409
▁1975.	-12.1413
RT	-12.143
Liên	-12.1432
▁Gran	-12.1432
trên	-12.1432
rium	-12.144
▁Vinh	-12.144
▁Bee	-12.1443
een	-12.1446
▁MC	-12.1447
▁đôla	-12.1449
▁Soul	-12.145
▁Kom	-12.1451
▁roi	-12.1458
ota	-12.1461
-47	-12.1464
die	-12.1465
▁Nor	-12.1466
ồi	-12.1468
Si	-12.1473
▁Noel	-12.1474
ike	-12.1474
▁Eo	-12.1477
burn	-12.148
▁Mae	-12.148
OP	-12.1481
▁92	-12.1481
▁Hữu	-12.1482
▁Mikhail	-12.1482
▁Mauritius	-12.1482
▁Johannesburg	-12.1482
▁Airways	-12.1482
▁Orange	-12.1483
▁Molly	-12.1483
▁Vista	-12.1486
▁glucose	-12.1486
▁Mos	-12.1487
▁Singles	-12.1488
▁1830	-12.1488
▁phanh	-12.1489
▁Xung	-12.1492
▁(2013)	-12.1495
hấp	-12.1495
▁Say	-12.1496
▁nhàm	-12.1498
Jo	-12.1499
▁nóc	-12.1499
▁Ae	-12.15
ulus	-12.15
▁Nhi	-12.1505
▁Bach	-12.1507
▁93	-12.1509
▁105	-12.1517
ush	-12.1518
▁Bia	-12.1519
cơ	-12.152
Cậu	-12.1525
▁sen	-12.1525
đồng	-12.1525
▁Ark	-12.1526
▁Joy	-12.153
ej	-12.1534
nda	-12.1543
lee	-12.1543
▁Lance	-12.1547
ồn	-12.1548
▁August	-12.1548
rina	-12.155
lor	-12.1552
▁Baek	-12.1556
▁Mul	-12.1558
oro	-12.1559
▁PA	-12.1561
▁Queens	-12.1562
▁Phe	-12.1568
8.	-12.1568
▁Bio	-12.1568
ạ	-12.1571
▁thằn	-12.1571
▁Gin	-12.1571
rad	-12.1572
Hangul	-12.1572
nya	-12.1572
▁Alzheimer	-12.1573
▁Himalaya	-12.1573
▁Taliban	-12.1573
▁Ân	-12.1573
▁Gibraltar	-12.1573
▁tiếp	-12.1573
▁Hannibal	-12.1573
▁Derek	-12.1573
▁Newcastle	-12.1573
▁Stanley	-12.1573
AD	-12.1573
▁Riley	-12.1573
▁Goth	-12.1574
▁Annie	-12.1574
ào	-12.1575
▁1884	-12.1576
▁Iowa	-12.1576
▁nhấm	-12.1578
▁Alps	-12.1578
mal	-12.1579
▁Mala	-12.158
▁set	-12.1581
▁Lenin	-12.1585
▁Thea	-12.1586
oke	-12.1589
ain	-12.1592
eno	-12.1598
TS	-12.1598
▁Wo	-12.1604
ense	-12.161
▁Brad	-12.1611
éo	-12.1612
▁1,2	-12.1612
▁hip	-12.1614
jima	-12.1616
une	-12.1617
tất	-12.1619
▁nhai	-12.1621
ao	-12.1622
▁rap	-12.1623
Ng	-12.1624
ett	-12.1625
ego	-12.1628
▁chích	-12.1631
▁but	-12.1631
▁Anton	-12.1637
▁More	-12.1639
ence	-12.1639
▁Lưỡ	-12.1647
AN	-12.1651
DD	-12.1651
▁đả	-12.1654
▁xẻ	-12.1655
▁Fri	-12.1655
rge	-12.1655
õ	-12.1659
▁ASEAN	-12.1664
▁Capitol	-12.1664
▁Ludwig	-12.1664
▁Yokosuka	-12.1664
▁Columbus	-12.1664
▁dollar	-12.1664
▁Connecticut	-12.1664
▁bỉ	-12.1665
▁Lydia	-12.1665
▁chậu	-12.1665
▁nhổ	-12.1666
▁History	-12.1668
▁Guardian	-12.1671
▁Africa	-12.1672
ện	-12.1672
▁Water	-12.1674
vor	-12.1675
▁François	-12.1675
Nam	-12.1675
▁1840	-12.1676
▁Non	-12.1676
ON	-12.1677
ód	-12.1679
uối	-12.1685
▁Xi	-12.1687
ante	-12.1692
▁1941.	-12.1692
▁Gre	-12.1692
▁lẻo	-12.1698
ati	-12.1699
▁Thức	-12.17
wer	-12.1703
▁còng	-12.1705
Nhà	-12.1706
▁Mini	-12.1706
▁hé	-12.1706
▁Pel	-12.1708
▁91	-12.1714
Xin	-12.1715
▁Abel	-12.1718
▁Head	-12.1718
mbo	-12.1721
ánh	-12.1724
ạn	-12.1727
▁Chì	-12.1744
uto	-12.1747
▁Science	-12.1752
RE	-12.1755
eur	-12.1755
▁Celt	-12.1757
▁Hebrew	-12.1757
▁Simpson	-12.1757
▁bừa	-12.1757
#432;#7907;	-12.1757
▁Ahmed	-12.1757
▁Mount	-12.1757
▁Incheon	-12.1757
▁Keith	-12.1758
▁Isabella	-12.1758
▁Virus	-12.1758
▁Ethan	-12.1758
▁méo	-12.1758
ake	-12.176
▁Lí	-12.176
mas	-12.1761
uf	-12.1761
▁1886	-12.1761
▁mác	-12.1761
▁Project	-12.1761
▁Philippe	-12.1764
▁Silesian	-12.1764
▁1986.	-12.1765
▁1894	-12.1768
rô	-12.1769
▁Stevens	-12.1771
▁gào	-12.1773
▁Fuji	-12.1774
▁IP	-12.1776
▁1973.	-12.1776
rút	-12.1777
,5%	-12.1777
▁para	-12.1777
sco	-12.1777
▁Mộ	-12.1778
horn	-12.178
▁1962.	-12.1784
lay	-12.1785
▁"...	-12.1787
▁Dog	-12.1788
act	-12.1794
rực	-12.1794
Này	-12.1799
oto	-12.1804
▁1974.	-12.1806
rất	-12.1806
▁1964.	-12.1809
▁tụt	-12.1817
▁Von	-12.182
amba	-12.1822
ME	-12.1826
▁Pot	-12.1827
▁mono	-12.1837
ema	-12.1839
hình	-12.184
pon	-12.184
▁Raj	-12.1841
▁Carlo	-12.1844
Mu	-12.1844
▁André	-12.1845
lem	-12.1846
MB	-12.1846
▁lườn	-12.1849
▁Coulson	-12.185
▁Detroit	-12.185
▁dừa	-12.185
▁samurai	-12.185
▁672)}	-12.185
▁Galileo	-12.185
▁Warszawa	-12.185
▁Standard	-12.185
▁ngòi	-12.185
▁uỷ	-12.185
▁xịt	-12.1851
▁Alexios	-12.1851
▁lười	-12.1851
▁Homs	-12.1851
▁Yorkshire	-12.1851
▁thừng	-12.1852
rod	-12.1855
▁cọc	-12.1857
▁Finn	-12.186
▁clip	-12.186
▁75%	-12.1861
▁1892	-12.1864
úc	-12.1865
▁đốn	-12.1866
gio	-12.187
▁Baden	-12.1871
▁Stade	-12.1873
▁dạt	-12.1874
urs	-12.1885
▁Ruth	-12.1891
▁bổn	-12.1891
đường	-12.1894
Video	-12.1894
ói	-12.1896
Tây	-12.1897
nơi	-12.1897
▁Bern	-12.19
▁Reg	-12.1916
̀	-12.1917
DA	-12.1931
ial	-12.1934
▁1959.	-12.1935
ảnh	-12.1935
▁Silesia	-12.1937
▁Fil	-12.1938
pat	-12.1941
rol	-12.1944
▁Giovanni	-12.1945
▁Orlando	-12.1945
▁Đằng	-12.1945
▁đời	-12.1945
▁trường	-12.1945
▁(2015)	-12.1945
▁ngất	-12.1945
▁Morning	-12.1945
▁bẩy	-12.1946
▁Thích	-12.1947
▁pp	-12.1947
▁Noah	-12.1947
▁Wallace	-12.1948
▁Tỉ	-12.1948
▁đổi	-12.1948
▁Newport	-12.1949
▁Sumer	-12.1952
▁vv	-12.1954
~	-12.1956
▁Yan	-12.1956
▁Scandinavia	-12.1958
xa	-12.1962
ory	-12.1966
▁Giấ	-12.1966
TE	-12.1969
▁Kings	-12.1969
gs	-12.197
▁xỉn	-12.1975
.700	-12.1975
▁Baby	-12.1977
▁Sk	-12.1978
▁dang	-12.1981
▁Sports	-12.1982
gra	-12.1984
yō	-12.1987
phần	-12.199
zel	-12.1991
dus	-12.1993
▁Bran	-12.1998
tica	-12.2
▁thảy	-12.2001
lie	-12.2002
▁Wild	-12.2004
▁1988.	-12.2007
hun	-12.201
MC	-12.2017
▁hù	-12.202
rùng	-12.202
wing	-12.2022
sang	-12.2024
▁2%	-12.2026
▁nhan	-12.2027
▁Rhodes	-12.2029
▁Saudi	-12.203
erre	-12.2034
▁Julian	-12.2035
3%	-12.2036
ful	-12.2038
▁bbb	-12.2039
▁Amin	-12.2039
▁Ulithi	-12.204
▁Cleveland	-12.204
▁stress	-12.204
#432;#7901;	-12.204
▁Whitney	-12.204
▁Joshua	-12.204
1000}	-12.204
Chi	-12.204
▁Death	-12.2041
▁XIV	-12.2041
▁XIII	-12.2042
▁Prix	-12.2042
▁People	-12.2043
▁Brothers	-12.2043
SBN	-12.2044
▁1.500	-12.2048
rea	-12.2049
▁Rita	-12.2052
lip	-12.2052
▁càn	-12.2056
▁Jorge	-12.2059
text	-12.2061
▁Duke	-12.2073
ington	-12.2077
▁ar	-12.208
▁Thịt	-12.2083
▁Io	-12.2084
đối	-12.2085
▁Fair	-12.2091
▁Of	-12.2108
▁Già	-12.2108
▁Franco	-12.2108
▁Band	-12.2113
box	-12.2117
elo	-12.2117
▁82	-12.2118
rom	-12.2126
▁Academy	-12.2136
▁Copenhagen	-12.2136
▁Poznań	-12.2136
▁Ptolemaios	-12.2136
▁Baltimore	-12.2136
▁Habsburg	-12.2136
▁Dam	-12.2136
hững	-12.2137
▁Diệp	-12.2137
▁then	-12.2138
▁Hugh	-12.2138
▁Bệ	-12.2138
▁CNN	-12.2139
ord	-12.2139
▁Hussein	-12.2139
ừ	-12.214
▁Sát	-12.214
▁cứu	-12.2141
▁Med	-12.2142
▁Hương	-12.2143
▁Springs	-12.2143
▁steroid	-12.2144
▁1815	-12.2146
jō	-12.2149
▁Tô	-12.2151
▁2013)	-12.2155
▁Hart	-12.2158
Go	-12.216
str	-12.2162
▁1.2	-12.2165
▁3.0	-12.2167
bản	-12.2169
200	-12.217
▁Chia	-12.2171
▁Mason	-12.2172
▁cent	-12.2175
erson	-12.2179
▁Turin	-12.218
book	-12.2181
ball	-12.2182
▁Ned	-12.2182
anda	-12.2183
TI	-12.2195
Gi	-12.2197
dai	-12.2204
Oh	-12.2204
▁1919,	-12.2205
▁Bert	-12.2207
▁Gregor	-12.2219
▁metal	-12.2219
▁theta	-12.2222
ả	-12.2227
▁Ernest	-12.223
▁Omar	-12.2232
▁chải	-12.2233
#7899;	-12.2233
▁Kavkaz	-12.2233
▁Mohammed	-12.2233
▁Moldova	-12.2233
▁Rebecca	-12.2233
▁Wrocław	-12.2233
▁cholesterol	-12.2233
ắp	-12.2233
▁(2010)	-12.2233
▁chỗ	-12.2233
▁Mou	-12.2233
▁thường	-12.2233
▁Thuế	-12.2233
▁Apache	-12.2234
▁Crete	-12.2234
▁Ashley	-12.2234
▁mỳ	-12.2234
▁Vĩ	-12.2235
▁hức	-12.2235
▁cước	-12.2235
▁nhảm	-12.2236
▁Lane	-12.2237
▁Nikolai	-12.224
anna	-12.224
▁Naka	-12.2245
▁Tống	-12.2248
▁Film	-12.2254
▁Comp	-12.2257
▁But	-12.2259
RA	-12.2264
els	-12.2267
%	-12.2269
▁Chad	-12.227
bas	-12.2272
ward	-12.2274
LC	-12.2275
đại	-12.228
▁Verde	-12.2293
for	-12.2297
Ph	-12.2302
Sha	-12.2302
gie	-12.2312
uba	-12.2313
hor	-12.2315
▁Trà	-12.2316
▁gas	-12.2326
▁Ernst	-12.2331
▁Lannister	-12.2331
▁hợp	-12.2331
▁Hideyoshi	-12.2331
▁Anti	-12.2331
▁Konstantinos	-12.2331
▁Hubble	-12.2332
▁xuống	-12.2332
▁Hứa	-12.2332
▁axít	-12.2332
▁gò	-12.2332
▁Spartacus	-12.2333
▁lỗi	-12.2333
▁Commons	-12.2334
▁Praha	-12.2334
▁rạch	-12.2335
▁Liberia	-12.2335
▁Stella	-12.2335
▁2-1	-12.2335
▁Rolling	-12.2336
▁95%	-12.2336
▁clan	-12.2337
▁Nicolas	-12.2338
▁1883	-12.2338
▁Mak	-12.2338
▁đấ	-12.2338
▁XP	-12.2338
vent	-12.2339
▁Tasmania	-12.2341
-26	-12.2341
vu	-12.2345
▁Blake	-12.2346
▁ỏi	-12.2347
▁Berg	-12.2352
gần	-12.2352
ttle	-12.2355
▁97	-12.2357
▁1939.	-12.236
▁1865	-12.2361
▁Rum	-12.2367
▁nm	-12.237
▁Kid	-12.2377
ngoại	-12.2379
Pro	-12.2379
ế	-12.238
vùng	-12.238
▁Rod	-12.2381
▁How	-12.2383
▁vs	-12.2385
ales	-12.2395
My	-12.2395
▁6.000	-12.2396
isha	-12.2399
pal	-12.2399
ons	-12.2406
tty	-12.2407
omo	-12.2409
▁1965.	-12.2409
▁Salt	-12.2409
feld	-12.2411
Hy	-12.2411
fan	-12.2411
ario	-12.2412
ều	-12.2416
▁05	-12.2419
▁Hộ	-12.242
▁Rain	-12.242
vir	-12.2421
ác	-12.2421
▁chổ	-12.2422
tech	-12.2424
tho	-12.2427
TT	-12.2428
▁chồn	-12.2429
▁demo	-12.243
fficial	-12.243
▁Glasgow	-12.243
▁Nairobi	-12.243
▁Ralph	-12.243
▁loãng	-12.243
▁sandwich	-12.243
▁yeah	-12.243
▁Pradesh	-12.243
▁Bavaria	-12.243
▁Magazine	-12.243
▁Điệu	-12.243
▁console	-12.243
▁Ligue	-12.2431
▁thống	-12.2431
▁cầu	-12.2431
▁phường	-12.2431
▁gầy	-12.2431
▁lốp	-12.2432
▁Tích	-12.2433
▁Logan	-12.2433
▁Madison	-12.2435
▁Cầm	-12.2435
▁Polo	-12.2438
▁Oslo	-12.2438
0,000	-12.244
gel	-12.2445
▁Slam	-12.2447
dol	-12.2448
rate	-12.245
gr	-12.2453
chen	-12.2455
▁MW	-12.246
Mar	-12.2462
pis	-12.2464
▁cáu	-12.2467
▁Gua	-12.247
▁Ei	-12.2471
▁His	-12.2472
▁Uni	-12.2473
km	-12.2475
lé	-12.2476
▁É	-12.2477
▁Ky	-12.2477
bury	-12.2478
Ngày	-12.2479
▁Hol	-12.248
▁cưa	-12.2482
▁choáng	-12.2485
ast	-12.2488
▁Gru	-12.2489
eus	-12.2492
▁170	-12.2492
itz	-12.2493
▁Rai	-12.2496
▁bén	-12.2497
ical	-12.2499
▁Georg	-12.2503
ici	-12.2514
amo	-12.2515
▁PR	-12.2516
evich	-12.2518
chon	-12.2518
▁Gustav	-12.2523
▁ok	-12.2526
omi	-12.2526
cl	-12.2527
▁16,	-12.2529
▁Tehran	-12.253
▁Thắng	-12.253
▁vặn	-12.253
▁Arnold	-12.253
▁Thai	-12.253
▁ngẫm	-12.253
▁Research	-12.253
▁Phủ	-12.253
▁Spencer	-12.253
▁vấn	-12.2531
▁Antonius	-12.2531
▁tuỳ	-12.2531
▁Katie	-12.2531
visual	-12.2531
▁Sophie	-12.2531
ầu	-12.2531
▁Tóm	-12.2531
▁vỉa	-12.2531
▁Đập	-12.2531
oanh	-12.2533
▁lựu	-12.2533
▁Pas	-12.2533
bộ	-12.2536
▁Nô	-12.2537
▁chưng	-12.254
gne	-12.254
▁1982.	-12.2547
▁(2009)	-12.2548
sko	-12.255
ete	-12.255
tit	-12.2551
dian	-12.2556
oxy	-12.2564
▁meta	-12.257
▁1961.	-12.2573
awa	-12.2577
unt	-12.2581
đến	-12.2582
gua	-12.2583
▁Cú	-12.2584
▁Yak	-12.2589
nar	-12.2594
ñ	-12.2599
iễu	-12.2614
IN	-12.2619
Ne	-12.2621
▁tru	-12.2627
▁Atlantic	-12.2631
▁Essex	-12.2631
▁Tesla	-12.2631
▁quẩn	-12.2631
▁(2003)	-12.2632
▁Maxwell	-12.2632
▁rầy	-12.2632
▁Đời	-12.2632
▁thản	-12.2632
▁Mèo	-12.2633
▁Thebes	-12.2633
▁nhọc	-12.2634
▁McCartney	-12.2634
▁Lester	-12.2635
▁Tào	-12.2635
▁Trục	-12.2637
▁Oda	-12.2638
▁Ibn	-12.2638
▁87	-12.2639
than	-12.264
▁out	-12.2641
▁Đáp	-12.2642
▁Der	-12.2643
▁đành	-12.2643
mber	-12.2643
NS	-12.2644
”,	-12.2645
▁(2001)	-12.2646
▁nom	-12.2646
▁cù	-12.2652
▁Ts	-12.2654
▁Eva	-12.2656
ux	-12.2665
▁Nero	-12.2667
▁1985.	-12.267
bridge	-12.2671
▁nhấ	-12.2673
Thật	-12.2682
▁ten	-12.2683
phải	-12.2683
rian	-12.2688
Ko	-12.2696
avi	-12.2697
6%	-12.2697
300	-12.2698
▁Hills	-12.2699
shō	-12.2712
▁bịt	-12.2712
phon	-12.2716
000	-12.2717
▁Joon	-12.2724
▁Rhine	-12.2725
800	-12.2726
ń	-12.2727
Am	-12.2728
▁Str	-12.273
▁Isabel	-12.2732
▁nhộn	-12.2732
úp	-12.2732
▁Pet	-12.2732
SI	-12.2733
▁Lebanon	-12.2733
▁chọi	-12.2733
▁lympho	-12.2733
▁Thiệt	-12.2733
▁điếc	-12.2734
▁UAE	-12.2734
▁vác	-12.2734
▁Troy	-12.2736
▁Pacific	-12.2739
▁XV	-12.2744
▁Comics	-12.2744
▁Cửu	-12.2746
▁Homo	-12.2746
▁WHO	-12.275
You	-12.2752
▁Yoon	-12.2755
zon	-12.2761
▁Four	-12.2761
▁Avi	-12.2762
▁AB	-12.2762
tina	-12.2764
ffe	-12.2767
▁Buồn	-12.2768
▁Cara	-12.2771
bro	-12.2771
▁bênh	-12.2774
eon	-12.2775
▁Kas	-12.2775
▁phích	-12.2781
▁AG	-12.2782
PE	-12.2785
Vậy	-12.2786
Thành	-12.2786
▁Pur	-12.2787
▁Hermann	-12.2787
▁Tina	-12.2788
boat	-12.2789
▁(22	-12.2794
▁Neil	-12.28
▁3,5	-12.2803
▁SE	-12.2806
nah	-12.281
▁bời	-12.2814
▁SP	-12.2815
0°	-12.2815
?),	-12.2819
pas	-12.2819
▁flo	-12.2822
llo	-12.2824
▁Bla	-12.2827
VI	-12.2832
hir	-12.2833
▁Banks	-12.2834
▁phỉ	-12.2836
Í	-12.2836
#7919;	-12.2836
▁Animation	-12.2836
▁Chọn	-12.2836
▁Tajikistan	-12.2836
▁Murphy	-12.2836
▁Dacia	-12.2837
▁Nhiễm	-12.2837
▁#273;#243;	-12.2837
▁Moses	-12.2838
▁xuồng	-12.2838
▁sấm	-12.2839
▁Zeus	-12.2839
▁Theodore	-12.284
▁Venezia	-12.2842
▁Online	-12.2843
▁đội	-12.2843
▁cover	-12.2845
▁1882	-12.2845
▁Type	-12.2846
TO	-12.2848
▁1891	-12.2848
▁Divisione	-12.2854
▁Whit	-12.2854
▁AM	-12.2855
▁1963.	-12.2871
▁Tele	-12.2874
Nửa	-12.2876
ites	-12.2879
▁Phra	-12.288
ùng	-12.2884
lim	-12.2886
▁Hotel	-12.2886
ces	-12.2888
-24	-12.2888
▁Saba	-12.289
nhạc	-12.289
uyên	-12.2898
oun	-12.29
▁03	-12.2903
▁March	-12.2904
▁Brooke	-12.291
▁Gy	-12.2911
▁IC	-12.2915
ça	-12.2917
CP	-12.2923
▁Clo	-12.2924
▁Motors	-12.2926
▁McC	-12.2927
BA	-12.293
▁Dominica	-12.293
sul	-12.293
ạp	-12.2931
▁rong	-12.2934
chy	-12.2936
▁Hou	-12.2937
▁Bus	-12.2939
▁Command	-12.2939
run	-12.294
▁Frankfurt	-12.294
▁Hampshire	-12.294
▁Sheeran	-12.294
▁rưởi	-12.294
▁Bahamas	-12.294
▁Valencia	-12.2941
▁lượm	-12.2941
▁Captain	-12.2941
▁cuối	-12.2941
▁District	-12.2941
▁Betty	-12.2941
▁Khổ	-12.2941
▁sồi	-12.2941
▁hóc	-12.2941
▁thây	-12.2942
▁Diện	-12.2942
▁Scotia	-12.2942
ort	-12.2943
▁Sabah	-12.2943
▁sâm	-12.2943
▁Drake	-12.2946
▁Fran	-12.295
▁Não	-12.295
▁Joel	-12.2951
ogen	-12.2955
▁2012)	-12.2956
▁Ultra	-12.2958
PL	-12.2958
bis	-12.2959
hab	-12.2961
ç	-12.2964
▁Not	-12.2969
kg	-12.2972
▁1984.	-12.2975
▁Ip	-12.2976
tle	-12.2978
▁Nhu	-12.2978
▁Net	-12.2979
▁Lie	-12.298
led	-12.2981
als	-12.2982
cept	-12.2983
▁Bart	-12.2984
▁Kō	-12.2985
hàng	-12.2985
ée	-12.299
aq	-12.2991
▁sex	-12.2994
IA	-12.3
▁06	-12.3
▁Ob	-12.3
▁0,0	-12.3002
̉	-12.3003
1.000	-12.3003
▁1932,	-12.301
▁khuya	-12.3016
▁mỉ	-12.302
mmer	-12.3029
IF	-12.303
lag	-12.3032
lang	-12.3033
▁ad	-12.3036
ison	-12.3041
▁Yasu	-12.3043
▁10,000	-12.3044
▁Visual	-12.3046
▁Người	-12.3046
▁Belize	-12.3046
▁quậy	-12.3046
.100	-12.3046
▁Review	-12.3046
▁Xích	-12.3046
▁Leeds	-12.3046
▁năn	-12.3047
▁quyết	-12.3047
▁Rồng	-12.3048
▁XII	-12.3048
▁Ellis	-12.3048
▁huh	-12.3049
▁1947.	-12.3049
▁Maurice	-12.3049
top	-12.3056
kka	-12.3062
▁Planet	-12.3067
▁Blu	-12.3071
Chỉ	-12.3078
▁phao	-12.3083
gos	-12.3088
▁MB	-12.309
áng	-12.3098
Hội	-12.3102
dưới	-12.3102
bất	-12.3103
▁Webb	-12.3103
▁Tsu	-12.3105
▁2010)	-12.3105
▁Gram	-12.3107
đôi	-12.3107
▁Pal	-12.3108
▁Songs	-12.3109
▁vo	-12.3111
lina	-12.3114
▁cày	-12.3119
▁Bat	-12.3119
áp	-12.3129
▁Sul	-12.313
cách	-12.3138
,1%	-12.3138
▁lộc	-12.3141
▁Masters	-12.3143
▁Mono	-12.3143
▁Tower	-12.3143
rel	-12.3145
▁Boys	-12.3148
▁109	-12.3148
put	-12.315
iyah	-12.3151
press	-12.3151
▁Electric	-12.3152
▁Brisbane	-12.3152
▁Business	-12.3152
▁Ngụy	-12.3152
▁Nẵng	-12.3152
▁ballad	-12.3152
▁chửi	-12.3152
▁Quebec	-12.3152
▁vẫy	-12.3152
▁Teddy	-12.3153
▁bởi	-12.3153
▁Aka	-12.3153
▁bầm	-12.3153
▁rành	-12.3153
▁Meyer	-12.3154
▁Mạnh	-12.3154
▁Perth	-12.3154
▁vấp	-12.3157
▁hội	-12.3157
▁Edgar	-12.3158
▁not	-12.3159
ID	-12.316
▁phàm	-12.3161
▁Cloud	-12.3163
▁SO	-12.3165
▁%	-12.3168
▁Fer	-12.3169
ize	-12.3177
▁Data	-12.3178
▁Maru	-12.3178
tain	-12.3178
▁GS	-12.3179
▁Main	-12.3184
▁Roberto	-12.3187
▁LP	-12.3192
ame	-12.3197
▁Tia	-12.3205
▁wa	-12.3206
qa	-12.3206
thứ	-12.3207
▁LG	-12.3208
Ý	-12.3209
Mẹ	-12.3209
nut	-12.3209
bay	-12.3209
▁Cre	-12.3212
pes	-12.3212
dri	-12.3213
▁all	-12.3225
▁Met	-12.3226
▁Mei	-12.3228
▁Evan	-12.3228
PI	-12.323
hyun	-12.3231
▁Card	-12.3232
quin	-12.3235
ides	-12.3235
▁Korea	-12.3235
ắp	-12.3237
▁phả	-12.3238
▁Got	-12.3242
▁Saya	-12.3243
▁(21	-12.3246
▁Hope	-12.3256
▁hãn	-12.3256
▁1969.	-12.3257
DE	-12.3257
uch	-12.3258
▁Fin	-12.3259
#237;	-12.326
▁Bermuda	-12.326
▁Felicity	-12.326
▁Himmler	-12.326
▁thẹn	-12.326
▁Bailey	-12.326
▁Leningrad	-12.326
▁Armstrong	-12.326
▁Tobago	-12.326
▁(2004)	-12.326
▁Cyrus	-12.326
▁Butler	-12.326
▁GNU	-12.326
▁rình	-12.326
kon	-12.326
▁truồng	-12.3261
▁Eugene	-12.3261
ianus	-12.3261
▁Elena	-12.3262
▁quyền	-12.3262
▁rụi	-12.3262
àn	-12.3262
▁Wonder	-12.3262
▁Mời	-12.3263
EA	-12.3264
▁1869	-12.3264
▁Conrad	-12.3264
▁1862	-12.3265
▁Nhịp	-12.3266
ashi	-12.3267
▁Vu	-12.3269
▁1956.	-12.3272
▁Hel	-12.3272
cá	-12.3273
▁peptide	-12.3274
▁1872	-12.3276
▁SI	-12.328
tine	-12.3281
uta	-12.3281
mỉa	-12.3283
ishi	-12.3286
ND	-12.3288
▁Bol	-12.329
▁Nico	-12.3296
▁Has	-12.33
▁Law	-12.3304
▁Lem	-12.3308
Ar	-12.3313
hime	-12.3314
▁83	-12.3315
▁Pak	-12.3316
▁1977.	-12.3326
▁Dy	-12.3331
▁AD	-12.3335
Don	-12.3336
mara	-12.3339
▁hon	-12.3344
▁át	-12.3344
▁Andre	-12.3355
▁(29	-12.3355
hm	-12.3364
stin	-12.3364
Đem	-12.3368
#7915;	-12.3368
▁Hằng	-12.3368
▁Vistula	-12.3368
▁Craig	-12.3368
▁Diamond	-12.3368
▁Richmond	-12.3368
▁Trotsky	-12.3368
▁ICAO	-12.3368
▁Phnom	-12.3368
▁Cuddy	-12.3368
▁Oppenheimer	-12.3368
▁đối	-12.3369
▁Thẻ	-12.3369
▁Nhằm	-12.3369
▁Thế	-12.3369
▁Todd	-12.3369
▁dioxide	-12.3371
н	-12.3372
▁Góc	-12.3372
▁1876	-12.3373
▁Valentine	-12.3374
▁hiên	-12.3375
▁Rand	-12.3376
▁Fisher	-12.3377
▁há	-12.3379
▁1859	-12.3379
▁hệ	-12.338
Kh	-12.3381
▁chuy	-12.3381
rib	-12.3381
▁Tấn	-12.3383
cio	-12.3383
▁sốc	-12.3387
▁teen	-12.3388
nde	-12.3389
▁Fur	-12.3399
▁ngạch	-12.3401
iso	-12.3402
2),	-12.3402
▁Jima	-12.3405
▁25.000	-12.3405
▁Carrie	-12.3416
yuki	-12.3417
icus	-12.3419
now	-12.3419
▁Motor	-12.3419
▁ID	-12.3424
▁(27	-12.3424
▁PM	-12.3426
▁Fun	-12.3427
World	-12.3427
đầu	-12.3427
Bộ	-12.3428
HD	-12.343
ứ	-12.343
Te	-12.3431
view	-12.3431
skaya	-12.3434
achi	-12.3437
eli	-12.3437
ôi	-12.3438
kes	-12.3439
▁bịch	-12.3441
úng	-12.3444
DI	-12.3446
▁Mid	-12.3449
ET	-12.345
uru	-12.345
▁Ig	-12.345
▁Bri	-12.3454
▁Sor	-12.3457
▁Vietnam	-12.346
ping	-12.3461
▁lẻn	-12.3462
▁Kur	-12.3462
rou	-12.3462
yat	-12.3464
▁Duy	-12.3467
ña	-12.3474
.000.000	-12.3474
▁Winston	-12.3475
sten	-12.3477
▁Antioch	-12.3477
▁Athletic	-12.3478
▁Gideon	-12.3478
▁Ieyasu	-12.3478
▁Leslie	-12.3478
▁(2012)	-12.3478
▁corona	-12.3479
▁siết	-12.3479
Bi	-12.3479
▁Jenny	-12.3479
▁Nghiêm	-12.3479
▁Vĩnh	-12.3479
▁gập	-12.348
▁Mừng	-12.348
▁Miles	-12.348
▁kèo	-12.3481
▁07	-12.3483
▁Tố	-12.3485
▁Lind	-12.3486
▁Voice	-12.3486
▁French	-12.3487
▁SK	-12.3487
▁Ven	-12.3488
▁Eve	-12.3488
▁Glen	-12.349
▁Emmy	-12.3491
▁UV	-12.3491
light	-12.3492
▁Nar	-12.3494
ery	-12.3494
core	-12.3495
▁khuấy	-12.3497
Star	-12.3497
ault	-12.3497
▁Mart	-12.3502
BO	-12.3504
▁Summer	-12.3506
▁Bir	-12.3506
EG	-12.351
miya	-12.3511
▁Gothic	-12.3511
ega	-12.3514
▁Ton	-12.3516
EX	-12.352
ever	-12.3521
eti	-12.3528
EP	-12.353
ẩu	-12.3533
▁Sue	-12.3535
rro	-12.3537
cuộc	-12.354
▁Yong	-12.3542
▁Pod	-12.3548
lly	-12.3549
▁Chợ	-12.355
late	-12.3565
pia	-12.3567
▁bb	-12.3569
dic	-12.3575
▁Qa	-12.3579
▁Lỗ	-12.3582
sty	-12.3586
▁Thả	-12.3589
▁Amenhotep	-12.3589
▁Website	-12.3589
▁Nhưỡng	-12.3589
▁Dennis	-12.359
▁nhĩ	-12.359
▁Bosna	-12.359
▁Woman	-12.359
▁Server	-12.359
▁Hùng	-12.3591
▁phình	-12.3591
▁Penang	-12.3591
▁liêu	-12.3592
▁bái	-12.3592
▁kW	-12.3593
▁Allah	-12.3593
▁1866	-12.3594
▁Rif	-12.3596
èo	-12.3596
▁Charleston	-12.3597
▁Rangers	-12.3597
▁1966.	-12.3598
▁1873	-12.3601
▁ưng	-12.3605
▁SCN	-12.3606
▁1879	-12.3611
▁Connor	-12.3613
▁Thác	-12.3616
Wa	-12.3619
▁Dun	-12.3619
▁Deep	-12.3621
ừng	-12.3625
▁Gaza	-12.3625
wen	-12.3627
hon	-12.3631
iba	-12.3632
▁lẽo	-12.3633
ạc	-12.3634
nhiều	-12.3638
▁đao	-12.3639
▁1,3	-12.364
iti	-12.364
mai	-12.3641
▁Ryu	-12.3648
úa	-12.3652
▁2009)	-12.3653
4.000	-12.3654
▁lon	-12.3654
▁sc	-12.3654
▁1.200	-12.3669
etta	-12.3671
dio	-12.3673
hụp	-12.3673
Từ	-12.3674
ậy	-12.3682
lai	-12.3684
2).	-12.3686
ving	-12.369
ted	-12.369
▁Evans	-12.3692
long	-12.3695
▁Ada	-12.3697
▁Comic	-12.3698
wal	-12.3699
right	-12.37
▁ray	-12.3701
▁Baghdad	-12.3702
#7921;	-12.3702
▁Eccellenza	-12.3702
▁Mercedes	-12.3702
▁Mikhael	-12.3702
▁Rihanna	-12.3702
▁Mumbai	-12.3702
▁Montreal	-12.3702
▁Daisy	-12.3702
▁Voyager	-12.3702
▁vector	-12.3702
▁bệnh	-12.3702
▁Huyền	-12.3702
▁Dublin	-12.3702
▁Ghost	-12.3702
▁trỏ	-12.3702
▁Bạc	-12.3702
▁Gogh	-12.3703
▁ww	-12.3703
▁thốt	-12.3704
▁Lloyd	-12.3704
▁Ngà	-12.3706
▁lay	-12.3707
▁opioid	-12.3707
▁Next	-12.3707
▁Nhắc	-12.3708
▁Iris	-12.3711
▁2.5	-12.3713
▁ethanol	-12.3713
▁Jet	-12.3714
▁sọc	-12.3714
▁1858	-12.3714
uku	-12.372
rey	-12.372
▁củi	-12.3726
▁tetra	-12.3732
1%	-12.3733
▁up	-12.3734
▁Zen	-12.3734
▁Copa	-12.3737
graph	-12.3738
▁hoả	-12.3739
rc	-12.3739
cheon	-12.374
▁lạp	-12.3741
▁sh	-12.3745
Lu	-12.3747
eve	-12.3755
▁oán	-12.3763
▁Rom	-12.3765
ulf	-12.3767
▁Raja	-12.3768
▁Fal	-12.3773
col	-12.3774
FR	-12.3774
és	-12.3779
▁Albums	-12.3784
Bà	-12.3797
:1	-12.3803
▁Tara	-12.3803
▁_{	-12.3806
▁Lombard	-12.3811
hệ	-12.3813
▁Eisenhower	-12.3815
▁García	-12.3815
▁iPad	-12.3815
▁Tiberius	-12.3815
▁huệ	-12.3815
▁ibn	-12.3815
lf	-12.3815
▁Children	-12.3816
▁vẹt	-12.3816
▁Anglo	-12.3816
▁Holly	-12.3816
▁tivi	-12.3816
▁Avatar	-12.3816
lak	-12.3818
▁Xương	-12.3819
▁Polynesia	-12.382
▁Reed	-12.382
▁IGN	-12.3821
kel	-12.3822
▁viền	-12.3822
MI	-12.3824
▁lạy	-12.3827
▁Arab	-12.3828
▁live	-12.3832
▁Phone	-12.3837
ein	-12.3838
anga	-12.3842
▁are	-12.3846
DR	-12.3847
▁Get	-12.3848
▁2021	-12.3849
mie	-12.3849
▁Bird	-12.3851
▁bịa	-12.3862
▁220	-12.3863
̣	-12.3864
2-	-12.3864
CL	-12.3864
eni	-12.3875
sum	-12.3878
wald	-12.388
Giải	-12.3881
mất	-12.3886
amin	-12.389
gle	-12.3892
aire	-12.3893
▁Talk	-12.3898
clo	-12.39
phe	-12.3901
ât	-12.3907
▁IS	-12.3908
▁Matsu	-12.3909
borg	-12.3913
ija	-12.392
▁Leonard	-12.3927
▁Foreman	-12.393
▁Schmidt	-12.393
▁đươc	-12.393
▁Wikimedia	-12.393
til	-12.393
▁Gandhi	-12.393
▁Galicia	-12.393
▁Nguyệt	-12.393
▁Midway	-12.393
▁Calcio	-12.393
▁phớt	-12.3931
ars	-12.3931
▁Three	-12.3931
▁vệ	-12.3931
▁Rafael	-12.3931
▁Seven	-12.3932
▁Sakura	-12.3932
▁Word	-12.3933
▁Sunday	-12.3934
▁mỉm	-12.3936
▁Mall	-12.3939
▁RAF	-12.3944
▁Tang	-12.3947
▁Đau	-12.3947
mani	-12.395
▁Barr	-12.3952
▁Face	-12.3955
Com	-12.3956
▁Cali	-12.3958
▁giã	-12.3959
kor	-12.3963
▁Pac	-12.3965
▁States	-12.3965
hop	-12.3966
▁Hyun	-12.3967
Fe	-12.3971
apa	-12.3973
Sau	-12.3973
▁trans	-12.3975
▁Luc	-12.3975
▁Bud	-12.3976
kō	-12.3977
uer	-12.3979
▁Plan	-12.3981
▁94	-12.3984
▁Kol	-12.3984
cc	-12.3991
▁chê	-12.3994
cle	-12.3996
')	-12.3997
Chúa	-12.3998
kẻ	-12.3998
sun	-12.3999
hợ	-12.4005
uca	-12.4005
▁128	-12.4006
hydroxy	-12.4012
▁Hoà	-12.4024
▁Second	-12.4032
▁Sil	-12.4032
BM	-12.4034
▁Fra	-12.4036
▁175	-12.4037
▁com	-12.404
#7901;	-12.4046
▁Claudia	-12.4047
▁Havana	-12.4047
▁München	-12.4047
▁Westminster	-12.4047
▁iTunes	-12.4047
▁species	-12.4047
▁diesel	-12.4047
▁điểm	-12.4047
▁Republic	-12.4047
▁ngỏ	-12.4047
▁Northern	-12.4047
▁Yamato	-12.4047
▁Cannes	-12.4047
▁chưởng	-12.4047
▁Đừng	-12.4047
▁Barnes	-12.4047
▁Cast	-12.4048
▁Scarlett	-12.4048
▁Cebu	-12.4048
▁diều	-12.4049
▁măng	-12.405
▁dioxit	-12.405
▁Jazz	-12.4051
▁lảng	-12.4054
idi	-12.4054
▁Box	-12.4056
ỡi	-12.406
▁Arena	-12.406
-200	-12.4071
▁Torres	-12.4076
lô	-12.4079
▁bích	-12.4079
▁XI	-12.408
▁Nubia	-12.4081
▁Kual	-12.4087
▁Res	-12.409
▁Abd	-12.4095
▁Mê	-12.4096
▁Erik	-12.4097
▁Giê	-12.4101
▁Rin	-12.4102
nói	-12.4102
▁Chin	-12.4104
▁Plato	-12.4106
ễn	-12.4106
born	-12.4108
phen	-12.411
^{	-12.4112
asa	-12.4112
pod	-12.4112
yne	-12.4112
nhũ	-12.4114
gồm	-12.4114
giờ	-12.4114
▁3%	-12.4115
asi	-12.4116
hành	-12.4118
ör	-12.4119
▁Lon	-12.412
rine	-12.412
rone	-12.4121
▁1.3	-12.4127
0000	-12.4145
hito	-12.4145
▁1200	-12.4147
.800	-12.4148
ược	-12.4148
mine	-12.4152
CE	-12.4153
▁giỏ	-12.4155
▁Et	-12.4157
▁Year	-12.4157
▁Adrian	-12.4158
▁4%	-12.4158
▁Bong	-12.4161
▁Myanma	-12.4163
▁Rem	-12.4163
▁Beirut	-12.4164
▁Halloween	-12.4164
▁Industries	-12.4164
▁Yokohama	-12.4164
▁hydroxit	-12.4164
▁Được	-12.4164
▁Guinness	-12.4164
▁Fischer	-12.4164
▁sẫm	-12.4165
uchi	-12.4165
▁sủa	-12.4165
▁Thuận	-12.4165
▁giông	-12.4165
▁Clara	-12.4165
▁Jules	-12.4165
▁Gabon	-12.4165
▁Tộc	-12.4166
▁nít	-12.4166
▁dẫm	-12.4167
▁Hộp	-12.4167
▁Iwo	-12.4168
ulo	-12.4169
▁tối	-12.4171
▁Porter	-12.4171
▁Hua	-12.4173
▁gồ	-12.4175
she	-12.4177
▁Institute	-12.4178
▁India	-12.4178
▁Choi	-12.4178
▁Lim	-12.418
tner	-12.4181
▁1878	-12.4183
▁Xứ	-12.4185
▁Wong	-12.4185
▁Alb	-12.419
ẫn	-12.4194
▁Cla	-12.4194
т	-12.4196
▁Days	-12.4201
▁Edwards	-12.4205
▁Christ	-12.4206
▁Blo	-12.4208
▁model	-12.4212
lyn	-12.4219
▁Yuki	-12.4221
NA	-12.4224
saki	-12.4226
raw	-12.4226
▁4000	-12.4228
▁Sega	-12.4229
Ủ	-12.4232
chiến	-12.4235
het	-12.424
vers	-12.4247
▁Deb	-12.4247
rik	-12.4249
key	-12.4251
▁(28	-12.4254
methyl	-12.4254
▁Gà	-12.4255
▁GR	-12.4256
oz	-12.4258
tie	-12.4258
kun	-12.4258
ền	-12.4258
ulu	-12.4265
▁Af	-12.4267
▁dãi	-12.427
▁With	-12.4271
▁ngả	-12.4273
▁Hus	-12.4275
▁NO	-12.4277
▁Lei	-12.4279
ors	-12.4283
#7847;	-12.4283
▁Sihanouk	-12.4283
▁#272;	-12.4283
▁Henderson	-12.4283
▁Maldives	-12.4283
▁Mohamed	-12.4283
▁Pittsburgh	-12.4283
▁Punjab	-12.4283
▁Teresa	-12.4283
▁Wimbledon	-12.4283
▁gót	-12.4283
▁(2014)	-12.4283
▁Herbert	-12.4283
▁1820	-12.4284
▁giầy	-12.4284
▁Trạch	-12.4284
▁Tiết	-12.4284
▁Lựa	-12.4284
▁Lorenzo	-12.4284
▁Gấu	-12.4285
▁Khuôn	-12.4286
▁Nobu	-12.4288
▁Avengers	-12.4288
▁Manny	-12.4289
▁gien	-12.4289
rig	-12.4291
ăm	-12.4293
▁1874	-12.4293
▁nhung	-12.4293
▁Clay	-12.4295
▁300.000	-12.4295
▁Sing	-12.4296
eva	-12.4296
▁hốc	-12.4296
▁Nak	-12.4296
▁Claude	-12.4297
NC	-12.4299
▁Mis	-12.43
▁sub	-12.4301
nal	-12.4302
▁Romeo	-12.4303
▁vét	-12.4306
shire	-12.4306
trừ	-12.4307
kra	-12.4311
▁Nana	-12.4321
thu	-12.4329
▁Bull	-12.4331
thin	-12.4332
▁Petrov	-12.4333
bil	-12.4333
▁ngà	-12.4336
▁Kita	-12.4337
ime	-12.4339
▁Sứ	-12.434
▁Hee	-12.4347
▁trụi	-12.4348
▁Khoản	-12.4348
HCM	-12.4353
IV	-12.4354
▁Rat	-12.4354
Để	-12.4355
phone	-12.4357
hel	-12.4357
eum	-12.4362
▁Kos	-12.4362
jer	-12.4364
▁Kuro	-12.4369
▁Scha	-12.4369
▁Coca	-12.4371
▁vá	-12.4372
cor	-12.4374
▁Place	-12.4377
▁Horn	-12.4379
umi	-12.4381
▁Pul	-12.4385
lik	-12.4388
El	-12.439
▁Josef	-12.4392
nov	-12.4394
ễ	-12.4396
but	-12.4396
▁know	-12.4396
ل	-12.4397
▁Lyon	-12.4399
▁2015).	-12.4402
▁Advance	-12.4402
▁Botswana	-12.4404
▁Firefox	-12.4404
▁Gorbachev	-12.4404
▁Lợn	-12.4404
▁McDonald	-12.4404
▁Mitsubishi	-12.4404
▁Rodríguez	-12.4404
▁Technology	-12.4404
▁insulin	-12.4404
▁laptop	-12.4404
▁Fighter	-12.4404
▁Gloria	-12.4404
▁vừa	-12.4404
▁Oricon	-12.4404
▁kiều	-12.4404
▁Lumpur	-12.4404
▁Southern	-12.4404
▁Đạt	-12.4404
▁Ridge	-12.4404
▁Panzer	-12.4404
▁tiếng	-12.4405
▁Bưu	-12.4405
▁Too	-12.4406
▁Productions	-12.4409
▁NSA	-12.4411
▁Mira	-12.4412
ạt	-12.4416
▁Winter	-12.4418
bun	-12.4418
ỗi	-12.4419
▁sợ	-12.4424
gl	-12.4425
▁Sto	-12.4425
▁biến	-12.4427
▁Dom	-12.4428
▁Jill	-12.443
thay	-12.4435
reg	-12.444
▁Paz	-12.444
rain	-12.444
▁Truyệ	-12.4451
▁Tito	-12.4456
250	-12.4457
▁trơ	-12.4462
ành	-12.4464
RO	-12.4465
orum	-12.4468
hin	-12.4471
▁Dale	-12.4471
thì	-12.4477
Hung	-12.448
Tu	-12.4482
▁ac	-12.4482
▁Rich	-12.4483
▁(2)	-12.4484
▁Wor	-12.4484
▁Belle	-12.4485
rich	-12.449
▁Tree	-12.4492
▁240	-12.4492
▁Kr	-12.4493
▁$1	-12.4496
▁Note	-12.4497
▁Py	-12.4499
▁TB	-12.4505
▁xú	-12.4506
▁(26	-12.4507
▁won	-12.4509
ente	-12.4515
aut	-12.4515
▁1.8	-12.4518
Ni	-12.4518
▁Rhode	-12.4518
▁lồi	-12.4523
#7891;	-12.4525
▁Chechnya	-12.4526
▁Constantinople	-12.4526
▁Nhảy	-12.4526
▁Ajax	-12.4526
▁điện	-12.4526
▁Maggie	-12.4526
▁Liberty	-12.4526
present	-12.4526
▁Fiona	-12.4526
▁Vinci	-12.4526
▁Foster	-12.4526
▁Thừa	-12.4526
▁thiếc	-12.4526
▁Jamie	-12.4527
▁elip	-12.4527
▁Truman	-12.4527
▁Celtic	-12.4528
▁Field	-12.4529
▁Leonardo	-12.4529
lau	-12.4531
▁Carmen	-12.4532
En	-12.4532
▁Vượ	-12.4533
issa	-12.4539
▁Porto	-12.454
▁Horse	-12.4548
▁gả	-12.4549
▁phết	-12.455
▁1600	-12.4551
▁ló	-12.4551
GE	-12.4554
▁Syn	-12.4556
LP	-12.456
▁1922.	-12.4564
▁Isa	-12.4565
▁nhẹn	-12.4565
▁Cốt	-12.4566
rang	-12.4566
▁cacbonat	-12.4574
▁xua	-12.4574
▁Cord	-12.4575
▁Metal	-12.4581
▁Joo	-12.4581
ạo	-12.4585
tive	-12.4585
▁MA	-12.4586
anti	-12.4588
▁750	-12.4589
ła	-12.459
spor	-12.4592
osis	-12.4593
▁Lamb	-12.4594
tình	-12.4598
tiền	-12.4599
cast	-12.4602
▁Core	-12.461
▁RAM	-12.4613
nova	-12.4617
gger	-12.4621
▁lả	-12.4629
INN	-12.463
tham	-12.4632
▁AK	-12.4632
ối	-12.4636
▁Roberts	-12.4643
jar	-12.4646
oa	-12.4647
▁Spi	-12.4648
▁Canberra	-12.4649
▁Felipe	-12.4649
▁Holocaust	-12.4649
▁López	-12.4649
▁xốp	-12.4649
▁MacArthur	-12.4649
▁Lisbon	-12.4649
▁Abdullah	-12.4649
▁(1999)	-12.4649
▁Ahmad	-12.4649
▁Idaho	-12.4649
▁Hiroshima	-12.465
uy	-12.465
▁XVII	-12.465
▁gật	-12.465
▁Aragon	-12.465
▁Kiệt	-12.4651
▁vắt	-12.4651
enne	-12.4653
▁Sullivan	-12.4654
Tự	-12.4656
▁Holland	-12.4656
isse	-12.4657
ãn	-12.4658
▁vảy	-12.4663
▁Marina	-12.4664
dha	-12.4664
tori	-12.4669
▁Kingston	-12.467
▁Systems	-12.467
fra	-12.4673
zone	-12.4677
alia	-12.4678
▁Rep	-12.468
raz	-12.4681
▁Klein	-12.4684
erman	-12.4686
IT	-12.4688
▁Octavian	-12.4689
lig	-12.469
ống	-12.4692
▁1992)	-12.4693
Car	-12.4693
py	-12.4694
▁Side	-12.4697
▁8.000	-12.4699
iel	-12.4699
▁Falls	-12.47
▁Earl	-12.4705
▁1948.	-12.4705
▁Saka	-12.471
▁Gus	-12.4711
mid	-12.4712
▁Dominican	-12.4715
cat	-12.4722
▁oan	-12.4722
▁nga	-12.4724
pra	-12.4725
dân	-12.4728
▁Nat	-12.4729
pec	-12.473
▁1897	-12.4733
▁bốt	-12.4739
uth	-12.4739
▁hòng	-12.4747
ingen	-12.4749
sca	-12.4751
▁Amber	-12.4751
▁Prime	-12.4753
ander	-12.4756
▁1954.	-12.4758
cos	-12.4763
nas	-12.4764
▁ab	-12.4766
▁Ani	-12.477
Phi	-12.4771
▁Lĩnh	-12.4774
▁Pixar	-12.4774
▁Sicily	-12.4774
▁lõm	-12.4774
▁Nobunaga	-12.4774
▁Winchester	-12.4774
▁Đoán	-12.4774
▁Today	-12.4775
▁rán	-12.4775
▁niệu	-12.4775
▁Arrow	-12.4775
▁Toyota	-12.4775
▁Điền	-12.4776
▁Lửa	-12.4776
▁Edge	-12.4778
▁Nicole	-12.4778
▁Patricia	-12.4778
sman	-12.4779
uka	-12.4779
▁Arc	-12.4782
▁Giêng	-12.4782
hol	-12.4783
▁Brand	-12.4783
ère	-12.4784
▁Under	-12.4786
dro	-12.4787
▁Koch	-12.4788
▁SBS	-12.4789
▁Truk	-12.479
▁điểu	-12.479
▁Asian	-12.4791
rō	-12.4793
▁1849	-12.4793
▁1812	-12.4794
▁au	-12.4798
▁fe	-12.48
▁1994)	-12.4803
▁115	-12.4803
▁Ple	-12.4804
amino	-12.4805
▁Thang	-12.4805
cco	-12.4805
▁Nur	-12.4806
stor	-12.4807
▁Roth	-12.481
Ju	-12.481
▁Nash	-12.4812
▁1981.	-12.4814
▁Gang	-12.4819
▁Cry	-12.4824
fur	-12.4824
Nu	-12.4832
▁obi	-12.484
IR	-12.484
▁AP	-12.4842
orn	-12.4843
num	-12.4843
water	-12.4847
▁cỏi	-12.4847
▁Kawa	-12.4848
▁Our	-12.4849
Ôi	-12.4851
▁Mind	-12.4851
▁Tí	-12.4852
▁Vic	-12.4856
đang	-12.4858
▁12%	-12.4858
8.000	-12.4865
▁Kem	-12.4873
▁5:	-12.4873
nhân	-12.4875
vil	-12.488
ics	-12.4884
▁Sher	-12.4887
▁1875	-12.489
▁Legend	-12.4891
▁Color	-12.4891
▁Bun	-12.4893
Ki	-12.4896
▁par	-12.4897
tō	-12.4899
▁Đả	-12.49
▁Eniwetok	-12.4901
▁Jeremy	-12.4901
▁Palermo	-12.4901
▁Wyatt	-12.4901
▁chuyển	-12.4901
▁Caracas	-12.4901
▁Nagasaki	-12.4901
▁Viktor	-12.4901
▁Duncan	-12.4901
▁biệt	-12.4901
▁Constantinus	-12.4901
▁Bradley	-12.4901
▁Kabul	-12.4901
▁tuyệt	-12.4901
▁Xếp	-12.4902
▁lừng	-12.4902
▁Lucius	-12.4902
▁Sharon	-12.4902
▁Brody	-12.4903
▁Xong	-12.4904
ảm	-12.4905
tius	-12.4905
▁bạt	-12.4907
▁79	-12.491
▁mắng	-12.4911
dz	-12.4911
ista	-12.4913
▁Trust	-12.4919
BS	-12.4919
▁tế	-12.4923
vid	-12.4931
▁Hon	-12.4933
enburg	-12.4934
▁Plant	-12.4934
gol	-12.4937
▁Adele	-12.4937
▁UN	-12.4942
kr	-12.4954
bul	-12.4955
lê	-12.496
bet	-12.4965
▁Scho	-12.497
cap	-12.4971
▁CE	-12.4973
por	-12.4974
ucci	-12.4974
▁Part	-12.4974
sit	-12.4975
▁have	-12.4975
mori	-12.4975
▁1.6	-12.4978
Ở	-12.4978
quận	-12.4978
▁Cáp	-12.4978
đây	-12.4979
▁toan	-12.4981
AA	-12.4983
▁Phan	-12.4984
Pi	-12.4985
iza	-12.4988
▁4.0	-12.4988
Or	-12.4989
zzi	-12.4989
DC	-12.4994
▁Bear	-12.4999
▁Tal	-12.5
▁Eli	-12.5
▁Cas	-12.5003
mô	-12.5014
▁Hả	-12.5018
lands	-12.5022
1–	-12.5023
▁giữ	-12.5023
▁Mara	-12.5024
▁Six	-12.5025
▁Nara	-12.5026
▁kế	-12.5026
▁Yama	-12.5027
Gu	-12.5027
▁Crystal	-12.5029
▁StarCraft	-12.5029
▁xắn	-12.5029
▁Krym	-12.5029
▁kiếm	-12.5029
▁Stadium	-12.5029
▁amoniac	-12.5029
▁Falkland	-12.503
▁Judy	-12.503
▁Grayson	-12.503
▁Merlin	-12.503
▁Nhiên	-12.503
▁Honda	-12.503
▁mọt	-12.503
▁Evil	-12.503
▁Horus	-12.5032
▁múi	-12.5032
▁Yorktown	-12.5033
▁cỡi	-12.5034
đa	-12.5035
▁Jedi	-12.5035
▁Superman	-12.5036
▁chằng	-12.5039
▁Bowl	-12.5044
▁we	-12.5044
▁Beau	-12.5046
▁Cương	-12.5048
▁1881	-12.5049
▁Prima	-12.5052
pus	-12.5055
▁Liber	-12.5057
▁PH	-12.5058
▁Korean	-12.5059
lian	-12.506
▁lư	-12.5066
fish	-12.5068
rica	-12.507
lap	-12.5071
ative	-12.5073
▁Vas	-12.5075
mia	-12.5077
▁Touch	-12.5079
▁Hun	-12.5081
▁Hen	-12.5085
kara	-12.509
▁àh	-12.5094
med	-12.5104
▁Cou	-12.5108
Mọi	-12.5108
Thái	-12.5108
gọi	-12.5108
Ả	-12.5108
giống	-12.5109
trái	-12.511
ters	-12.5112
oxit	-12.5112
sam	-12.5113
▁Linkin	-12.5114
stad	-12.5115
mil	-12.5115
NP	-12.5119
7)	-12.5122
pul	-12.5122
▁este	-12.5124
ates	-12.5128
ũ	-12.5131
its	-12.5133
oko	-12.5138
GS	-12.514
▁rủ	-12.5144
▁ngừ	-12.5145
▁Dra	-12.5147
NET	-12.5147
▁1990)	-12.5151
OL	-12.5151
▁dự	-12.5152
kho	-12.5154
virus	-12.5157
▁Cornwall	-12.5158
▁plutoni	-12.5158
▁Caledonia	-12.5159
▁Hopkins	-12.5159
▁Metropolitan	-12.5159
▁Mithridates	-12.5159
▁Scipio	-12.5159
▁gặt	-12.5159
▁lipid	-12.5159
▁rặng	-12.5159
▁Software	-12.5159
▁toilet	-12.5159
▁Jeffrey	-12.5159
▁tennis	-12.5159
▁Ferguson	-12.5159
▁(2016)	-12.5159
▁Church	-12.5159
▁Nhỏ	-12.5159
▁diễn	-12.5159
▁đuốc	-12.5159
▁Esther	-12.5159
▁đúp	-12.5159
▁Guyana	-12.5159
▁Đọc	-12.516
▁Tyson	-12.516
▁Mưa	-12.516
On	-12.516
▁mẫn	-12.5161
▁tý	-12.5165
▁lút	-12.5165
▁Rashid	-12.5166
▁JC	-12.5166
▁Anatolia	-12.5168
pyr	-12.5168
▁Nike	-12.5169
▁franc	-12.517
▁Mod	-12.5172
▁Gerald	-12.5173
bou	-12.5174
IM	-12.5177
▁los	-12.5178
oph	-12.5178
ém	-12.5181
▁ăng	-12.5181
▁cor	-12.5181
flu	-12.5185
ili	-12.5187
rí	-12.5188
yle	-12.5188
▁Jar	-12.5188
▁Thr	-12.5188
board	-12.5191
▁Moto	-12.5198
FS	-12.5203
▁Casa	-12.5208
▁Village	-12.5208
▁0,5	-12.5208
▁1986)	-12.521
ement	-12.5212
▁106	-12.5216
▁1877	-12.5219
hae	-12.5221
▁Penh	-12.523
▁Chủng	-12.5234
▁ầm	-12.5238
▁Quán	-12.5238
▁Phẫ	-12.5238
đơn	-12.5239
▁Jen	-12.5241
▁cuống	-12.5242
dd	-12.5244
▁Sou	-12.5245
▁Gill	-12.5253
▁vế	-12.5258
ạnh	-12.5259
gli	-12.5268
▁Capital	-12.5269
iss	-12.5269
▁CT	-12.527
tani	-12.5271
▁rub	-12.5272
sao	-12.5274
▁Let	-12.5276
▁mon	-12.5281
ặc	-12.5285
▁Kami	-12.5287
▁Beat	-12.5288
▁Short	-12.5288
▁Ayutthaya	-12.529
▁Herschel	-12.529
▁Mindanao	-12.529
▁Sofia	-12.529
▁Wyoming	-12.529
▁nghẹt	-12.529
▁Bourbon	-12.529
▁Genova	-12.5291
▁(2002)	-12.5291
▁1978.	-12.5291
▁phiệt	-12.5291
▁đất	-12.5291
▁León	-12.5292
▁mủ	-12.5292
▁1952.	-12.5292
▁Burton	-12.5293
▁Lăng	-12.5293
▁Idol	-12.5294
▁sử	-12.5295
hoát	-12.5296
elia	-12.5297
▁Lau	-12.5298
▁Basel	-12.5298
bah	-12.5301
▁florua	-12.5302
▁Sắc	-12.5302
LE	-12.5304
▁khờ	-12.5305
▁Marta	-12.5306
▁Bari	-12.5306
▁Sandy	-12.5308
р	-12.531
cas	-12.5312
▁reo	-12.5313
▁Pil	-12.5315
▁Proc	-12.5329
▁Indian	-12.533
-27	-12.5335
▁Kyo	-12.534
ware	-12.5341
NR	-12.5351
HA	-12.5351
▁Mama	-12.5353
tinh	-12.5363
▁Iz	-12.5363
rch	-12.5369
▁hot	-12.5369
aris	-12.5371
mond	-12.5371
Mình	-12.5373
▁Pam	-12.5373
phía	-12.5374
▁Marino	-12.5374
sburg	-12.5374
máy	-12.5375
ango	-12.5376
bắt	-12.5377
▁Rie	-12.5377
▁Tab	-12.5378
▁your	-12.5379
▁CR	-12.5384
▁đái	-12.5385
▁Denis	-12.5385
▁2005)	-12.5389
▁văng	-12.5389
pos	-12.539
▁IL	-12.5394
▁2006)	-12.5394
▁Alberto	-12.5395
▁Augusta	-12.5402
zai	-12.5405
▁Ox	-12.5407
arra	-12.5408
▁Yes	-12.5412
▁Gol	-12.5416
ozo	-12.5416
▁Modern	-12.5417
zza	-12.5419
▁Kaiser	-12.5423
▁Soccer	-12.5424
▁Dhabi	-12.5424
▁Ibrahim	-12.5424
▁Nagoya	-12.5424
▁Nippon	-12.5424
▁Versailles	-12.5424
▁iPod	-12.5424
▁nấng	-12.5424
▁telenovela	-12.5424
▁Dawn	-12.5424
▁Sheikh	-12.5424
▁tweet	-12.5424
▁hiđrô	-12.5424
▁Philippos	-12.5424
▁Pearl	-12.5424
▁Hiển	-12.5424
▁thâu	-12.5425
▁Đăng	-12.5425
▁Mỏ	-12.5427
▁Sergei	-12.5427
▁1857	-12.5428
▁bazơ	-12.5428
quá	-12.543
▁Falcon	-12.5431
yoshi	-12.5437
GB	-12.5437
▁Cấm	-12.5438
abad	-12.5438
▁hen	-12.5438
onic	-12.5443
hua	-12.5444
anus	-12.5446
▁Wide	-12.5446
▁trát	-12.5447
▁es	-12.5448
lei	-12.5452
danh	-12.5454
▁Reese	-12.5455
SH	-12.5458
owa	-12.546
ilia	-12.5463
▁(31	-12.5465
▁Mol	-12.5468
▁Boo	-12.5471
▁off	-12.5472
sley	-12.5472
▁Kle	-12.5472
rite	-12.5474
iwa	-12.5475
xy	-12.5475
fen	-12.5475
▁Sm	-12.5479
▁Mora	-12.548
▁HCM	-12.5481
ần	-12.5485
▁hòm	-12.5487
▁Sche	-12.5488
▁light	-12.5488
ệ	-12.5489
zawa	-12.549
▁1983.	-12.549
▁úp	-12.5492
Ti	-12.5492
soo	-12.5492
▁IF	-12.5493
ẽ	-12.5499
▁CF	-12.55
▁135	-12.5501
▁1995)	-12.5503
▁2).	-12.5507
ando	-12.5508
việc	-12.5508
Pháp	-12.5508
▁Rh	-12.5512
Po	-12.5513
nami	-12.5517
IL	-12.5518
giải	-12.552
▁Alba	-12.5527
▁Bul	-12.5529
▁Math	-12.5531
▁Court	-12.5532
▁1,8	-12.5532
▁1989)	-12.5536
▁ngơ	-12.5539
▁bịp	-12.5542
-84	-12.5543
maru	-12.5544
▁Kil	-12.5545
▁Penn	-12.5546
trop	-12.5547
anza	-12.5547
▁Tō	-12.5552
rem	-12.5555
▁nhẽ	-12.5556
khe	-12.5556
–17	-12.5559
▁Bundesliga	-12.5559
▁Leipzig	-12.5559
▁Senegal	-12.5559
▁vaccine	-12.5559
▁vằn	-12.5559
▁Pérez	-12.5559
▁Future	-12.5559
▁Airbus	-12.5559
▁Darcy	-12.5559
▁Fritz	-12.556
▁nực	-12.556
▁Luang	-12.556
▁Starling	-12.556
▁Centre	-12.5561
▁Bom	-12.5561
▁Rothschild	-12.5561
▁Lopez	-12.5563
▁1853	-12.5563
▁Youth	-12.5565
ến	-12.5569
▁Vega	-12.5569
▁rót	-12.557
▁Urban	-12.5571
▁Know	-12.5571
▁Cắt	-12.5574
▁Bonnie	-12.5574
▁mod	-12.5575
▁Cường	-12.5577
né	-12.5578
▁Indi	-12.5581
ids	-12.5581
▁Gam	-12.5584
ally	-12.5591
Can	-12.5593
qi	-12.5594
etz	-12.5595
anto	-12.5596
▁Powell	-12.5597
fr	-12.5601
▁Herm	-12.5604
▁dance	-12.5604
abi	-12.5605
▁Tatar	-12.5606
▁thớ	-12.5607
▁Human	-12.5608
▁Pitt	-12.5611
slav	-12.5611
▁Que	-12.5623
ẹp	-12.5628
iff	-12.5628
ovsky	-12.5629
▁bít	-12.563
đéo	-12.5631
▁Bog	-12.5635
ible	-12.5638
Bố	-12.5639
▁Dion	-12.5639
kata	-12.5642
LS	-12.5644
▁vũng	-12.5654
rai	-12.5656
▁Quái	-12.5658
vet	-12.5659
▁Sem	-12.566
uki	-12.5662
▁Pont	-12.5663
▁bạ	-12.5665
One	-12.5665
yeong	-12.5666
▁Cox	-12.5667
▁gal	-12.5667
ques	-12.5668
▁Kant	-12.5672
LM	-12.5677
ming	-12.5679
tây	-12.5681
▁Spring	-12.5684
▁Mountain	-12.5686
▁Curtis	-12.5686
▁hop	-12.5686
▁Born	-12.5687
human	-12.569
▁Ava	-12.5691
ậm	-12.5693
hất	-12.5693
▁Lệ	-12.5695
▁Nhị	-12.5695
#7855;	-12.5696
▁Barbados	-12.5696
▁Marseille	-12.5696
▁Paralympic	-12.5696
▁heroin	-12.5696
▁Geoffrey	-12.5696
▁Kre	-12.5696
▁Television	-12.5696
▁Hyundai	-12.5696
▁McCain	-12.5696
▁Prague	-12.5696
▁Edison	-12.5696
▁Giờ	-12.5696
▁sủng	-12.5696
▁Kia	-12.5696
▁Denver	-12.5697
▁Drew	-12.5697
▁tập	-12.5697
usa	-12.5697
▁băm	-12.5697
▁Ngữ	-12.5697
▁Public	-12.5697
▁miệt	-12.5697
▁Gdańsk	-12.5698
uge	-12.5699
▁this	-12.5699
▁Medina	-12.57
▁Carson	-12.57
▁Kata	-12.57
^{2}	-12.57
▁vồng	-12.57
▁vạt	-12.5701
▁127	-12.5701
▁penicillin	-12.5701
▁Ném	-12.5701
▁Kro	-12.5703
▁After	-12.5704
▁chừ	-12.5705
▁2.500	-12.5707
▁Ural	-12.571
▁Plata	-12.5712
▁Lạt	-12.5713
khá	-12.5713
gno	-12.5714
▁pô	-12.5716
▁Marcos	-12.5718
▁Nao	-12.5718
▁Tonga	-12.572
▁AIR	-12.5724
▁Nay	-12.5724
▁Lara	-12.5729
▁tủa	-12.5732
▁Kun	-12.5734
▁Gaon	-12.5735
▁7.000	-12.5739
▁Plus	-12.5739
thủ	-12.574
ủ	-12.5741
tun	-12.5741
▁Def	-12.5743
▁Dag	-12.5744
▁vol	-12.5747
▁Nice	-12.5748
vol	-12.5753
▁lim	-12.5754
ender	-12.5756
▁Lauren	-12.577
Bản	-12.577
▁hp	-12.5771
▁Phóng	-12.5775
under	-12.5784
phiên	-12.5785
▁Player	-12.5793
▁chè	-12.5793
▁Solo	-12.5795
^	-12.5795
▁Vis	-12.5798
tập	-12.5803
bên	-12.5806
▁Roads	-12.5807
▁độ	-12.5814
▁Gas	-12.5815
▁Fall	-12.5816
see	-12.582
▁Inca	-12.5822
Hi	-12.5824
kiyo	-12.5826
▁sam	-12.5827
▁Mùi	-12.5829
▁tui	-12.5831
▁Pay	-12.5833
▁Levi	-12.5833
▁Aberdeen	-12.5835
▁Casablanca	-12.5835
▁Century	-12.5835
▁Jakarta	-12.5835
▁Mozilla	-12.5835
▁Olivia	-12.5835
▁Samurai	-12.5835
▁Shadow	-12.5835
▁Youtube	-12.5835
▁Colombo	-12.5835
▁Britain	-12.5835
▁Ebola	-12.5835
▁Phạn	-12.5835
▁Nhện	-12.5835
▁Sentai	-12.5835
▁slide	-12.5835
▁Control	-12.5835
▁thần	-12.5835
▁gần	-12.5835
▁Gioan	-12.5835
▁Joker	-12.5836
▁sấy	-12.5837
▁Vẻ	-12.5838
▁Mission	-12.5838
▁Hard	-12.5838
emon	-12.5839
▁Casey	-12.5839
▁sỏi	-12.5839
▁Poli	-12.584
▁tho	-12.584
▁1845	-12.584
▁Weber	-12.5841
▁Andr	-12.5841
▁Sat	-12.5841
▁Daegu	-12.5841
▁Bos	-12.5844
▁Obi	-12.5845
rant	-12.5845
▁Look	-12.5847
▁Roland	-12.5848
ghi	-12.5848
▁Harper	-12.5849
▁Sweet	-12.5852
▁Stars	-12.5854
▁Andreas	-12.5854
▁12.000	-12.5856
▁150.000	-12.5857
▁Pope	-12.5863
hard	-12.5863
▁què	-12.5866
cet	-12.5867
▁Tết	-12.5868
▁Sap	-12.5869
▁Pala	-12.587
dt	-12.5871
▁Kafr	-12.5871
▁Spa	-12.5877
his	-12.5879
▁3-	-12.5881
▁byte	-12.5881
aro	-12.5881
▁fi	-12.5883
vat	-12.5883
rion	-12.5892
▁new	-12.5893
ogo	-12.5893
▁Kiss	-12.5894
▁Saul	-12.5901
oy	-12.5902
cel	-12.5903
▁Brit	-12.5907
obi	-12.5908
▁RA	-12.591
-1,	-12.5912
agh	-12.5914
bara	-12.5915
2+	-12.5916
học	-12.5917
▁Kurt	-12.5917
▁ghề	-12.5918
PG	-12.592
mur	-12.592
odor	-12.5925
Chính	-12.5925
-52	-12.5925
vị	-12.5926
▁Sport	-12.5932
dent	-12.5932
.900	-12.5932
▁Rub	-12.5933
rell	-12.5937
uan	-12.5938
▁GB	-12.5938
nier	-12.5938
yeon	-12.5945
DB	-12.5952
▁Bề	-12.5957
▁Alma	-12.5957
▁Here	-12.5957
ór	-12.5961
▁1700	-12.5961
▁Serb	-12.5964
▁Basil	-12.5967
lom	-12.5969
▁nữ	-12.5969
say	-12.5972
ếp	-12.5972
9.000	-12.5973
▁engine	-12.5974
rier	-12.5974
▁Belfast	-12.5976
▁Rabaul	-12.5976
▁Rudolf	-12.5976
▁Stanisław	-12.5976
▁Szczecin	-12.5976
▁tượng	-12.5976
▁Senior	-12.5976
–0	-12.5976
▁Makerere	-12.5976
▁tuabin	-12.5976
▁nghếch	-12.5976
▁Atlas	-12.5976
▁Đẹp	-12.5976
▁Hanover	-12.5976
▁400.000	-12.5976
▁dượng	-12.5976
▁luộc	-12.5976
▁chôm	-12.5976
–15	-12.5977
▁mứt	-12.5977
▁Venus	-12.5977
▁Sammy	-12.5978
▁Zoom	-12.5978
▁xuẩn	-12.5978
▁ráng	-12.5978
▁dốt	-12.5979
▁nu	-12.598
▁Need	-12.5981
mail	-12.5981
giá	-12.5982
▁Hughes	-12.5982
▁Kyle	-12.5983
▁rạng	-12.5983
▁fa	-12.5983
▁1,1	-12.5986
MO	-12.599
▁Swa	-12.599
▁Hammer	-12.5992
kal	-12.5993
sse	-12.5998
▁kíp	-12.6003
TU	-12.6005
▁xát	-12.6005
▁Yun	-12.6008
▁Fat	-12.6009
▁Storm	-12.6009
rá	-12.6012
lab	-12.6014
▁nhịn	-12.6017
▁nhớt	-12.6019
ự	-12.6022
▁Ek	-12.6023
▁Markov	-12.6024
▁2004)	-12.6029
▁mướn	-12.6029
ako	-12.603
▁nhũ	-12.603
▁9:	-12.6031
▁List	-12.6036
▁Hale	-12.6037
rag	-12.6037
▁1993)	-12.6046
kos	-12.6049
▁Ring	-12.605
▁Luci	-12.6052
▁Dre	-12.6052
▁Aba	-12.6053
▁Terra	-12.6055
▁IQ	-12.6057
tions	-12.6058
▁Rossi	-12.6059
▁Hydra	-12.606
game	-12.6061
aru	-12.6061
RC	-12.6065
MT	-12.6067
vỗ	-12.6069
▁Dana	-12.607
▁Break	-12.607
òng	-12.607
▁8.1	-12.6071
▁Geo	-12.6073
masa	-12.6073
AI	-12.6075
ony	-12.6076
▁Bow	-12.6083
▁Steel	-12.6087
▁Fry	-12.6089
▁(50	-12.6091
▁230	-12.6093
▁Rip	-12.6094
▁mol	-12.6096
▁son	-12.6098
▁SV	-12.6099
▁gam	-12.6099
PT	-12.61
▁Olympia	-12.6101
nước	-12.6106
▁Hit	-12.6106
ilo	-12.6107
Nữ	-12.6107
▁Service	-12.6108
▁tớ	-12.611
är	-12.6113
▁suôn	-12.6117
▁Eritrea	-12.6118
▁Espirit	-12.6118
▁Juventus	-12.6118
▁MHz	-12.6118
▁Monroe	-12.6118
▁Mueang	-12.6118
▁Ricardo	-12.6118
▁đứa	-12.6118
▁Debbie	-12.6118
▁Merlyn	-12.6119
▁Catalan	-12.6119
▁Buddy	-12.6119
▁dép	-12.6119
▁Hector	-12.6119
▁Chuột	-12.6119
▁lực	-12.612
▁Elias	-12.612
mét	-12.6122
▁Sylvia	-12.6123
▁vít	-12.6124
▁Penny	-12.6124
▁Twice	-12.6126
▁Mác	-12.6126
sberg	-12.6128
▁Ià	-12.6128
▁Bennett	-12.6128
▁Ever	-12.6128
ops	-12.613
▁Machine	-12.6132
▁Pers	-12.6133
▁Togo	-12.6135
▁2030	-12.6136
ult	-12.6136
▁Ras	-12.6136
lade	-12.6138
ovo	-12.6139
▁gra	-12.614
▁Rogers	-12.614
shan	-12.6141
▁60.000	-12.6141
▁máng	-12.6143
▁Rider	-12.6143
hỏng	-12.6144
▁Mother	-12.6148
▁Baku	-12.6151
dell	-12.6155
OD	-12.6157
▁Teen	-12.6158
▁Code	-12.6158
rm	-12.6161
0.000	-12.6162
ẩn	-12.6163
2,5	-12.6166
thal	-12.6172
▁Kap	-12.6173
▁Corse	-12.6173
MR	-12.6174
▁Mona	-12.6179
▁sha	-12.6181
osi	-12.6181
gata	-12.6183
tak	-12.6185
▁Friends	-12.6185
▁2,4	-12.6186
▁Ace	-12.6189
▁Og	-12.6196
atta	-12.6198
▁Kill	-12.6198
▁Jer	-12.6201
▁Off	-12.6202
▁Sharp	-12.6203
▁cún	-12.6204
▁môt	-12.621
Bệnh	-12.6212
mọi	-12.6213
▁tuý	-12.6213
▁Mam	-12.6213
Đông	-12.6214
mẹ	-12.6216
thật	-12.6217
stadt	-12.6217
▁Gri	-12.6218
illy	-12.6219
▁Kot	-12.622
play	-12.6221
▁Ura	-12.6224
▁Deir	-12.6225
LL	-12.6225
▁Rho	-12.6226
▁(190	-12.6227
iều	-12.6227
▁Vạn	-12.6229
▁Sz	-12.623
hill	-12.6232
-31	-12.6232
▁uý	-12.6234
▁Bã	-12.6239
▁Euclid	-12.6239
_{1}	-12.624
▁From	-12.624
▁láo	-12.624
▁Twin	-12.6241
8)	-12.6242
iaceae	-12.6251
▁Spin	-12.6252
▁NT	-12.6252
▁Wind	-12.6255
▁Pomerania	-12.6255
▁Tù	-12.6258
▁1997)	-12.626
-80	-12.6263
bes	-12.6263
▁Leicester	-12.6263
▁Bogotá	-12.6263
▁Mozart	-12.6263
▁Nexus	-12.6263
▁Portsmouth	-12.6263
▁Satsuma	-12.6263
▁Suharto	-12.6263
▁Klaus	-12.6263
▁Malacca	-12.6263
▁chệch	-12.6263
▁Miranda	-12.6264
▁Allison	-12.6264
▁Nhóc	-12.6264
▁dopamine	-12.6264
▁Fidel	-12.6264
▁Tracy	-12.6264
▁Sonny	-12.6264
▁tỵ	-12.6264
▁Bolton	-12.6264
▁khét	-12.6265
▁Gaulle	-12.6265
▁Abby	-12.6266
▁Cisco	-12.6266
▁Christine	-12.6266
▁Fuku	-12.6267
▁lóc	-12.6269
▁Price	-12.6269
▁tử	-12.627
ọa	-12.627
▁Fed	-12.6272
▁yến	-12.6272
▁1814	-12.6273
▁iso	-12.6273
▁CP	-12.6275
▁EM	-12.6278
▁35%	-12.6278
ization	-12.6278
▁thêu	-12.6279
rika	-12.6281
▁hùm	-12.6282
▁Books	-12.6282
▁Mes	-12.6286
▁Poe	-12.6288
▁AV	-12.6288
▁Seconda	-12.629
enta	-12.6291
▁Vita	-12.6293
▁Eye	-12.6294
▁Rhodesia	-12.6294
ịch	-12.6296
▁Milo	-12.6296
▁acetyl	-12.6297
▁CDC	-12.6297
▁Fish	-12.6298
▁Aya	-12.6299
▁thuở	-12.6299
▁Aleksandr	-12.6299
1,5	-12.63
tura	-12.6306
▁1855	-12.6309
▁ke	-12.6309
ẹo	-12.6313
▁Brun	-12.6317
Nh	-12.6317
Du	-12.6318
▁Án	-12.6319
ondo	-12.6326
hạ	-12.6327
▁Thorn	-12.6329
▁Hero	-12.6332
▁Vera	-12.6335
▁Novo	-12.6336
ấy	-12.6338
ifolia	-12.6341
fre	-12.6343
-36	-12.6348
ợi	-12.6349
Ri	-12.6352
▁quáng	-12.6353
▁und	-12.6354
ès	-12.6354
▁2017).	-12.636
tổng	-12.6364
▁Vy	-12.6365
liên	-12.6367
arian	-12.6367
CT	-12.6373
ross	-12.6378
▁Cl	-12.638
▁DH	-12.6381
Net	-12.6383
▁103	-12.6383
istan	-12.6383
ardo	-12.6388
tern	-12.6388
▁Rush	-12.6389
ches	-12.6391
aud	-12.6392
PF	-12.6393
-60	-12.6393
▁Pic	-12.6393
▁Nishi	-12.6395
hana	-12.6397
mei	-12.6398
▁Report	-12.64
001	-12.6406
▁Giuseppe	-12.641
▁Hepburn	-12.641
▁Hispania	-12.641
▁Interactive	-12.641
▁marathon	-12.641
▁Eagle	-12.641
▁Profile	-12.6411
▁Genesis	-12.6411
SL	-12.6411
▁hoặc	-12.6411
▁trượng	-12.6411
▁#273;#226;	-12.6411
▁copy	-12.6411
▁108	-12.6411
▁Bronx	-12.6411
▁Nikita	-12.6411
▁Pepper	-12.6411
▁Wasp	-12.6412
▁rương	-12.6413
omb	-12.6413
▁HTC	-12.6413
cca	-12.6414
▁giở	-12.6415
▁lìa	-12.6415
pic	-12.6416
▁Special	-12.6416
▁Flow	-12.6417
▁loét	-12.6417
▁Thảm	-12.6418
▁mốt	-12.6418
▁Mina	-12.6418
PM	-12.6418
oria	-12.6418
▁rên	-12.6418
▁85%	-12.642
▁1851	-12.642
▁Elle	-12.642
▁Jeanne	-12.6422
▁Lotte	-12.6424
▁Fel	-12.6425
▁nhử	-12.6427
oidea	-12.6427
MM	-12.6428
▁Drive	-12.6428
▁1980)	-12.6433
vision	-12.6434
rl	-12.6435
▁dí	-12.6435
rap	-12.6435
▁Fre	-12.6437
▁chứng	-12.6439
hoàn	-12.644
▁Kri	-12.644
hiro	-12.6441
pr	-12.6446
▁Sibu	-12.6447
▁one	-12.6448
etto	-12.6448
▁Gö	-12.645
nell	-12.645
NT	-12.645
▁bon	-12.6452
cis	-12.6455
eke	-12.6457
ridge	-12.6459
▁Aero	-12.6461
lich	-12.6461
kyo	-12.6462
▁Ahn	-12.6462
▁violin	-12.6463
▁Sav	-12.6463
▁xù	-12.6465
sung	-12.6466
lica	-12.6466
▁giòn	-12.6467
Har	-12.6468
▁747	-12.647
-35	-12.6472
▁Novell	-12.6474
▁Tem	-12.6474
phim	-12.6475
▁Gai	-12.6476
rva	-12.6477
▁Andrews	-12.6477
him	-12.648
ép	-12.648
▁Phillip	-12.6482
▁Kush	-12.6482
oxa	-12.6483
▁KV	-12.6483
read	-12.6484
▁Hana	-12.6493
▁Sv	-12.6496
▁Hydro	-12.6496
▁Lor	-12.6497
aye	-12.6497
▁1996)	-12.6498
▁gel	-12.65
▁Baron	-12.6501
dre	-12.6504
sdale	-12.6505
▁tỏi	-12.6505
world	-12.6508
What	-12.6509
tol	-12.651
cao	-12.651
ssel	-12.6512
DO	-12.6513
▁Ái	-12.6514
đông	-12.6516
nguyên	-12.652
mol	-12.6523
lou	-12.6526
bell	-12.6528
urus	-12.6529
▁Wer	-12.6532
▁displaystyle	-12.6533
▁0,1	-12.6537
▁Come	-12.654
tory	-12.6541
-70	-12.6544
▁Challenge	-12.6546
▁han	-12.6546
▁chiế	-12.6551
▁Fro	-12.6552
▁1.4	-12.6555
▁Middle	-12.6559
▁Antigonos	-12.656
▁Baroque	-12.656
▁Development	-12.656
▁Dorothy	-12.656
▁Halifax	-12.656
▁Helsinki	-12.656
▁Khrushchev	-12.656
▁Labrador	-12.656
▁Memphis	-12.656
▁Novgorod	-12.656
▁Pharaoh	-12.656
▁Yeltsin	-12.656
▁thặng	-12.656
▁Salamiyah	-12.656
▁Thrace	-12.656
▁Alexandra	-12.656
▁Diocletianus	-12.656
▁Xuống	-12.656
▁Musashi	-12.656
▁macro	-12.656
▁phật	-12.656
▁Jeju	-12.656
▁rẩy	-12.6561
▁rữa	-12.6561
▁mắt	-12.6561
▁polymer	-12.6561
▁cocaine	-12.6562
▁Dur	-12.6562
▁Morrison	-12.6562
▁Suez	-12.6563
▁titan	-12.6563
▁1937.	-12.6563
▁Kyung	-12.6563
nol	-12.6564
▁Fast	-12.6564
▁Reynolds	-12.6565
All	-12.6566
▁Trịnh	-12.6566
▁Megan	-12.6566
▁Spirit	-12.6566
▁Dây	-12.6568
▁Herald	-12.6569
cie	-12.6569
emi	-12.6571
▁ổn	-12.6571
phil	-12.6572
▁Mail	-12.6573
▁1842	-12.6574
▁cabin	-12.6574
▁Cân	-12.6575
▁1821	-12.6577
tem	-12.6579
▁1832	-12.6579
▁Dub	-12.658
▁asen	-12.6582
▁Want	-12.6583
▁pounds	-12.6584
fort	-12.6586
▁kình	-12.659
▁Guide	-12.6592
tier	-12.6593
lov	-12.6597
CV	-12.6601
▁Khung	-12.6607
nta	-12.6608
sted	-12.6609
▁Mom	-12.6611
▁RF	-12.6612
▁Had	-12.6612
xít	-12.6612
guchi	-12.6614
-51	-12.6619
▁liti	-12.6621
▁bói	-12.6626
SM	-12.6626
▁1953.	-12.6627
cm	-12.6631
▁Pisa	-12.6634
band	-12.6639
DL	-12.6639
para	-12.6639
▁Sab	-12.664
▁poster	-12.664
▁Nature	-12.664
jun	-12.664
▁Starr	-12.6645
▁190	-12.6648
yev	-12.6653
▁lú	-12.6655
MG	-12.6655
▁Saw	-12.6656
roy	-12.6656
IATA	-12.6659
▁MU	-12.666
▁Ib	-12.6661
lúc	-12.6663
chất	-12.6665
▁Pier	-12.6665
shiro	-12.6666
động	-12.6668
OT	-12.6668
▁card	-12.6679
▁XXI	-12.6683
▁Raw	-12.6686
ders	-12.6687
TH	-12.6688
độ	-12.669
▁vò	-12.6691
ction	-12.6693
ướp	-12.6694
▁Led	-12.6694
ức	-12.6696
▁vali	-12.6698
▁por	-12.67
▁biếng	-12.6701
▁Tunis	-12.6702
▁Electronic	-12.6706
ML	-12.6708
▁Stu	-12.6708
▁Said	-12.6709
bha	-12.6709
▁dằn	-12.6709
▁phồn	-12.671
▁polyme	-12.6711
▁xao	-12.6711
▁Ubuntu	-12.6711
▁Zürich	-12.6711
▁Andorra	-12.6711
▁Luftwaffe	-12.6711
▁Gibson	-12.6711
▁Shōnen	-12.6711
▁Scofield	-12.6711
▁Nhãn	-12.6711
▁(1998)	-12.6711
▁dưới	-12.6711
▁Canyon	-12.6711
▁Bravo	-12.6712
▁núm	-12.6712
▁nucleotide	-12.6712
▁Low	-12.6712
▁Cohen	-12.6712
▁Vandal	-12.6712
▁Reuters	-12.6712
▁Palace	-12.6712
▁Tú	-12.6713
▁nỉ	-12.6714
▁sushi	-12.6714
▁chùi	-12.6714
▁Gaius	-12.6714
▁Shiva	-12.6715
▁Kéo	-12.6715
▁1847	-12.6717
▁Lôi	-12.6717
▁mía	-12.6719
▁1818	-12.672
▁1991)	-12.6721
▁Ailen	-12.6722
▁99%	-12.6722
hắt	-12.6723
gara	-12.6725
▁mạt	-12.6725
▁Saxon	-12.6726
▁Chiang	-12.6727
▁music	-12.6727
▁Tuyển	-12.6727
gai	-12.6728
▁Toro	-12.6729
▁quế	-12.6733
▁Russian	-12.6734
▁Tuấn	-12.6735
ưng	-12.6736
▁mụn	-12.6738
ians	-12.6739
ộng	-12.674
▁phố	-12.6741
▁Full	-12.6741
stre	-12.6745
ual	-12.6745
jet	-12.6747
▁Flu	-12.6751
enia	-12.6756
▁chóp	-12.6758
▁1919.	-12.6767
▁Vả	-12.6769
aldo	-12.677
etsu	-12.6776
odon	-12.6777
SU	-12.6778
elin	-12.6781
UT	-12.6781
mana	-12.6784
allo	-12.6784
yah	-12.6785
obo	-12.6788
▁Bed	-12.6789
▁Paula	-12.6791
▁chang	-12.6794
ingham	-12.6795
▁Hye	-12.6795
)”.	-12.6796
▁6:	-12.6798
▁1938.	-12.68
lite	-12.6803
▁mega	-12.6804
}\	-12.6805
igo	-12.6806
▁Sig	-12.6806
▁Zoe	-12.6807
▁mùng	-12.6808
ffin	-12.6808
▁Ranh	-12.6809
éc	-12.6816
phân	-12.682
▁1,6	-12.6821
cậu	-12.6822
wak	-12.6822
gus	-12.6823
lac	-12.6824
thio	-12.6827
hạt	-12.6828
dam	-12.6829
uji	-12.6837
uh	-12.6839
▁Oro	-12.6848
Min	-12.6849
▁Tệ	-12.6849
▁Nation	-12.685
▁Hampton	-12.6855
Men	-12.6856
nel	-12.6856
▁Đổ	-12.6857
bir	-12.6858
▁XL	-12.6859
▁Vale	-12.686
▁Tada	-12.6861
▁Malay	-12.6861
▁hủ	-12.6861
▁Conquer	-12.6861
umba	-12.6862
▁Alfonso	-12.6865
▁Judith	-12.6865
▁McCarthy	-12.6865
▁Severus	-12.6865
▁Windsor	-12.6865
▁Ưu	-12.6865
▁container	-12.6865
▁Minamoto	-12.6865
▁Angkor	-12.6865
▁Engine	-12.6865
▁Veronica	-12.6865
▁liệu	-12.6865
▁Thật	-12.6865
▁Freedom	-12.6865
-34	-12.6865
▁Design	-12.6865
▁Lionel	-12.6866
▁Ful	-12.6866
▁Protein	-12.6866
▁Cantor	-12.6866
▁Huyết	-12.6866
▁Titanic	-12.6866
▁huyệt	-12.6866
▁Norton	-12.6866
▁Works	-12.6867
▁rèm	-12.6867
▁gmina	-12.6867
▁LED	-12.6867
▁liềm	-12.6867
▁cửa	-12.6868
▁Strauss	-12.6869
▁thử	-12.6869
lies	-12.687
▁Sant	-12.687
▁Hindi	-12.687
▁Computer	-12.6871
▁Tề	-12.6871
▁Family	-12.6872
▁seri	-12.6872
▁xở	-12.6873
lea	-12.6874
▁bần	-12.6874
▁noi	-12.6874
▁Kazan	-12.6876
BB	-12.6876
▁Tùng	-12.6878
iệm	-12.6878
▁100,000	-12.688
▁Bactria	-12.688
atsu	-12.688
▁Braun	-12.6881
ische	-12.6882
+1	-12.6884
▁Zeno	-12.6885
▁1854	-12.6885
▁1844	-12.6886
▁Hz	-12.6887
fel	-12.6888
▁5-	-12.689
▁1,000	-12.6891
▁4,5	-12.6894
iệp	-12.69
vô	-12.6903
▁scan	-12.6904
▁Ski	-12.6905
▁Rei	-12.6906
▁Expo	-12.6907
▁Minor	-12.6909
▁Blade	-12.6911
▁SH	-12.6911
▁Helm	-12.6911
▁6%	-12.6911
▁Never	-12.6915
▁Constantine	-12.6915
hur	-12.6917
▁SN	-12.6917
▁Sis	-12.6919
▁Asa	-12.692
RNA	-12.6924
any	-12.6931
hak	-12.6936
▁â	-12.6938
▁Lucia	-12.6939
hẻo	-12.694
TM	-12.694
▁Amor	-12.6943
ović	-12.6944
▁Phillips	-12.6947
thon	-12.6948
EM	-12.6948
eba	-12.6949
▁Sco	-12.6949
pit	-12.695
{\	-12.6953
hausen	-12.6954
jung	-12.6955
itan	-12.6958
▁Johnston	-12.6959
▁RT	-12.6959
endo	-12.696
mul	-12.6962
-90	-12.6963
▁1936.	-12.6966
ội	-12.6968
▁gôn	-12.6968
skie	-12.6969
2.5	-12.6969
định	-12.697
xuất	-12.697
▁Shun	-12.697
Đúng	-12.697
hoe	-12.6971
Kẻ	-12.6972
▁Gur	-12.6982
▁Wave	-12.6986
3,5	-12.6986
vik	-12.6986
lium	-12.6988
dae	-12.6988
sher	-12.6991
▁Ata	-12.6991
iens	-12.6991
▁Đo	-12.6994
ket	-12.6995
▁1998)	-12.6997
▁Ngộ	-12.6998
▁7%	-12.7003
▁June	-12.7008
rito	-12.7013
▁tít	-12.7019
▁răn	-12.7021
#242;	-12.7021
#297;	-12.7021
▁Sasebo	-12.7021
▁Kashmir	-12.7021
▁Eminem	-12.7021
▁Generation	-12.7021
▁Yahoo	-12.7021
▁Cardiff	-12.7021
▁Kampala	-12.7021
▁Nhẫn	-12.7021
▁Ronnie	-12.7022
▁Wellington	-12.7022
▁Theresa	-12.7022
▁Vichy	-12.7022
-100	-12.7022
▁bục	-12.7022
▁đít	-12.7022
▁nhầy	-12.7022
▁Phraya	-12.7022
món	-12.7022
▁Hắn	-12.7022
▁Liệt	-12.7022
▁tội	-12.7022
▁mật	-12.7023
▁Đậu	-12.7023
▁Heather	-12.7023
▁cạp	-12.7024
▁Alexandre	-12.7025
▁1983)	-12.7025
▁vóc	-12.7025
▁xuất	-12.7025
▁1834	-12.7027
▁Lorraine	-12.7028
▁Nâ	-12.7029
▁104	-12.703
▁Tước	-12.703
▁AA	-12.7035
▁Điên	-12.7036
▁dè	-12.7036
▁Richie	-12.7037
▁over	-12.7038
▁Fitz	-12.7039
▁Station	-12.7042
verse	-12.7046
▁Dis	-12.7048
▁Kir	-12.7051
▁cáck	-12.7054
▁Xà	-12.7055
ean	-12.7056
▁Kala	-12.7058
▁Liv	-12.7059
▁Chao	-12.7061
▁Bet	-12.7064
▁res	-12.7066
▁Nho	-12.7068
▁dĩa	-12.7071
▁Five	-12.7073
▁Rice	-12.7074
▁Ave	-12.7075
city	-12.7075
▁270	-12.7075
▁Lena	-12.7078
bong	-12.7081
▁Nora	-12.7088
taka	-12.7088
▁Pl	-12.7089
onium	-12.709
▁1-0	-12.7091
▁Ichi	-12.7092
vie	-12.7095
essa	-12.7096
▁ngo	-12.7097
▁Hira	-12.7097
lius	-12.71
chlor	-12.71
▁Cabo	-12.71
▁amino	-12.7101
ụt	-12.7101
▁Hoo	-12.7105
osh	-12.7106
wara	-12.7108
ồ	-12.7109
bà	-12.7109
11)	-12.7109
▁Care	-12.7111
▁Lil	-12.7116
▁Gay	-12.7119
ová	-12.712
▁Conan	-12.712
bình	-12.7129
Thời	-12.7129
wall	-12.7131
té	-12.7131
▁IU	-12.7132
bánh	-12.7133
mé	-12.7133
Cảm	-12.7133
▁Sō	-12.7134
48,	-12.7135
▁Sn	-12.7135
màu	-12.7139
▁Kamen	-12.7143
Liều	-12.7145
law	-12.715
▁Farm	-12.715
ứt	-12.715
nae	-12.7154
▁ku	-12.7154
fall	-12.7164
▁Corp	-12.7168
▁Musa	-12.7168
▁Burg	-12.7169
▁SR	-12.717
▁2008).	-12.7174
▁Elliot	-12.7175
▁Benedict	-12.7176
raj	-12.7177
▁Front	-12.718
▁Ranger	-12.718
▁Abydos	-12.718
▁Bougainville	-12.718
▁Phantom	-12.718
▁Sheffield	-12.718
▁hiểm	-12.718
▁Thracia	-12.718
▁Faisal	-12.718
▁đoái	-12.718
▁quất	-12.718
▁flash	-12.718
150	-12.718
▁(2000)	-12.718
▁Khalid	-12.718
▁Inuit	-12.7181
▁Nakhon	-12.7181
▁Thutmose	-12.7181
▁giễu	-12.7181
▁toái	-12.7181
sub	-12.7181
▁Griffin	-12.7181
▁Đỗ	-12.7181
▁Genji	-12.7181
tơ	-12.7182
▁Hull	-12.7182
▁Chai	-12.7182
▁kể	-12.7182
▁Kenny	-12.7182
▁Glee	-12.7183
▁Yū	-12.7183
▁mửa	-12.7183
▁Willis	-12.7184
▁ATM	-12.7185
▁Elliott	-12.7185
▁chờ	-12.7186
▁Peace	-12.7186
▁Greater	-12.7186
▁Sunda	-12.7187
▁through	-12.7188
▁Tripoli	-12.7188
0)	-12.7189
▁phiếm	-12.7189
dler	-12.7193
ride	-12.7195
▁Pon	-12.7196
▁Hayes	-12.7197
▁rợn	-12.7198
kowski	-12.7201
San	-12.7207
▁Sô	-12.7207
▁11:	-12.7208
arius	-12.7209
-28	-12.721
̃	-12.7211
▁Rev	-12.7212
bie	-12.7213
▁Single	-12.7213
▁Fen	-12.7218
▁Volga	-12.722
▁khiến	-12.7221
▁ria	-12.7225
▁Wake	-12.7226
wor	-12.7226
OA	-12.7227
spa	-12.7232
hoa	-12.7232
▁Cob	-12.7232
▁Oc	-12.7235
▁Coral	-12.7238
▁xê	-12.724
SR	-12.7242
▁Gian	-12.7243
▁Mix	-12.7253
ection	-12.7253
ỗi	-12.7254
▁dan	-12.7256
▁Doc	-12.7258
▁Dome	-12.7259
▁silic	-12.7264
▁tH	-12.7265
tsuki	-12.7265
agi	-12.7266
▁Abi	-12.7267
▁vụng	-12.7269
hơn	-12.7274
▁Saga	-12.7275
700	-12.7279
yna	-12.7287
ddy	-12.7289
Việc	-12.7291
điểm	-12.7291
ượng	-12.7297
Bắc	-12.7298
▁Aden	-12.7301
thuộc	-12.7302
▁CJ	-12.7303
▁Ala	-12.7303
đê	-12.7304
ữ	-12.7305
▁FK	-12.7305
ön	-12.7308
borough	-12.7313
▁Kaga	-12.7316
Ex	-12.7317
▁mó	-12.7317
cott	-12.7317
▁kè	-12.7326
▁Mills	-12.7333
▁Bennet	-12.7333
yong	-12.7336
Mer	-12.7337
▁Mata	-12.7338
▁anti	-12.7339
ậc	-12.734
▁cừ	-12.734
#417;	-12.7341
▁Avenue	-12.7341
▁Genève	-12.7341
▁Guantánamo	-12.7341
▁Instagram	-12.7341
▁Kenneth	-12.7341
▁Trinity	-12.7341
▁nhụy	-12.7341
▁rìu	-12.7341
▁Eleanor	-12.7341
▁Phaolô	-12.7341
▁Sankt	-12.7341
▁milimét	-12.7341
▁Baldwin	-12.7341
▁Magnus	-12.7341
▁đặt	-12.7341
▁Aircraft	-12.7341
▁Heath	-12.7342
▁Nielsen	-12.7342
▁hăm	-12.7342
▁Everton	-12.7342
▁Preston	-12.7342
▁Mandela	-12.7342
▁thốn	-12.7342
▁Honey	-12.7342
▁BS	-12.7343
▁sầu	-12.7343
▁chồi	-12.7343
▁tuộc	-12.7343
▁hời	-12.7343
▁Martinez	-12.7343
▁Khỉ	-12.7344
▁Clement	-12.7345
▁Diane	-12.7345
▁Country	-12.7347
▁1822	-12.7347
▁BASIC	-12.7348
lav	-12.7348
▁thớt	-12.7348
▁rơm	-12.7349
▁VIP	-12.7349
▁mút	-12.7349
▁1806	-12.7351
mart	-12.7352
Chủ	-12.7352
▁1852	-12.7353
tek	-12.7355
▁nêm	-12.7355
▁Giza	-12.7356
▁GE	-12.736
▁Russo	-12.7362
▁Speed	-12.7362
▁View	-12.7363
▁Marion	-12.7366
bos	-12.7367
▁Damon	-12.7377
▁véc	-12.7379
▁Luz	-12.7382
AG	-12.7383
▁Bug	-12.7384
oud	-12.7388
▁Levant	-12.7388
▁MRI	-12.7391
arrat	-12.7392
▁Đồi	-12.7392
▁Lac	-12.7394
▁True	-12.7394
▁Sunni	-12.7394
polis	-12.7395
▁2001)	-12.7395
▁EC	-12.7396
▁Maxim	-12.7398
▁Torre	-12.7399
ullah	-12.74
▁gàng	-12.74
▁Augustine	-12.7401
▁PT	-12.7401
▁Palma	-12.7401
▁Ono	-12.7403
▁Khe	-12.7405
▁Thy	-12.7407
▁Kira	-12.7408
inch	-12.7409
AU	-12.7415
lk	-12.7415
aster	-12.7416
▁ẩu	-12.7416
▁168	-12.7417
▁Fly	-12.7418
▁right	-12.7418
▁Gab	-12.7419
▁Hour	-12.7419
++	-12.7419
thia	-12.742
▁Market	-12.7423
▁Mons	-12.7427
▁Minsk	-12.7427
▁cào	-12.7429
isi	-12.7429
lad	-12.743
suk	-12.7433
▁ron	-12.7434
▁Dominic	-12.7435
▁GI	-12.7437
▁165	-12.7439
▁René	-12.744
HT	-12.7443
Mon	-12.7444
eko	-12.7444
▁AL	-12.7445
tio	-12.7448
▁Cười	-12.7449
▁Dia	-12.7449
hắn	-12.745
♫	-12.7454
Ừ	-12.7454
hãy	-12.7454
thiên	-12.7456
▁NA	-12.7462
kko	-12.7467
ares	-12.7469
ril	-12.7474
hẹ	-12.7474
-50	-12.7474
ethane	-12.7477
▁Eb	-12.7478
pie	-12.748
mã	-12.7484
mini	-12.7485
▁Toshi	-12.7488
Ă	-12.7492
▁Arch	-12.7495
▁ST	-12.7495
▁Form	-12.7496
scar	-12.7499
Tớ	-12.7501
GM	-12.7502
wang	-12.7502
phan	-12.7504
#259;	-12.7505
Đặng	-12.7505
▁Alliance	-12.7505
▁Beyoncé	-12.7505
▁Burundi	-12.7505
▁Bydgoszcz	-12.7505
▁Hercules	-12.7505
▁Imperial	-12.7505
▁OECD	-12.7505
▁Suriname	-12.7505
▁Sénégal	-12.7505
▁(1996)	-12.7505
▁Chapman	-12.7505
▁Minogue	-12.7505
▁Cromwell	-12.7505
5,000	-12.7505
▁Vargas	-12.7505
▁Cornell	-12.7505
▁Everest	-12.7505
▁Travis	-12.7506
▁playoff	-12.7506
▁sức	-12.7506
▁Alt	-12.7506
▁rước	-12.7506
▁mấy	-12.7507
▁Thâm	-12.7507
▁Lầu	-12.7507
▁Hawking	-12.7507
▁thuốc	-12.7508
▁Avon	-12.7508
▁virut	-12.7508
▁nháp	-12.7509
▁nín	-12.7509
▁Papa	-12.7509
As	-12.7509
mod	-12.7511
▁1826	-12.7511
▁Romanos	-12.7512
rna	-12.7512
▁Lost	-12.7516
▁Row	-12.7516
WA	-12.7517
▁Woody	-12.7518
▁tấp	-12.7518
tov	-12.7519
tim	-12.752
▁Lỗi	-12.752
▁Tak	-12.7521
▁Samar	-12.7522
▁Sia	-12.7524
▁tè	-12.7524
huỵ	-12.7525
▁toi	-12.7526
▁Dần	-12.7526
▁tạt	-12.7527
▁Oran	-12.7527
7.000	-12.7528
-55	-12.753
▁amoni	-12.7532
uel	-12.7532
▁MBC	-12.7534
▁hắc	-12.7535
▁1846	-12.7538
▁Amb	-12.7541
▁cúc	-12.7541
hof	-12.7543
▁Map	-12.7543
▁Made	-12.7544
nac	-12.7545
AO	-12.7547
▁Hab	-12.7548
▁Alberta	-12.7549
▁Bot	-12.7549
▁Ryo	-12.7552
▁liu	-12.7552
nori	-12.7556
▁Zach	-12.7556
▁Goo	-12.756
haus	-12.7563
▁Lộ	-12.7564
▁xo	-12.7564
▁Heli	-12.7572
For	-12.7574
▁90,	-12.7576
▁Zar	-12.7577
▁Ep	-12.7581
ube	-12.7586
ange	-12.7589
▁Meg	-12.7594
nai	-12.7594
sik	-12.7595
det	-12.7597
▁Gel	-12.7601
mot	-12.7607
▁Ong	-12.7608
3–	-12.7609
▁tết	-12.7612
▁inter	-12.7613
▁Gore	-12.7614
IE	-12.7617
ester	-12.762
quyền	-12.7621
ying	-12.7621
▁nể	-12.7622
ania	-12.7622
▁Glenn	-12.7628
▁Link	-12.7629
▁Som	-12.763
kết	-12.7631
ć	-12.7632
▁Sum	-12.7634
▁phai	-12.7635
not	-12.7635
thể	-12.7638
▁MO	-12.7639
▁Gala	-12.764
▁Flora	-12.7641
inda	-12.7642
At	-12.7642
▁Brent	-12.7643
▁Pr	-12.7643
▁Quin	-12.765
▁Vor	-12.7651
ild	-12.7651
bài	-12.7651
▁Gui	-12.7654
pher	-12.7656
▁Ec	-12.7657
eric	-12.766
Ah	-12.7661
▁Gr	-12.7661
▁Meta	-12.7663
rif	-12.7664
▁nôi	-12.7666
▁mao	-12.7667
▁Bonaparte	-12.7672
▁Discovery	-12.7672
▁Escobar	-12.7672
▁Ethernet	-12.7672
▁Feynman	-12.7672
▁IMAX	-12.7672
▁LHQ	-12.7672
▁Maximilian	-12.7672
▁Memorial	-12.7672
▁Promozione	-12.7672
▁Riyadh	-12.7672
▁Sikkim	-12.7672
▁Tottenham	-12.7672
▁Vaughan	-12.7672
▁cuốn	-12.7672
▁hót	-12.7672
▁khuỷu	-12.7672
▁đứng	-12.7672
▁Destiny	-12.7672
▁Nottingham	-12.7672
▁hecta	-12.7672
▁Gauss	-12.7672
▁phượng	-12.7672
▁Samantha	-12.7672
▁Nashville	-12.7672
▁Tháo	-12.7672
▁Brighton	-12.7672
▁Gambia	-12.7673
▁Again	-12.7673
insky	-12.7673
▁Dũng	-12.7673
▁Basque	-12.7673
▁Takeda	-12.7673
▁Eduardo	-12.7674
▁Tiện	-12.7674
▁rọi	-12.7674
▁thóc	-12.7674
▁cười	-12.7675
▁phốt	-12.7675
▁Warriors	-12.7676
▁DEA	-12.7676
▁mở	-12.7678
▁250.000	-12.7678
▁1835	-12.768
▁Late	-12.7681
▁chắn	-12.7682
riya	-12.7682
▁1856	-12.7683
▁HTML	-12.7685
ọt	-12.7685
saurus	-12.7687
▁Direct	-12.7687
▁py	-12.7688
▁Crown	-12.769
▁650	-12.7692
▁BC	-12.7694
▁1841	-12.7694
▁Tun	-12.7697
▁Kel	-12.7699
▁Happy	-12.77
hoạt	-12.77
▁hydrat	-12.7701
cai	-12.7704
▁AN	-12.7704
▁(0	-12.7705
ớt	-12.7707
▁There	-12.7708
Un	-12.7717
gard	-12.772
▁Mit	-12.772
▁Phái	-12.772
TR	-12.7724
▁Hari	-12.7726
ấn	-12.7728
▁Côn	-12.7729
GC	-12.7736
▁Wai	-12.7736
▁Jac	-12.7746
buk	-12.7747
▁hú	-12.7747
left	-12.7749
wat	-12.775
▁Borg	-12.7755
boo	-12.7756
2006	-12.7759
saka	-12.7759
Tri	-12.776
▁Vil	-12.7763
wee	-12.7764
▁Sham	-12.7764
▁PLA	-12.7765
uke	-12.7767
▁Zan	-12.7768
▁Viz	-12.777
▁Riê	-12.777
▁Ác	-12.7773
▁Natal	-12.7775
unk	-12.7775
▁Momo	-12.7778
▁2003)	-12.7781
EE	-12.7782
▁Franc	-12.7783
zie	-12.7787
▁Mái	-12.7787
▁toạ	-12.7789
▁Liz	-12.7789
Thiên	-12.779
phương	-12.7792
bây	-12.7796
has	-12.7796
LO	-12.7796
▁1,7	-12.7797
bei	-12.7802
cây	-12.7802
AB	-12.7804
ging	-12.7804
tăng	-12.7804
arch	-12.7807
hắp	-12.7809
▁Cab	-12.781
▁117	-12.7814
▁Make	-12.7814
HF	-12.7816
kể	-12.782
▁Dig	-12.7824
▁Moh	-12.7825
hos	-12.7826
▁Nik	-12.7828
Â	-12.7833
▁Toy	-12.7835
▁Somali	-12.7835
▁Cecil	-12.7837
hold	-12.7837
▁Concert	-12.7838
2000	-12.7839
▁nhằn	-12.784
rma	-12.784
▁rộ	-12.784
▁Violet	-12.7841
▁Algiers	-12.7841
▁Clapton	-12.7841
▁Dimashq	-12.7841
▁Euphrates	-12.7841
▁González	-12.7841
▁Nouméa	-12.7841
▁Silicon	-12.7841
▁Sunderland	-12.7841
▁Tahiti	-12.7841
▁magiê	-12.7841
▁neutrino	-12.7841
▁Carnegie	-12.7841
▁Sheldon	-12.7841
▁Zeppelin	-12.7841
▁mõm	-12.7841
▁sunfat	-12.7841
▁Vicente	-12.7841
▁Epstein	-12.7841
▁ngoặc	-12.7841
▁Göring	-12.7841
▁Bishop	-12.7842
▁kHông	-12.7842
▁Theatre	-12.7842
▁Sylar	-12.7842
▁hiệu	-12.7842
▁Ground	-12.7842
▁Parkinson	-12.7842
▁Museum	-12.7842
▁Lynch	-12.7842
▁SU	-12.7843
▁rúp	-12.7843
▁João	-12.7843
ỳ	-12.7843
▁toả	-12.7844
▁Dị	-12.7845
▁Berry	-12.7845
▁tã	-12.7845
▁Alexis	-12.7846
▁Liêu	-12.7846
▁1789	-12.7846
ếp	-12.7847
▁1833	-12.7847
▁(1997)	-12.7847
▁Hardy	-12.7848
▁1831	-12.7848
▁Turbo	-12.7848
cdot	-12.7848
▁Niên	-12.7848
▁Princess	-12.7848
▁1825	-12.785
▁Bing	-12.7851
▁1790	-12.7851
▁Electronics	-12.7853
▁Mnet	-12.7854
▁Ska	-12.7854
▁nhậu	-12.7854
▁Week	-12.7855
▁Bod	-12.7856
Ya	-12.7857
▁post	-12.7858
▁her	-12.786
ằng	-12.7861
▁European	-12.7861
▁2-0	-12.7863
yar	-12.7863
▁TS	-12.7864
ddle	-12.7865
▁Tusk	-12.7868
▁pixel	-12.7869
ned	-12.787
Game	-12.7871
bang	-12.7872
tua	-12.7874
▁Khang	-12.7874
▁---	-12.7881
▁Sandra	-12.7882
cine	-12.7882
card	-12.7883
▁Phán	-12.7883
Yo	-12.7887
▁133	-12.7897
oxide	-12.7898
▁Katsu	-12.7899
bs	-12.79
ved	-12.7903
ựa	-12.7903
▁143	-12.7905
opsis	-12.7907
▁Canal	-12.7908
▁NY	-12.7913
▁Kuni	-12.7918
▁Khải	-12.792
uti	-12.7923
quet	-12.7927
sản	-12.7946
▁Mika	-12.7947
▁Fermi	-12.7949
tat	-12.7955
▁yo	-12.7958
▁2.1	-12.7959
ushi	-12.7961
▁Ik	-12.7961
Louis	-12.7963
nhóm	-12.7963
Quốc	-12.7963
▁loan	-12.7965
Chào	-12.7966
Super	-12.7966
▁1985)	-12.7967
mut	-12.7969
▁Bend	-12.7969
▁Sak	-12.797
▁107	-12.7976
American	-12.7977
cảm	-12.7979
▁Grim	-12.7979
40.000	-12.7983
▁Baja	-12.7984
▁chlor	-12.7985
▁Aj	-12.7995
uddin	-12.7996
▁Shen	-12.7997
▁Crimea	-12.8002
▁Marine	-12.8002
▁Lab	-12.8003
▁1-1	-12.8004
khan	-12.8004
▁Falcone	-12.8004
part	-12.8008
▁Bag	-12.8009
}{	-12.8013
▁Cynthia	-12.8014
▁Hercegovina	-12.8014
▁Jupiter	-12.8014
▁Poseidon	-12.8014
▁Strasbourg	-12.8014
▁Winterfell	-12.8014
▁Language	-12.8014
▁Arafat	-12.8014
▁Lexington	-12.8014
▁Camelot	-12.8014
▁Somerset	-12.8014
▁Dunbar	-12.8014
▁testosterone	-12.8014
▁Robbie	-12.8014
▁Wesley	-12.8014
▁ngửa	-12.8014
▁găm	-12.8015
▁Tiệc	-12.8015
▁Maximus	-12.8015
▁Norte	-12.8015
league	-12.8015
▁Alicia	-12.8015
▁KGB	-12.8017
▁Carlyle	-12.8018
▁Thảo	-12.8019
▁1837	-12.8019
▁Access	-12.8022
▁KBS	-12.8023
òi	-12.8023
▁Brooks	-12.8023
▁Search	-12.8024
ook	-12.8024
▁Labs	-12.8026
▁Bit	-12.8028
▁Đinh	-12.8032
▁Taira	-12.8032
▁Rivera	-12.8035
▁1824	-12.8036
▁organ	-12.8039
naka	-12.804
▁Bổ	-12.804
bla	-12.8043
▁Fear	-12.8045
▁Kok	-12.8045
▁Gh	-12.8046
▁Frances	-12.8047
▁Uhm	-12.8048
▁kền	-12.8048
▁Janet	-12.8048
▁Cent	-12.805
▁Build	-12.8052
▁Mann	-12.8055
tree	-12.8056
▁Nol	-12.8058
tics	-12.806
▁162	-12.806
▁Singer	-12.8061
quan	-12.8063
rập	-12.8064
HS	-12.807
▁app	-12.8071
▁Wit	-12.8075
▁Julio	-12.8078
anta	-12.8078
yen	-12.8081
abe	-12.8084
▁If	-12.8084
onna	-12.8084
endi	-12.8097
ís	-12.8099
▁visa	-12.81
lid	-12.8102
3),	-12.8102
AH	-12.8103
êt	-12.8105
▁Din	-12.8105
ởi	-12.8106
▁2500	-12.8106
▁pan	-12.8106
▁Kou	-12.8107
▁2-3	-12.8108
▁MF	-12.811
▁129	-12.811
mata	-12.8114
▁Merc	-12.8115
▁Bis	-12.812
flo	-12.8121
pura	-12.8133
-45	-12.8136
ped	-12.8141
▁Hoffman	-12.8144
đáng	-12.8144
▁shi	-12.8145
bởi	-12.8147
kot	-12.8147
wai	-12.815
▁CM	-12.8153
ết	-12.8153
Cola	-12.8156
▁GM	-12.8163
▁Bột	-12.8164
▁Milk	-12.8167
tok	-12.8167
▁Cai	-12.817
mah	-12.8171
▁Sulu	-12.8171
▁123	-12.8172
▁Maz	-12.8174
bour	-12.8178
▁Case	-12.818
▁Soon	-12.8181
▁Medici	-12.8182
▁Gunn	-12.8183
▁Record	-12.8184
▁Neg	-12.8184
▁Rise	-12.8185
ắt	-12.8185
▁Abbas	-12.8186
▁Este	-12.8186
pala	-12.8186
#7909;	-12.8189
▁-**	-12.8189
▁Catalunya	-12.8189
▁Demetrios	-12.8189
▁Descartes	-12.8189
▁Kuching	-12.8189
▁Seljuk	-12.8189
▁ribosome	-12.8189
▁sẵn	-12.8189
▁Jenkins	-12.8189
▁Retrieve	-12.8189
▁Aurora	-12.8189
▁Delaware	-12.8189
▁Khalifa	-12.8189
▁Elijah	-12.8189
▁Cristina	-12.8189
▁Kyrgyzstan	-12.8189
▁Louvre	-12.8189
▁Saladin	-12.8189
▁ER	-12.8189
Her	-12.8189
▁Durham	-12.8189
▁Aviation	-12.819
▁Cornelius	-12.819
▁Đèn	-12.819
▁ngầu	-12.819
▁phẩy	-12.819
▁Suzuki	-12.819
▁Luận	-12.819
▁Jaime	-12.819
▁Blair	-12.819
▁Buzz	-12.819
▁Nihon	-12.819
▁chuẩn	-12.819
▁Sporting	-12.819
▁HLV	-12.819
▁APEC	-12.819
▁bậy	-12.8191
▁Brest	-12.8191
▁Lazio	-12.8191
▁Rec	-12.8191
▁Chấn	-12.8191
▁Raven	-12.8191
▁HBO	-12.8192
▁viết	-12.8192
▁tuột	-12.8193
▁Bạo	-12.8193
▁NC	-12.8193
▁Nolan	-12.8193
▁Sinai	-12.8194
▁Hân	-12.8196
▁Carbon	-12.8196
▁Sữa	-12.8197
▁Antony	-12.8198
pad	-12.8199
▁mào	-12.82
▁Lower	-12.82
lib	-12.8201
▁system	-12.8202
▁Quest	-12.8202
FF	-12.8203
▁1823	-12.8203
▁2011).	-12.8204
rốc	-12.8208
oda	-12.821
lop	-12.8211
▁Baba	-12.8212
▁Kids	-12.8212
-86	-12.8212
▁Dee	-12.8212
▁Whoa	-12.8213
▁hử	-12.8215
▁1810	-12.8216
▁base	-12.8216
▁(100	-12.8217
▁1979)	-12.8218
▁Pyr	-12.8218
ồm	-12.822
▁Creta	-12.8224
Royce	-12.8226
▁Cain	-12.8226
▁Cop	-12.8231
▁112	-12.8232
FE	-12.8235
tsch	-12.8236
NI	-12.8236
▁jo	-12.8237
koku	-12.8238
ione	-12.8241
▁1988)	-12.8245
▁glycol	-12.8247
oga	-12.825
OM	-12.8252
▁Wen	-12.8255
3).	-12.8256
▁Coco	-12.8257
mari	-12.8259
на	-12.8259
ono	-12.8265
ạng	-12.8266
▁chen	-12.8269
chō	-12.827
ssa	-12.8273
AV	-12.8273
shaw	-12.8277
chal	-12.8283
▁Rap	-12.8286
▁ôxi	-12.8288
tera	-12.8293
▁TF	-12.8297
▁Lea	-12.8303
Khu	-12.8304
matsu	-12.8304
▁Pia	-12.8305
cot	-12.8306
mbu	-12.8308
lma	-12.8308
ợ	-12.8311
▁test	-12.8315
Ngài	-12.8317
Hoàng	-12.8317
▁Kana	-12.8319
arte	-12.8327
_{2}	-12.8333
boy	-12.8335
▁Johan	-12.8337
Je	-12.8338
som	-12.834
lah	-12.8341
Hai	-12.8341
450	-12.8347
▁Sus	-12.8351
▁Cos	-12.8352
▁102	-12.8355
▁Mott	-12.8361
mme	-12.8367
▁Ale	-12.8367
▁Clyde	-12.8368
▁CYP	-12.8368
thesaban	-12.8368
▁Adriatic	-12.8368
▁Claudius	-12.8368
▁Fernández	-12.8368
▁Floyd	-12.8368
▁Gallagher	-12.8368
▁Heights	-12.8368
▁Katherine	-12.8368
▁Management	-12.8368
▁Netflix	-12.8368
▁Pretoria	-12.8368
▁Spielberg	-12.8368
▁Suffolk	-12.8368
▁bướu	-12.8368
▁warfarin	-12.8368
▁Domingo	-12.8368
▁Magellan	-12.8368
▁ngoãn	-12.8368
▁Grenada	-12.8368
▁Wagner	-12.8368
▁Nghỉ	-12.8368
▁Trevor	-12.8368
▁April	-12.8368
▁Emilio	-12.8368
▁chửng	-12.8368
▁Kafka	-12.8368
▁Cathy	-12.8368
▁Oracle	-12.8368
▁Emmanuel	-12.8368
▁nhõm	-12.8368
▁Edwin	-12.8368
▁GABA	-12.8368
▁Prize	-12.8369
▁ráo	-12.8369
uôi	-12.837
▁2010-11	-12.837
▁Om	-12.837
▁Ángel	-12.837
▁vữa	-12.837
▁Flight	-12.837
▁bẹp	-12.837
▁Sanders	-12.837
▁Holdings	-12.8371
▁Lum	-12.8372
▁OFC	-12.8372
▁thình	-12.8372
▁1999)	-12.8373
▁Mossad	-12.8373
▁Pioneer	-12.8374
▁Kiên	-12.8374
▁Ruby	-12.8375
▁vest	-12.8375
▁Peterson	-12.8375
▁Wade	-12.8375
▁Tận	-12.8375
▁trọc	-12.8376
▁Body	-12.8376
▁1795	-12.8377
▁1829	-12.8379
▁Frei	-12.8382
RD	-12.8382
▁Roche	-12.8382
▁yết	-12.8384
▁1–0	-12.8385
▁nanh	-12.8386
iger	-12.8386
dina	-12.8387
UR	-12.8389
▁menu	-12.8393
-38	-12.8398
vn	-12.8399
▁HP	-12.8401
istic	-12.8409
▁1,4	-12.8409
▁Satan	-12.8409
▁lún	-12.841
IST	-12.8414
Lee	-12.8415
▁Bát	-12.8418
nap	-12.842
SB	-12.8422
▁Jobs	-12.8422
▁Cala	-12.8425
RF	-12.8426
▁Sala	-12.8429
▁Lot	-12.8432
gent	-12.8433
▁Sex	-12.8433
▁Petra	-12.8442
▁Dow	-12.8444
kas	-12.8444
▁Alta	-12.8446
▁2018).	-12.8447
▁sứa	-12.8449
▁Tama	-12.845
Ke	-12.8452
rash	-12.8452
2015	-12.8453
song	-12.8454
▁Toyo	-12.8456
▁Colin	-12.8456
▁Mand	-12.8461
▁Hé	-12.8462
▁Cle	-12.8465
▁den	-12.8474
stria	-12.8476
rei	-12.8483
▁Ath	-12.8485
đô	-12.8486
kare	-12.8487
nz	-12.8488
▁cH	-12.8491
▁bung	-12.8493
icum	-12.8498
Germain	-12.8498
▁8%	-12.8499
Việt	-12.8499
trường	-12.85
0.0	-12.8501
oides	-12.8503
dựa	-12.8504
▁Palo	-12.8505
ades	-12.8507
1-	-12.8508
▁Swan	-12.8509
▁Revolution	-12.851
bio	-12.8514
Ku	-12.8524
pine	-12.8525
tốt	-12.8528
▁bảnh	-12.8528
▁mag	-12.8529
▁Have	-12.8532
udi	-12.8532
▁3.5	-12.8535
▁Río	-12.8539
▁Herman	-12.854
▁tổ	-12.8544
▁đĩ	-12.8544
▁Gloucester	-12.855
▁Health	-12.855
ằm	-12.855
▁Copernicus	-12.855
▁Krishna	-12.855
▁Olivier	-12.855
▁Rodriguez	-12.855
▁Southampton	-12.855
▁Tĩnh	-12.855
▁Mohammad	-12.855
▁Brittany	-12.855
▁Collection	-12.855
▁Montevideo	-12.855
▁Ryholt	-12.855
▁Katowice	-12.855
▁Flint	-12.855
▁IUCN	-12.855
▁Wendy	-12.855
▁ballet	-12.855
▁Irene	-12.855
▁Agnes	-12.855
▁Lublin	-12.855
▁Krupp	-12.8551
▁séc	-12.8551
litz	-12.8551
▁Rahman	-12.8551
▁Total	-12.8551
▁Nouvelle	-12.8552
▁2009-10	-12.8552
lene	-12.8553
▁Beast	-12.8553
▁dột	-12.8553
▁Lộc	-12.8553
▁Rối	-12.8554
▁Freud	-12.8554
▁nổi	-12.8555
ờ	-12.8556
▁Sally	-12.8557
▁1843	-12.8557
▁Rolls	-12.8557
▁giữa	-12.8558
---	-12.8559
ration	-12.8559
▁UC	-12.8562
berry	-12.8563
▁Dao	-12.8564
▁Dạo	-12.8564
▁sá	-12.8565
wy	-12.8566
▁xào	-12.8571
▁Coppa	-12.8571
▁Scythia	-12.8572
▁1801	-12.8572
▁Alto	-12.8574
kat	-12.8576
▁anion	-12.8577
▁Gross	-12.8577
▁Gulf	-12.8583
mate	-12.8585
▁2,3	-12.8585
▁nH	-12.8588
▁Amun	-12.859
▁365	-12.8594
▁Cốc	-12.8595
ière	-12.8596
▁2007).	-12.8599
▁Paso	-12.8601
nother	-12.8602
▁sên	-12.8605
▁Orion	-12.8606
▁VC	-12.8607
▁2.2	-12.8608
tinib	-12.8609
▁Pit	-12.861
▁(3)	-12.8612
▁Nie	-12.8613
▁well	-12.8614
▁Toku	-12.8614
▁Bayer	-12.8615
▁126	-12.8615
She	-12.8615
obe	-12.8616
▁118	-12.8617
▁Khal	-12.8618
▁calo	-12.8619
dit	-12.862
▁Ober	-12.8621
▁Arn	-12.8622
▁Chip	-12.8626
▁Vila	-12.8626
▁1981)	-12.8627
▁Gul	-12.8628
▁vạ	-12.863
▁Tru	-12.8631
▁Rex	-12.8632
azine	-12.8633
▁Male	-12.8635
uget	-12.8636
▁0.5	-12.8637
▁Highland	-12.8637
grad	-12.8637
dzi	-12.8647
▁(32	-12.8648
iano	-12.8652
tini	-12.8652
uin	-12.8655
dle	-12.8655
▁Kama	-12.8656
▁art	-12.8661
íp	-12.8662
eller	-12.8666
ểu	-12.8669
▁Hess	-12.8672
nữ	-12.8675
wich	-12.8677
▁Dz	-12.868
dù	-12.868
▁Champ	-12.8682
tik	-12.8682
John	-12.8683
Powell	-12.8684
kul	-12.8684
Life	-12.8685
▁$2	-12.8685
▁111	-12.8686
nant	-12.8688
eco	-12.8692
ngoài	-12.8694
▁Sims	-12.8695
▁NES	-12.8695
▁4-	-12.8697
hall	-12.8697
▁Zara	-12.8699
▁SW	-12.8703
rys	-12.8703
Bài	-12.8705
pac	-12.8705
action	-12.8705
ườn	-12.8705
▁1987)	-12.8706
VP	-12.8707
▁Olive	-12.8708
▁Gear	-12.8708
owitz	-12.8716
▁Mash	-12.8722
zole	-12.8723
▁sụn	-12.8723
▁Still	-12.8723
TP	-12.8724
inia	-12.8727
▁Lex	-12.8729
tium	-12.8729
▁Iso	-12.8729
▁lì	-12.8732
iformes	-12.8734
#7883;	-12.8735
▁Blizzard	-12.8735
▁Crawford	-12.8735
▁Hannover	-12.8735
▁Heidelberg	-12.8735
▁Higgs	-12.8735
▁Odessa	-12.8735
▁Sardinia	-12.8735
▁Toyotomi	-12.8735
▁Pompey	-12.8735
▁Delaney	-12.8735
▁Adobe	-12.8735
▁Playboy	-12.8735
▁Katrina	-12.8735
▁Monterey	-12.8735
▁Soccerway	-12.8735
▁Quentin	-12.8735
▁đấu	-12.8735
▁McGill	-12.8735
▁Nhánh	-12.8735
▁Rochester	-12.8735
-39	-12.8735
▁Thunder	-12.8735
▁Eastern	-12.8735
▁Derby	-12.8735
▁Racing	-12.8735
▁Virtual	-12.8735
▁Travel	-12.8735
▁Địch	-12.8735
▁Francesco	-12.8736
▁cợt	-12.8736
▁Aga	-12.8736
▁Titus	-12.8736
▁Mirage	-12.8736
▁Messina	-12.8736
▁bẽ	-12.8736
▁Dalton	-12.8736
▁tuổi	-12.8736
▁Money	-12.8736
▁Conference	-12.8737
▁Style	-12.8737
▁xỏ	-12.8737
▁Sugar	-12.8737
▁Est	-12.8738
▁dông	-12.8739
▁550	-12.874
▁Diaz	-12.874
▁Anita	-12.8741
iye	-12.8741
▁Canadian	-12.8741
▁cằm	-12.8741
▁Sâu	-12.8742
▁Ronaldo	-12.8742
▁Trác	-12.8742
▁Lamp	-12.8743
▁1805	-12.8743
▁Dante	-12.8744
này	-12.8746
ệt	-12.8747
▁Thiện	-12.8748
▁AF	-12.8748
chữ	-12.8751
▁Mana	-12.8751
▁1804	-12.8751
▁1839	-12.8752
▁Allan	-12.8753
▁Frost	-12.8756
▁Cham	-12.8758
▁Hạnh	-12.8758
▁Fabian	-12.876
uộc	-12.8761
▁Half	-12.8761
▁super	-12.8761
▁time	-12.8761
ife	-12.8767
ehr	-12.8768
▁1836	-12.8768
▁bô	-12.8769
▁256	-12.8773
▁part	-12.8774
ươi	-12.8776
rh	-12.8781
▁Scap	-12.8782
tino	-12.8783
▁Mg	-12.8785
astro	-12.8786
fun	-12.8786
▁Ice	-12.8788
sian	-12.879
lect	-12.8791
itra	-12.8792
▁NP	-12.8792
▁Islands	-12.8795
dot	-12.8797
iidae	-12.8797
▁2000)	-12.8797
sville	-12.8798
▁Rosen	-12.8798
▁Orc	-12.8799
rta	-12.88
▁Dru	-12.8802
oj	-12.8808
lob	-12.8809
▁Kad	-12.8809
▁Toki	-12.8811
▁cỗi	-12.8815
▁Aviv	-12.8815
▁Lori	-12.8815
▁spa	-12.8818
ới	-12.882
▁Chịu	-12.8821
▁Gha	-12.8822
▁Roh	-12.8823
15)	-12.8825
▁Cris	-12.8825
▁Bok	-12.8825
▁Bac	-12.8826
▁Drama	-12.8827
phor	-12.8828
▁1917.	-12.8829
wski	-12.8831
▁Nya	-12.8833
nium	-12.8834
enda	-12.8836
▁Asahi	-12.884
▁Messi	-12.8841
▁lạch	-12.8846
jang	-12.8846
illi	-12.8851
▁Fay	-12.8853
▁Awa	-12.8854
ùn	-12.8855
CB	-12.8857
▁Tou	-12.8857
NE	-12.8865
scher	-12.8867
▁Tip	-12.8869
▁ben	-12.8872
nard	-12.8872
mặt	-12.8873
chang	-12.8873
thiết	-12.8873
bảo	-12.8874
biết	-12.8874
▁Rim	-12.8876
Bây	-12.8879
▁Astro	-12.8879
▁Fame	-12.8881
▁1933.	-12.8886
ội	-12.8887
▁nhờn	-12.8892
jeon	-12.8893
▁Holt	-12.8894
▁Ảo	-12.8896
tella	-12.8896
▁Mate	-12.8898
Tên	-12.8899
DOS	-12.8901
estro	-12.8905
tone	-12.8906
▁8:	-12.8908
▁Lego	-12.8909
320	-12.8914
Nói	-12.8915
▁Tả	-12.8915
lix	-12.8917
▁153	-12.8918
▁2–1	-12.892
uổi	-12.8923
▁Index	-12.8923
fjord	-12.8924
▁Dresden	-12.8924
▁Humboldt	-12.8924
▁Lancaster	-12.8924
▁Saturday	-12.8924
▁Simmons	-12.8924
▁Stuttgart	-12.8924
▁lụi	-12.8924
▁marketing	-12.8924
▁rugby	-12.8924
▁Auschwitz	-12.8924
▁Huawei	-12.8924
▁Ioannes	-12.8924
▁Morocco	-12.8924
▁Lodge	-12.8924
▁quốc	-12.8924
▁Nakajima	-12.8924
▁Lizzy	-12.8924
▁Gomez	-12.8924
▁Ngủ	-12.8924
▁Muội	-12.8924
▁(2017)	-12.8924
▁ngỗng	-12.8924
▁Wheeler	-12.8924
▁Kingdom	-12.8924
▁Luca	-12.8924
▁Plaza	-12.8924
▁Langley	-12.8924
▁Berber	-12.8924
▁Durban	-12.8925
▁mượt	-12.8925
▁Elvis	-12.8925
shū	-12.8925
▁nucleo	-12.8926
▁Akira	-12.8926
▁Hornet	-12.8926
▁Slovak	-12.8927
▁gừng	-12.8927
▁Tàn	-12.8928
▁Action	-12.8928
▁nấy	-12.8929
▁Hwang	-12.893
▁Ernesto	-12.893
▁Igor	-12.8931
▁TG	-12.8932
ography	-12.8934
▁nài	-12.8934
▁Pasha	-12.8935
▁nhím	-12.8935
▁Bandai	-12.8937
▁yếm	-12.8938
▁Skye	-12.8938
Kim	-12.894
▁Milano	-12.894
omys	-12.894
▁AMD	-12.8941
▁1792	-12.8941
tian	-12.8941
▁Goa	-12.8942
▁Tale	-12.8945
▁142	-12.8945
▁1984)	-12.8946
ưu	-12.8947
▁rượt	-12.8948
▁Ngón	-12.8949
▁JP	-12.895
▁Johannes	-12.895
cta	-12.8953
▁Temp	-12.8953
▁giò	-12.8958
▁Temple	-12.8959
▁Kamp	-12.8966
roma	-12.8967
▁RO	-12.8969
onne	-12.897
It	-12.897
▁Valle	-12.897
▁Brook	-12.897
ực	-12.8973
ān	-12.8973
▁Nim	-12.8973
▁baby	-12.8975
ật	-12.8977
▁op	-12.8979
▁Willy	-12.8979
▁Johns	-12.898
▁pu	-12.8982
▁1914.	-12.8983
phin	-12.8985
dé	-12.8987
tag	-12.8987
▁nhả	-12.899
▁--&	-12.8992
ejo	-12.8992
▁Natural	-12.8997
▁Bf	-12.8998
-300	-12.8998
enna	-12.9
▁JR	-12.9005
▁1.7	-12.9009
▁Dol	-12.9013
▁pr	-12.9014
COM	-12.9019
▁Mitsu	-12.9019
ký	-12.9022
meter	-12.9024
Ad	-12.9026
zio	-12.9028
ubi	-12.9029
▁var	-12.903
ngay	-12.9033
▁Doha	-12.9035
ỵ	-12.9038
▁Bonn	-12.904
▁Shane	-12.9044
▁Burns	-12.9049
▁khải	-12.9051
▁Nori	-12.9052
andro	-12.9055
▁Bil	-12.9057
▁Start	-12.9057
▁2002)	-12.9058
▁Atta	-12.9059
▁260	-12.9061
LT	-12.9068
iệt	-12.907
▁yd	-12.907
ments	-12.9076
GH	-12.9077
chel	-12.9079
▁sulfat	-12.9079
ận	-12.9081
trở	-12.9082
hiko	-12.9083
▁12:	-12.9084
)=	-12.9085
Land	-12.9088
▁Zy	-12.909
▁ngán	-12.9096
▁Epi	-12.9099
ế	-12.9107
▁Monster	-12.9107
▁GW	-12.911
hắm	-12.9113
▁ngạn	-12.9114
▁Corinth	-12.9116
#7881;	-12.9116
▁Archimedes	-12.9116
▁Cindy	-12.9116
▁Flanders	-12.9116
▁Hejaz	-12.9116
▁Honolulu	-12.9116
▁JTWC	-12.9116
▁Khosrau	-12.9116
▁Lothbrok	-12.9116
▁Publishing	-12.9116
▁TNHH	-12.9116
▁Toulouse	-12.9116
▁serotonin	-12.9116
▁Elisabeth	-12.9116
▁Saturn	-12.9116
▁positron	-12.9116
▁Abrams	-12.9116
▁Bleach	-12.9116
▁Ingrid	-12.9116
▁Championnat	-12.9116
▁Kylie	-12.9116
▁Swaziland	-12.9116
▁Phoenicia	-12.9116
▁Britney	-12.9116
▁Melissa	-12.9116
▁Nakamura	-12.9116
▁Trứng	-12.9116
▁Akkad	-12.9116
▁(1993)	-12.9116
▁Natalie	-12.9116
▁Nhỡ	-12.9116
▁Pierce	-12.9116
▁Faroe	-12.9116
▁gội	-12.9116
▁mĩ	-12.9116
▁Mendes	-12.9117
▁Koh	-12.9117
▁gỉ	-12.9117
▁nòi	-12.9117
▁nhuệ	-12.9117
▁Thiệu	-12.9119
▁Má	-12.9119
▁Khufu	-12.9119
▁Darius	-12.9119
▁Ariel	-12.912
▁Factory	-12.912
▁Muối	-12.9121
▁Natri	-12.9121
▁Maori	-12.9121
▁nhăng	-12.9121
▁Boyle	-12.9122
▁NG	-12.9122
rut	-12.9122
▁1776	-12.9123
▁Shia	-12.9124
▁1827	-12.9125
▁Quinn	-12.9125
▁Lep	-12.9127
phenyl	-12.9127
▁Waters	-12.9128
▁3.500	-12.9128
▁Chinese	-12.9129
▁Aston	-12.9129
▁Order	-12.913
▁1807	-12.913
▁MD	-12.9131
▁Sương	-12.9132
▁Vision	-12.9132
7,5	-12.9133
▁Was	-12.9137
▁Sikh	-12.9139
ер	-12.9139
▁Yam	-12.914
Red	-12.914
▁1080	-12.9143
etic	-12.9143
▁BA	-12.9144
UC	-12.9146
Shi	-12.9147
ập	-12.9152
▁Bala	-12.9152
▁Kl	-12.9155
▁Cash	-12.9155
AND	-12.9155
▁xén	-12.9155
▁ver	-12.9158
▁SD	-12.9159
NL	-12.9159
▁Apo	-12.9161
ppe	-12.9165
ầu	-12.9165
8,000	-12.9168
yun	-12.917
ticus	-12.9171
▁list	-12.9173
eff	-12.9173
▁Koz	-12.9176
▁Qur	-12.9179
-1945	-12.9179
▁Train	-12.9186
NY	-12.9188
uche	-12.9191
680	-12.9197
▁Kern	-12.9197
trans	-12.9199
body	-12.9204
Che	-12.9205
▁Hạn	-12.9205
▁Trum	-12.9208
▁147	-12.9212
idad	-12.9215
▁Boh	-12.9215
2004	-12.9215
▁Vida	-12.9216
nius	-12.9217
▁Zn	-12.9222
Burj	-12.9223
▁1813	-12.9224
▁1908,	-12.9225
9,5	-12.9227
hyd	-12.9228
2.7	-12.9229
▁ren	-12.9233
▁Kobe	-12.9234
emia	-12.9236
dium	-12.9237
1000	-12.924
ifer	-12.9241
▁Golan	-12.9242
nsky	-12.9243
▁trailer	-12.9246
ais	-12.9251
Phụ	-12.9251
Số	-12.9254
hap	-12.9256
▁136	-12.9257
east	-12.9257
TF	-12.9257
mitsu	-12.9257
Phải	-12.9261
Trường	-12.9261
chưa	-12.9262
biến	-12.9262
Về	-12.9262
Ấn	-12.9264
đồ	-12.9268
▁Ach	-12.9269
gul	-12.9272
road	-12.9273
Gia	-12.9274
▁tele	-12.9278
-85	-12.9282
Ab	-12.9283
▁Đợ	-12.9285
chim	-12.9288
sea	-12.9289
eto	-12.9295
abu	-12.9299
▁NBA	-12.9299
3-	-12.9299
▁chíp	-12.93
rbet	-12.9301
▁Dec	-12.9305
▁Petit	-12.9307
▁concert	-12.9309
▁Lars	-12.931
▁tiến	-12.931
▁dẻ	-12.9311
▁Atlético	-12.9312
▁Bratislava	-12.9312
▁Burrows	-12.9312
▁Schwarzenegger	-12.9312
▁Toledo	-12.9312
▁Tribune	-12.9312
▁WWE	-12.9312
▁nghiệm	-12.9312
▁Enrique	-12.9312
▁GHz	-12.9312
▁Kurosawa	-12.9312
▁(1995)	-12.9312
▁Paramount	-12.9312
▁Bố	-12.9312
▁Majuro	-12.9312
▁Talbot	-12.9312
▁Wolfgang	-12.9312
▁sulfuric	-12.9312
▁Vanessa	-12.9312
▁Thoả	-12.9312
▁Buffalo	-12.9312
▁Social	-12.9312
▁Anders	-12.9312
▁Jolie	-12.9313
▁Pavel	-12.9313
▁Jisr	-12.9313
▁Cyber	-12.9313
▁lị	-12.9313
▁Devon	-12.9313
▁salad	-12.9313
▁Kab	-12.9313
▁Torino	-12.9313
▁dầm	-12.9314
▁Jonas	-12.9314
▁Unix	-12.9315
▁Maeda	-12.9315
▁fax	-12.9315
▁Griffith	-12.9316
▁-1	-12.9317
▁Thames	-12.9317
▁sải	-12.9317
▁desktop	-12.9318
▁Trek	-12.9318
▁Av	-12.9318
▁nhúc	-12.9319
▁thòi	-12.9319
▁Liam	-12.9319
▁Faith	-12.932
▁LCD	-12.9321
▁Hmm	-12.9322
▁Pepsi	-12.9322
▁1817	-12.9323
▁Hyper	-12.9324
▁Audi	-12.9327
▁Alien	-12.9328
▁Đàm	-12.9329
▁Dê	-12.933
▁Conway	-12.933
▁Atari	-12.9332
▁1910.	-12.9333
▁Choice	-12.9333
▁della	-12.9336
▁Empires	-12.9336
▁sành	-12.9337
▁Seine	-12.9341
▁Mani	-12.9342
▁4.5	-12.9343
▁Keys	-12.9348
Au	-12.9348
▁Bour	-12.9348
UM	-12.9348
▁Jing	-12.9349
▁Sint	-12.9352
▁hun	-12.9352
▁dìm	-12.9355
▁bẹ	-12.9356
▁Juana	-12.9356
ồng	-12.936
nais	-12.9362
▁Hin	-12.9363
▁phosphate	-12.9364
▁210	-12.9365
▁nhơ	-12.9365
▁Gerard	-12.9367
NK	-12.9371
ảo	-12.9373
ento	-12.9375
zol	-12.9379
morph	-12.9379
Còn	-12.9383
sine	-12.9383
▁Wak	-12.9386
▁ME	-12.9388
▁oz	-12.9389
▁1970)	-12.9391
thân	-12.9399
ities	-12.94
chak	-12.9402
And	-12.9403
▁RCA	-12.9404
▁Chat	-12.9405
front	-12.9406
rho	-12.9406
ache	-12.9406
tip	-12.9407
rong	-12.9408
tec	-12.9409
▁day	-12.941
Bad	-12.9411
vert	-12.9411
cera	-12.9414
▁(186	-12.9415
▁1932.	-12.9431
yana	-12.9431
▁Nah	-12.9433
▁Khoá	-12.9435
▁911	-12.9437
▁Kazu	-12.9438
tico	-12.944
▁Sr	-12.9443
16)	-12.9444
▁Work	-12.9447
oki	-12.9453
shot	-12.9456
▁Pai	-12.9456
▁sảng	-12.9458
▁Dem	-12.946
PU	-12.946
trò	-12.9461
Với	-12.9462
quốc	-12.9462
Máy	-12.9462
▁Powers	-12.9464
▁Richards	-12.9464
ấc	-12.9464
▁Ida	-12.9467
▁2007)	-12.9468
ngôn	-12.9474
5.5	-12.9476
path	-12.9476
gam	-12.9477
hira	-12.9478
main	-12.9478
▁Mile	-12.9481
▁Yar	-12.9481
▁Hop	-12.9486
gic	-12.9486
môn	-12.9491
eria	-12.9491
▁Pom	-12.9493
▁Tag	-12.9494
▁QU	-12.9499
nom	-12.95
̉i	-12.9509
▁trăn	-12.951
Per	-12.9512
floxacin	-12.9512
▁Bologna	-12.9512
▁Cincinnati	-12.9512
▁Dreyfus	-12.9512
▁Díaz	-12.9512
▁Mussolini	-12.9512
▁Nebraska	-12.9512
▁Randolph	-12.9512
▁Saddam	-12.9512
▁Sigismund	-12.9512
▁Sputnik	-12.9512
▁Stagecoach	-12.9512
▁cẳng	-12.9512
▁dẳng	-12.9512
▁lụy	-12.9512
▁nghiệp	-12.9512
▁sảy	-12.9512
▁turbine	-12.9512
▁Marlborough	-12.9512
▁aikido	-12.9512
▁Harvest	-12.9512
▁Marathon	-12.9512
▁Rainbow	-12.9512
▁Brandenburg	-12.9512
▁Nghiệp	-12.9512
▁Fukuoka	-12.9512
▁Andrzej	-12.9512
▁Vocaloid	-12.9512
▁Miriam	-12.9512
▁dẫn	-12.9512
▁Abbey	-12.9512
▁Javier	-12.9512
▁Riemann	-12.9512
▁Eurovision	-12.9512
▁Tonight	-12.9512
▁1/3	-12.9512
▁Madeira	-12.9512
▁Fortune	-12.9512
▁Thomson	-12.9512
▁Aleut	-12.9512
▁hydroxyl	-12.9512
▁Cayman	-12.9512
▁dẹt	-12.9513
▁Thiền	-12.9513
▁Antiochos	-12.9513
▁ngách	-12.9513
▁Đạn	-12.9513
▁Vince	-12.9513
▁Marvin	-12.9513
▁HS	-12.9514
▁Ladies	-12.9514
▁Patty	-12.9514
▁Ellie	-12.9514
▁cháo	-12.9514
▁dật	-12.9514
▁nhích	-12.9514
▁About	-12.9514
▁2011-12	-12.9515
▁sỡ	-12.9515
▁thiết	-12.9516
▁Blog	-12.9516
▁Piano	-12.9516
▁Sansa	-12.9516
▁hấn	-12.9516
▁Bloom	-12.9516
▁Factor	-12.9516
▁Gau	-12.9516
▁Database	-12.9519
▁1965)	-12.9519
▁Medi	-12.952
▁GPL	-12.952
▁khay	-12.9521
llis	-12.9522
▁Randy	-12.9522
▁Suk	-12.9524
▁whi	-12.9524
▁Chiêu	-12.9525
▁Ismail	-12.9525
▁kinase	-12.9525
▁2050	-12.9525
▁chức	-12.9526
▁Hazel	-12.9528
▁Aztec	-12.9531
▁Shige	-12.9532
▁Nazir	-12.9535
▁Ain	-12.9536
▁ja	-12.9539
▁Bab	-12.954
0,0	-12.9541
▁Manus	-12.9545
iński	-12.9546
▁Wel	-12.9547
▁teo	-12.9548
ường	-12.9549
▁Bean	-12.9552
▁Chong	-12.9556
▁Mut	-12.9557
▁KH	-12.9558
▁Marsh	-12.9558
▁Gees	-12.9559
kim	-12.956
▁Woods	-12.9561
120	-12.9569
VA	-12.9569
ủa	-12.9569
oya	-12.9571
▁cation	-12.9573
gang	-12.9573
▁DOS	-12.9575
thor	-12.9578
stic	-12.9578
▁epi	-12.9579
▁Bath	-12.9581
ilis	-12.9582
eun	-12.9582
bing	-12.9583
arm	-12.9584
gae	-12.9585
CG	-12.9586
ồi	-12.959
▁Hài	-12.9591
▁Alam	-12.9591
▁Abdel	-12.9591
▁HK	-12.9598
▁Test	-12.9602
oxo	-12.9603
▁Lar	-12.9607
▁Sud	-12.9608
list	-12.9609
▁RS	-12.961
:10	-12.9611
▁Corn	-12.9611
▁sim	-12.9612
away	-12.962
▁Gott	-12.9622
▁tốp	-12.9622
▁mail	-12.9622
ebel	-12.9623
-76	-12.9624
▁Lion	-12.9627
▁Jess	-12.9633
900	-12.9633
ưới	-12.9634
ING	-12.9635
▁Ein	-12.9639
ро	-12.964
▁Buri	-12.9642
ardi	-12.9643
hang	-12.9644
cto	-12.9646
BE	-12.9649
▁Amar	-12.9649
▁(40	-12.9649
▁metan	-12.9649
▁138	-12.965
▁1903,	-12.9652
phong	-12.9661
sử	-12.9663
#7903;	-12.9664
đất	-12.9665
roid	-12.9665
diễn	-12.9666
Thông	-12.9666
đánh	-12.9666
agan	-12.9666
▁Aqua	-12.9669
▁2.6	-12.9669
ná	-12.967
▁VP	-12.967
avo	-12.9672
OK	-12.9672
tạo	-12.9674
LI	-12.9674
Thổ	-12.9674
bán	-12.9677
ref	-12.968
▁113	-12.9681
▁Voi	-12.9681
bé	-12.9683
▁Sé	-12.9684
▁Elbe	-12.9685
max	-12.9686
▁Sada	-12.9687
ican	-12.9687
ants	-12.9688
tựa	-12.9688
tác	-12.9691
▁Witt	-12.9699
ích	-12.97
Mart	-12.9701
Ge	-12.9701
▁134	-12.9702
▁Tatra	-12.9704
▁GP	-12.9704
▁Cul	-12.9707
▁Zam	-12.9707
▁Arabia	-12.971
▁Lucian	-12.971
▁Mot	-12.9711
kur	-12.9714
▁Boulton	-12.9716
▁Gardner	-12.9716
▁Godfrey	-12.9716
▁Gujarat	-12.9716
▁Lhasa	-12.9716
▁Saratoga	-12.9716
▁UNICEF	-12.9716
▁Władysław	-12.9716
▁daimyo	-12.9716
▁estrogen	-12.9716
▁photphat	-12.9716
▁whiskey	-12.9716
▁Catalina	-12.9716
▁Federico	-12.9716
▁Evelyn	-12.9716
▁Streep	-12.9716
▁Antigua	-12.9716
▁nghệ	-12.9716
▁đầy	-12.9716
▁gallon	-12.9716
▁kiệu	-12.9716
▁rẫy	-12.9716
▁trời	-12.9716
▁Leigh	-12.9716
▁Scout	-12.9717
▁noãn	-12.9717
▁Regina	-12.9717
▁Enix	-12.9717
▁Panther	-12.9717
▁Quyến	-12.9717
▁Serena	-12.9717
▁Heroes	-12.9717
▁bức	-12.9717
▁Daryl	-12.9717
▁Olga	-12.9717
▁truyền	-12.9718
▁Milton	-12.9718
▁đùng	-12.9718
▁nhót	-12.9718
▁Stasi	-12.9719
▁NHK	-12.9719
▁EMI	-12.972
▁Kiều	-12.972
▁Răng	-12.9721
▁Archer	-12.9721
▁Xì	-12.9722
▁Spider	-12.9722
▁Council	-12.9722
▁Donetsk	-12.9722
▁Clare	-12.9722
2008	-12.9722
▁Naomi	-12.9722
▁Doyle	-12.9723
30.000	-12.9723
▁Chopin	-12.9723
kyung	-12.9724
▁Pad	-12.9726
10.000	-12.9726
▁Animal	-12.9726
▁Săn	-12.9728
wei	-12.9729
▁65%	-12.9729
▁Donna	-12.9729
▁Path	-12.9731
▁nần	-12.9731
▁nành	-12.9732
▁Holy	-12.9732
▁́	-12.9733
▁Loki	-12.9733
ển	-12.9733
▁Cran	-12.9736
▁Christie	-12.9737
▁free	-12.9737
▁Doris	-12.9737
▁Films	-12.9738
▁1750	-12.9738
▁Myr	-12.9739
▁Banda	-12.974
▁Katy	-12.974
▁Mb	-12.974
ppi	-12.974
kwa	-12.9741
ộ	-12.9742
tsi	-12.9743
▁JS	-12.9745
rae	-12.9745
BR	-12.9752
▁Brom	-12.9754
▁Theory	-12.9759
▁Ard	-12.976
hắc	-12.9761
▁like	-12.9762
ody	-12.9763
▁Lis	-12.9764
phus	-12.9766
▁Bernie	-12.9767
▁#7903;	-12.9768
benz	-12.977
oso	-12.9775
▁Ami	-12.9779
AE	-12.9779
down	-12.978
▁Gio	-12.979
FO	-12.979
AZ	-12.979
▁137	-12.9791
nên	-12.9792
50.000	-12.9792
▁Fine	-12.9793
ryu	-12.9794
bird	-12.9795
▁Boss	-12.9796
hov	-12.98
▁Baptist	-12.9801
kaze	-12.9804
▁Rosie	-12.9804
HP	-12.9805
West	-12.9805
▁1976)	-12.9805
▁Angels	-12.9807
azepam	-12.9809
tay	-12.9811
lá	-12.9812
▁Ramos	-12.9814
eño	-12.9814
▁Kung	-12.9821
encia	-12.9822
▁Tess	-12.9827
iers	-12.9831
Cu	-12.9833
sport	-12.9836
▁khoanh	-12.9839
Là	-12.984
▁mẹo	-12.9842
rup	-12.9845
nte	-12.9855
▁Shak	-12.9864
▁Haru	-12.9864
vic	-12.9865
▁khảm	-12.9865
kei	-12.9866
bed	-12.9867
▁Save	-12.9867
stat	-12.9868
hội	-12.9875
▁Siri	-12.9876
vật	-12.9876
Văn	-12.9876
mỗi	-12.988
▁(35	-12.988
ời	-12.9883
ick	-12.9891
▁Photo	-12.9895
”)	-12.9896
▁1.9	-12.9896
year	-12.9897
Ver	-12.9899
▁IA	-12.9905
▁Moor	-12.9906
take	-12.9906
Ru	-12.9906
▁Mig	-12.9906
▁222	-12.9907
▁Chronicle	-12.9914
▁Graf	-12.9914
▁145	-12.9915
anne	-12.9917
▁Fl	-12.992
oba	-12.992
script	-12.9924
ssen	-12.9924
▁König	-12.9924
#361;	-12.9924
▁Alejandro	-12.9924
▁Antilles	-12.9924
▁Belgrade	-12.9924
▁Bieber	-12.9924
▁Bucharest	-12.9924
▁Dalmatia	-12.9924
▁Dwight	-12.9924
▁Dynasty	-12.9924
▁Hokkaido	-12.9924
▁Kadokawa	-12.9924
▁Kiribati	-12.9924
▁Liechtenstein	-12.9924
▁Linnaeus	-12.9924
▁Quercus	-12.9924
▁Theodosius	-12.9924
▁Timothy	-12.9924
▁Ueshiba	-12.9924
▁gợn	-12.9924
▁kanji	-12.9924
▁Humphrey	-12.9924
▁remix	-12.9924
▁Gwangju	-12.9924
▁Zurich	-12.9924
▁Sakhalin	-12.9924
▁Jerome	-12.9924
▁kiến	-12.9924
▁Crowley	-12.9925
▁thuộc	-12.9925
#432;#7899;	-12.9925
▁Most	-12.9925
▁eBay	-12.9925
▁hướng	-12.9925
▁guốc	-12.9925
▁Vermont	-12.9925
▁Kenshin	-12.9925
▁Program	-12.9925
▁xấu	-12.9925
▁lập	-12.9925
▁bướng	-12.9925
▁xoài	-12.9925
▁Nic	-12.9925
▁drama	-12.9925
▁Andersen	-12.9925
▁Hillary	-12.9925
▁nhiệm	-12.9925
▁Kul	-12.9925
▁Ravenna	-12.9925
▁peso	-12.9926
▁nơron	-12.9926
▁Moreno	-12.9926
▁Messier	-12.9926
▁Benz	-12.9926
▁Chirac	-12.9926
▁Ghul	-12.9927
▁Toby	-12.9927
▁tiễu	-12.9927
▁Flag	-12.9927
▁suyễn	-12.9928
erry	-12.9928
▁Sasha	-12.9929
▁Upper	-12.9929
▁Thuần	-12.9929
oideae	-12.9929
▁Army	-12.993
▁Rumani	-12.993
▁RFC	-12.9932
▁École	-12.9934
▁Kiyo	-12.9935
▁Huế	-12.9936
ấp	-12.9936
▁sán	-12.9937
▁Kiel	-12.9937
▁Haifa	-12.9937
▁Sura	-12.9942
▁IMF	-12.9943
sed	-12.9943
▁Barrett	-12.9943
▁1816	-12.9949
▁45%	-12.995
cles	-12.9953
aux	-12.9955
▁1838	-12.9955
▁1794	-12.9956
▁hyper	-12.9956
▁work	-12.9962
▁Gate	-12.9963
vua	-12.9965
bank	-12.9966
nee	-12.997
▁pat	-12.9971
▁Date	-12.9971
glia	-12.9975
app	-12.9978
Sho	-12.9981
iser	-12.9987
▁Tea	-12.9987
skin	-12.9988
▁LO	-12.9989
PK	-12.999
vé	-12.9991
▁Rot	-12.9993
craft	-12.9993
zuki	-12.9995
vern	-12.9996
▁Rang	-12.9999
2,0	-13
▁Hoá	-13.0001
▁Demi	-13.0004
Ray	-13.0007
▁Robb	-13.0012
▁kilomet	-13.0014
urin	-13.0014
▁sộ	-13.0014
wie	-13.0017
▁320	-13.0018
▁#1	-13.002
SK	-13.0022
▁132	-13.0023
▁Adel	-13.0033
mund	-13.0033
ưởng	-13.0038
▁anH	-13.004
▁Cán	-13.0041
hỉ	-13.0041
-95	-13.0044
▁tố	-13.0046
▁Delphi	-13.0048
tl	-13.0049
hot	-13.0052
răm	-13.0057
sci	-13.0068
▁114	-13.0068
Air	-13.007
▁Kiri	-13.0071
leo	-13.0072
▁Dela	-13.0072
▁Nong	-13.0075
phosphate	-13.0075
lex	-13.0077
▁Fabio	-13.0077
▁Petro	-13.0078
eca	-13.008
Nga	-13.0081
rita	-13.0081
▁Cinema	-13.0082
▁SL	-13.0085
dera	-13.0085
ott	-13.0085
Đã	-13.0087
▁Hil	-13.0087
Vua	-13.009
giữa	-13.0091
Xem	-13.0093
cade	-13.0095
▁Tori	-13.0095
tig	-13.0096
▁MG	-13.0096
▁Musk	-13.0098
-37	-13.0103
lean	-13.0105
hằng	-13.0111
tae	-13.0111
▁Sera	-13.0112
▁Gao	-13.0114
▁Eh	-13.0114
Đi	-13.0116
▁FF	-13.0117
▁ser	-13.0118
▁Moro	-13.0119
▁log	-13.012
▁Kemp	-13.0121
câu	-13.0122
tland	-13.0123
master	-13.0123
ại	-13.0123
nett	-13.0124
room	-13.0125
▁Adventure	-13.0127
▁hộ	-13.0128
▁Ngon	-13.0131
▁Rover	-13.0133
▁Beverly	-13.0137
▁Bordeaux	-13.0137
▁Emirates	-13.0137
▁Joffrey	-13.0137
▁Komnenos	-13.0137
▁Lithuania	-13.0137
▁Miệng	-13.0137
▁Salerno	-13.0137
▁Shostakovich	-13.0137
▁Visigoth	-13.0137
▁collagen	-13.0137
▁lượng	-13.0137
▁nệm	-13.0137
▁nitric	-13.0137
▁logarit	-13.0137
▁halogen	-13.0137
▁Mustang	-13.0137
▁Aurelius	-13.0137
▁Bedford	-13.0137
▁Randall	-13.0137
▁Kathy	-13.0137
▁Xavier	-13.0137
▁suốt	-13.0137
▁Hilbert	-13.0137
▁Venera	-13.0137
▁Silent	-13.0137
▁Aikido	-13.0137
▁Albany	-13.0137
▁Arkham	-13.0138
▁Zhang	-13.0138
▁Ulsan	-13.0138
▁Becca	-13.0138
▁lệ	-13.0138
▁Capua	-13.0138
▁Oakland	-13.0138
pir	-13.0138
▁Madame	-13.0139
▁Brandon	-13.0139
▁Carlsen	-13.0139
▁sum	-13.014
▁Hebrides	-13.014
▁chắt	-13.0141
▁Yoko	-13.0142
▁mừng	-13.0142
▁Sói	-13.0143
▁tễ	-13.0143
▁Ferrari	-13.0143
▁Europe	-13.0144
▁Frankie	-13.0144
marin	-13.0148
▁tịnh	-13.0148
▁alkyl	-13.0149
ều	-13.0149
igna	-13.0149
▁President	-13.015
▁Fund	-13.0151
▁Lông	-13.0152
▁Gent	-13.0152
▁hê	-13.0154
▁Elsa	-13.0154
▁154	-13.0156
▁dó	-13.0158
ryū	-13.0158
fy	-13.016
▁Deal	-13.0163
▁IOC	-13.0163
▁Tata	-13.0163
show	-13.0163
▁Base	-13.0165
▁Căng	-13.0166
▁1968)	-13.0166
▁nhái	-13.0166
▁Ike	-13.017
brook	-13.017
logy	-13.0171
▁Cruise	-13.0172
▁photo	-13.0177
▁xổ	-13.0179
▁Cage	-13.0179
▁sur	-13.0181
hood	-13.0183
lev	-13.0185
▁meme	-13.0185
▁cl	-13.0186
▁Holi	-13.0186
▁bính	-13.0186
dun	-13.0191
chloro	-13.0196
▁COM	-13.0196
▁Unit	-13.0196
hō	-13.02
▁Pip	-13.0202
enstein	-13.0203
▁1982)	-13.0205
▁CL	-13.0206
▁1400	-13.0206
album	-13.0207
▁Mrs	-13.0208
▁Bess	-13.0211
▁chố	-13.0211
▁Verne	-13.0216
ưa	-13.0216
▁soda	-13.0217
ater	-13.0221
▁Bara	-13.0223
gha	-13.0223
▁Kea	-13.0224
▁167	-13.0224
▁Giác	-13.0224
13)	-13.0226
▁Cool	-13.0226
-33	-13.0228
▁Lub	-13.0229
dang	-13.0234
▁Epic	-13.0236
▁Laurent	-13.0239
▁Giant	-13.0239
▁flu	-13.0239
ẹ	-13.024
tex	-13.0241
mùa	-13.0243
▁Gry	-13.0243
▁Stand	-13.0244
▁Zulu	-13.0248
Brien	-13.0248
-2000	-13.0249
escu	-13.0251
)\	-13.0251
inder	-13.0251
▁Schwe	-13.0252
▁Andrei	-13.0252
än	-13.0256
nitz	-13.0256
▁Durant	-13.0259
▁Ise	-13.0261
▁Arm	-13.0262
cam	-13.0264
tab	-13.0267
tima	-13.0267
tung	-13.027
30)	-13.0273
▁war	-13.0276
TL	-13.028
hydro	-13.0281
▁Aw	-13.0283
▁Pé	-13.0283
lên	-13.029
▁6000	-13.0293
Ban	-13.0294
▁Trao	-13.0296
▁Ord	-13.0301
International	-13.0303
“	-13.0304
chus	-13.0305
Giáo	-13.0307
Năm	-13.0308
▁Shiba	-13.0309
cầu	-13.0309
▁Cef	-13.0311
tông	-13.0318
▁Scu	-13.0319
wu	-13.032
place	-13.0324
▁khong	-13.0333
▁Tổn	-13.0333
▁Sob	-13.0334
Mor	-13.0338
uồng	-13.0343
▁Did	-13.0347
bai	-13.0347
▁Tomo	-13.0348
Cứ	-13.0352
▁kiể	-13.0352
▁Nichols	-13.0354
Calédonie	-13.0354
Shughur	-13.0354
▁Abigail	-13.0354
▁América	-13.0354
▁Aphrodite	-13.0354
▁AstraZeneca	-13.0354
▁Cappadocia	-13.0354
▁Carroll	-13.0354
▁Casimir	-13.0354
▁Dawson	-13.0354
▁Katniss	-13.0354
▁Kazimierz	-13.0354
▁Lviv	-13.0354
▁NZT	-13.0354
▁Penelope	-13.0354
▁Plymouth	-13.0354
▁Sacramento	-13.0354
▁Vulcan	-13.0354
▁Wichita	-13.0354
▁Zanzibar	-13.0354
▁acoustic	-13.0354
▁xịn	-13.0354
▁Eugène	-13.0354
▁Gái	-13.0354
▁Rotterdam	-13.0354
▁Tchad	-13.0354
▁Harriet	-13.0354
▁Davao	-13.0354
▁Minamata	-13.0354
▁Telegraph	-13.0355
▁Resort	-13.0355
▁Teatro	-13.0355
▁Wilkes	-13.0355
▁Hammond	-13.0355
▁Luigi	-13.0355
▁Springfield	-13.0355
▁Motorola	-13.0355
▁lõa	-13.0355
▁nhoáng	-13.0355
▁Amelia	-13.0355
▁Knowles	-13.0355
▁Knox	-13.0355
▁dấu	-13.0355
▁Johor	-13.0355
▁Urdu	-13.0355
▁uế	-13.0355
▁Pratt	-13.0356
▁Capcom	-13.0356
▁Fisk	-13.0356
▁Gavin	-13.0356
▁trĩ	-13.0356
▁Nauru	-13.0356
▁Cherry	-13.0356
▁quyệt	-13.0356
WP	-13.0357
▁Fuller	-13.0357
▁xâu	-13.0358
▁Coleman	-13.0359
▁mận	-13.0359
▁Thong	-13.0359
▁Handel	-13.036
▁Kham	-13.036
▁Lãng	-13.0361
▁Cody	-13.0362
▁1780	-13.0362
▁Richardson	-13.0363
▁Champagne	-13.0363
bee	-13.0364
▁Kanon	-13.0364
▁min	-13.0365
:45	-13.037
▁2.3	-13.037
▁Nations	-13.0373
▁Whig	-13.0373
▁1808	-13.0374
▁Sed	-13.0375
bow	-13.0375
▁Bergen	-13.0376
[...]
